{
  "version": "1.0",
  "truncation": null,
  "padding": null,
  "added_tokens": [
    {
      "id": 0,
      "content": "[UNK]",
      "single_word": false,
      "lstrip": false,
      "rstrip": false,
      "normalized": false,
      "special": true
    },
    {
      "id": 1,
      "content": "[PAD]",
      "single_word": false,
      "lstrip": false,
      "rstrip": false,
      "normalized": false,
      "special": true
    },
    {
      "id": 2,
      "content": "<|endoftext|>",
      "single_word": false,
      "lstrip": false,
      "rstrip": false,
      "normalized": false,
      "special": true
    },
    {
      "id": 3,
      "content": "<|file_separator|>",
      "single_word": false,
      "lstrip": false,
      "rstrip": false,
      "normalized": false,
      "special": true
    },
    {
      "id": 4,
      "content": "<|fim_prefix|>",
      "single_word": false,
      "lstrip": false,
      "rstrip": false,
      "normalized": false,
      "special": true
    },
    {
      "id": 5,
      "content": "<|fim_middle|>",
      "single_word": false,
      "lstrip": false,
      "rstrip": false,
      "normalized": false,
      "special": true
    },
    {
      "id": 6,
      "content": "<|fim_suffix|>",
      "single_word": false,
      "lstrip": false,
      "rstrip": false,
      "normalized": false,
      "special": true
    }
  ],
  "normalizer": null,
  "pre_tokenizer": {
    "type": "ByteLevel",
    "add_prefix_space": false,
    "trim_offsets": true,
    "use_regex": true
  },
  "post_processor": null,
  "decoder": {
    "type": "ByteLevel",
    "add_prefix_space": true,
    "trim_offsets": true,
    "use_regex": true
  },
  "model": {
    "type": "BPE",
    "dropout": null,
    "unk_token": "[UNK]",
    "continuing_subword_prefix": null,
    "end_of_word_suffix": null,
    "fuse_unk": false,
    "byte_fallback": false,
    "ignore_merges": false,
    "vocab": {
      "[UNK]": 0,
      "[PAD]": 1,
      "<|endoftext|>": 2,
      "<|file_separator|>": 3,
      "<|fim_prefix|>": 4,
      "<|fim_middle|>": 5,
      "<|fim_suffix|>": 6,
      "!": 7,
      "\"": 8,
      "#": 9,
      "$": 10,
      "%": 11,
      "&": 12,
      "'": 13,
      "(": 14,
      ")": 15,
      "*": 16,
      "+": 17,
      ",": 18,
      "-": 19,
      ".": 20,
      "/": 21,
      "0": 22,
      "1": 23,
      "2": 24,
      "3": 25,
      "4": 26,
      "5": 27,
      "6": 28,
      "7": 29,
      "8": 30,
      "9": 31,
      ":": 32,
      ";": 33,
      "<": 34,
      "=": 35,
      ">": 36,
      "?": 37,
      "@": 38,
      "A": 39,
      "B": 40,
      "C": 41,
      "D": 42,
      "E": 43,
      "F": 44,
      "G": 45,
      "H": 46,
      "I": 47,
      "J": 48,
      "K": 49,
      "L": 50,
      "M": 51,
      "N": 52,
      "O": 53,
      "P": 54,
      "Q": 55,
      "R": 56,
      "S": 57,
      "T": 58,
      "U": 59,
      "V": 60,
      "W": 61,
      "X": 62,
      "Y": 63,
      "Z": 64,
      "[": 65,
      "\\": 66,
      "]": 67,
      "^": 68,
      "_": 69,
      "`": 70,
      "a": 71,
      "b": 72,
      "c": 73,
      "d": 74,
      "e": 75,
      "f": 76,
      "g": 77,
      "h": 78,
      "i": 79,
      "j": 80,
      "k": 81,
      "l": 82,
      "m": 83,
      "n": 84,
      "o": 85,
      "p": 86,
      "q": 87,
      "r": 88,
      "s": 89,
      "t": 90,
      "u": 91,
      "v": 92,
      "w": 93,
      "x": 94,
      "y": 95,
      "z": 96,
      "{": 97,
      "|": 98,
      "}": 99,
      "~": 100,
      "¡": 101,
      "¢": 102,
      "£": 103,
      "¤": 104,
      "¥": 105,
      "¦": 106,
      "§": 107,
      "¨": 108,
      "©": 109,
      "ª": 110,
      "«": 111,
      "¬": 112,
      "®": 113,
      "¯": 114,
      "°": 115,
      "±": 116,
      "²": 117,
      "³": 118,
      "´": 119,
      "µ": 120,
      "¶": 121,
      "·": 122,
      "¸": 123,
      "¹": 124,
      "º": 125,
      "»": 126,
      "¼": 127,
      "½": 128,
      "¾": 129,
      "¿": 130,
      "Â": 131,
      "Ã": 132,
      "Ä": 133,
      "Å": 134,
      "Æ": 135,
      "Ë": 136,
      "Ð": 137,
      "Ñ": 138,
      "Ø": 139,
      "Ù": 140,
      "à": 141,
      "á": 142,
      "â": 143,
      "ã": 144,
      "ä": 145,
      "å": 146,
      "æ": 147,
      "ç": 148,
      "è": 149,
      "é": 150,
      "ï": 151,
      "ð": 152,
      "ĉ": 153,
      "Ċ": 154,
      "Ġ": 155,
      "ġ": 156,
      "Ģ": 157,
      "ģ": 158,
      "Ĥ": 159,
      "ĥ": 160,
      "Ħ": 161,
      "ħ": 162,
      "Ĩ": 163,
      "ĩ": 164,
      "Ī": 165,
      "ī": 166,
      "Ĭ": 167,
      "ĭ": 168,
      "Į": 169,
      "į": 170,
      "İ": 171,
      "ı": 172,
      "Ĳ": 173,
      "ĳ": 174,
      "Ĵ": 175,
      "ĵ": 176,
      "Ķ": 177,
      "ķ": 178,
      "ĸ": 179,
      "Ĺ": 180,
      "ĺ": 181,
      "Ļ": 182,
      "ļ": 183,
      "Ľ": 184,
      "ľ": 185,
      "Ŀ": 186,
      "ŀ": 187,
      "Ł": 188,
      "ł": 189,
      "Ń": 190,
      "ĠĠ": 191,
      "ĠĠĠĠ": 192,
      "ĠĠĠĠĠĠĠĠ": 193,
      "ĠĠĠ": 194,
      "ĠĠĠĠĠĠĠĠĠĠĠĠĠĠĠĠ": 195,
      "ĉĉ": 196,
      "on": 197,
      "at": 198,
      "er": 199,
      "en": 200,
      "in": 201,
      "ĠĠĠĠĠĠĠ": 202,
      "et": 203,
      "</": 204,
      "ion": 205,
      "al": 206,
      "an": 207,
      "el": 208,
      "ou": 209,
      "lt": 210,
      "am": 211,
      "gt": 212,
      "//": 213,
      "or": 214,
      "ce": 215,
      "ent": 216,
      "st": 217,
      "ar": 218,
      "le": 219,
      "re": 220,
      "Ġ&": 221,
      "ame": 222,
      "ab": 223,
      "=\"": 224,
      "od": 225,
      "ss": 226,
      "Name": 227,
      "Ġ<": 228,
      "tr": 229,
      "our": 230,
      "ĠĠĠĠĠĠĠĠĠĠĠ": 231,
      "ing": 232,
      "Id": 233,
      "um": 234,
      "ate": 235,
      "Re": 236,
      "ue": 237,
      "In": 238,
      "ĠĠĠĠĠĠĠĠĠĠĠĠĠĠĠĠĠĠĠĠĠĠĠĠĠĠĠĠĠĠĠĠ": 239,
      "it": 240,
      ";/": 241,
      "Fi": 242,
      "ct": 243,
      "Ġ//": 244,
      "AA": 245,
      "ource": 246,
      "Ex": 247,
      "Ġt": 248,
      "ĉĉĉ": 249,
      "eld": 250,
      "Source": 251,
      "ro": 252,
      "ed": 253,
      "Ġ=": 254,
      "ans": 255,
      "Ġ///": 256,
      "Tr": 257,
      "ur": 258,
      "ER": 259,
      "ĠĠĠĠĠĠĠĠĠĠĠĠĠĠĠ": 260,
      "eth": 261,
      "nt": 262,
      "Field": 263,
      "is": 264,
      "alue": 265,
      "ation": 266,
      "able": 267,
      "Trans": 268,
      "em": 269,
      ");": 270,
      "Ġ</": 271,
      "ata": 272,
      "ethod": 273,
      "pe": 274,
      "Value": 275,
      "pre": 276,
      "Con": 277,
      "Method": 278,
      "Ġc": 279,
      "ex": 280,
      "ount": 281,
      "Data": 282,
      "abel": 283,
      "Label": 284,
      "ype": 285,
      "im": 286,
      "Inv": 287,
      "ssion": 288,
      "he": 289,
      "es": 290,
      "om": 291,
      "Ġp": 292,
      "Ġ{": 293,
      "Ġ}": 294,
      "ic": 295,
      "pression": 296,
      "Expression": 297,
      "ĠĠĠĠĠ": 298,
      "orm": 299,
      "Type": 300,
      "ty": 301,
      "ch": 302,
      "Table": 303,
      "Ġ/": 304,
      "ĉĉĉĉ": 305,
      "ext": 306,
      "sion": 307,
      "De": 308,
      "se": 309,
      "ust": 310,
      "ment": 311,
      "ag": 312,
      "Ġ_": 313,
      "ad": 314,
      "Ax": 315,
      "Ġf": 316,
      "Ġ/>": 317,
      "par": 318,
      "Form": 319,
      "ol": 320,
      "AAAA": 321,
      "ĠĠĠĠĠĠĠĠĠĠĠĠĠĠĠĠĠĠĠĠĠĠĠĠ": 322,
      "oi": 323,
      "get": 324,
      "oc": 325,
      "if": 326,
      "It": 327,
      "Ġb": 328,
      "Text": 329,
      "ret": 330,
      "::": 331,
      "Item": 332,
      "Pro": 333,
      "()": 334,
      "ĠĠĠĠĠĠĠĠĠĠĠĠĠĠĠĠĠĠĠ": 335,
      "Str": 336,
      "ut": 337,
      "ri": 338,
      "Dim": 339,
      "urn": 340,
      "end": 341,
      "Ġd": 342,
      "ension": 343,
      "il": 344,
      "ass": 345,
      "mar": 346,
      "ine": 347,
      "Par": 348,
      "AT": 349,
      "ĠLabel": 350,
      "return": 351,
      "ot": 352,
      "Ġs": 353,
      "ax": 354,
      "Ġthe": 355,
      "Ġin": 356,
      "act": 357,
      "ist": 358,
      "Date": 359,
      "oice": 360,
      "\">": 361,
      "Rec": 362,
      "ang": 363,
      "pt": 364,
      "CD": 365,
      "Invent": 366,
      "Ġn": 367,
      "Ġ(": 368,
      "ig": 369,
      "ATA": 370,
      "ay": 371,
      "Invoice": 372,
      "per": 373,
      "String": 374,
      "></": 375,
      "><": 376,
      "]]": 377,
      "cc": 378,
      "![": 379,
      "CDATA": 380,
      "><![": 381,
      "]]></": 382,
      "un": 383,
      "ummar": 384,
      "vent": 385,
      "Num": 386,
      "ummary": 387,
      "nal": 388,
      "Com": 389,
      "ort": 390,
      "oo": 391,
      "mp": 392,
      "id": 393,
      "Line": 394,
      "En": 395,
      "Cust": 396,
      "ode": 397,
      "Am": 398,
      "ect": 399,
      "ud": 400,
      "ger": 401,
      "summary": 402,
      "Jour": 403,
      "ap": 404,
      "ERExpression": 405,
      "Amount": 406,
      "ĠĠĠĠĠĠĠĠĠĠĠĠĠĠĠĠĠĠĠĠĠĠĠĠĠĠĠ": 407,
      "Ġv": 408,
      "ccount": 409,
      "his": 410,
      "ding": 411,
      "St": 412,
      "ost": 413,
      "Sty": 414,
      "Style": 415,
      "Ġif": 416,
      "rou": 417,
      "qu": 418,
      "ĠĠĠĠĠĠĠĠĠĠĠĠĠĠĠĠĠĠĠĠĠĠĠ": 419,
      "age": 420,
      "ity": 421,
      "udget": 422,
      "port": 423,
      "ub": 424,
      "Dimension": 425,
      "ĠL": 426,
      "Contr": 427,
      "ew": 428,
      "ord": 429,
      "roup": 430,
      "To": 431,
      "Comp": 432,
      "Account": 433,
      "ĠĠĠĠĠĠĠĠĠĠĠĠĠĠĠĠĠ": 434,
      "ument": 435,
      "Cont": 436,
      "Format": 437,
      "();": 438,
      "Group": 439,
      "Def": 440,
      "ance": 441,
      "param": 442,
      "lass": 443,
      "Ass": 444,
      "Ġreturn": 445,
      "as": 446,
      "li": 447,
      "AAAAAAAA": 448,
      "ĠĠĠĠĠĠĠĠĠĠĠĠĠĠĠĠĠĠĠĠĠĠĠĠĠĠĠĠĠ": 449,
      "RecId": 450,
      "lic": 451,
      "ĠĠĠĠĠĠĠĠĠ": 452,
      "ocument": 453,
      "ery": 454,
      "str": 455,
      "ck": 456,
      "ĠĠĠĠĠĠĠĠĠĠĠĠĠĠĠĠĠĠĠĠĠĠĠĠĠ": 457,
      "urr": 458,
      "rd": 459,
      "Tax": 460,
      "Code": 461,
      "ont": 462,
      "Ġw": 463,
      "Journal": 464,
      "ank": 465,
      "Run": 466,
      "Sy": 467,
      "ht": 468,
      "ow": 469,
      "Ġthis": 470,
      "Tmp": 471,
      "ult": 472,
      "Ġre": 473,
      "Asset": 474,
      "Control": 475,
      "CB": 476,
      "fer": 477,
      "us": 478,
      "DataField": 479,
      "ales": 480,
      "ition": 481,
      "ĠĠĠĠĠĠĠĠĠĠĠĠĠĠĠĠĠĠĠĠĠ": 482,
      "ter": 483,
      "angu": 484,
      "Ad": 485,
      "ain": 486,
      "up": 487,
      "ber": 488,
      "anguage": 489,
      "Proper": 490,
      "and": 491,
      "Report": 492,
      "true": 493,
      "Document": 494,
      "anguageId": 495,
      "Se": 496,
      "odel": 497,
      "enc": 498,
      "Ġ==": 499,
      "ublic": 500,
      "ĠLanguageId": 501,
      "ook": 502,
      "ĠLabelId": 503,
      "fi": 504,
      "ERLabel": 505,
      "ĠLabelValue": 506,
      "parm": 507,
      "iv": 508,
      "Qu": 509,
      "iz": 510,
      "Pay": 511,
      "ĠName": 512,
      "Vend": 513,
      "ell": 514,
      "Budget": 515,
      "Set": 516,
      "lement": 517,
      "ml": 518,
      "Al": 519,
      "Property": 520,
      "edger": 521,
      "Ġpublic": 522,
      "Ġm": 523,
      "Ġo": 524,
      "Cell": 525,
      "DataSource": 526,
      "Rel": 527,
      "eter": 528,
      "og": 529,
      "Pr": 530,
      "rom": 531,
      "CBA": 532,
      "xml": 533,
      "ents": 534,
      "Pat": 535,
      "ated": 536,
      "ib": 537,
      "ight": 538,
      "ase": 539,
      "Sales": 540,
      "ser": 541,
      "action": 542,
      "rap": 543,
      "cal": 544,
      "Contents": 545,
      "adding": 546,
      "ant": 547,
      "Padding": 548,
      "))": 549,
      "Tab": 550,
      "onent": 551,
      "uct": 552,
      "Path": 553,
      "ameter": 554,
      "Ext": 555,
      "Component": 556,
      "led": 557,
      "Font": 558,
      "ence": 559,
      "ĠĠĠĠĠĠĠĠĠĠĠĠĠĠĠĠĠĠĠĠĠĠĠĠĠĠĠĠĠĠĠ": 560,
      "(_": 561,
      "returns": 562,
      "ul": 563,
      "ersion": 564,
      "raph": 565,
      "eri": 566,
      "The": 567,
      "Le": 568,
      "ERExpressionString": 569,
      "ault": 570,
      "lix": 571,
      "Tablix": 572,
      "pl": 573,
      "ure": 574,
      "ency": 575,
      "Curr": 576,
      "He": 577,
      "TextRun": 578,
      "agraph": 579,
      "Paragraph": 580,
      "ID": 581,
      "ack": 582,
      "Ġ&&": 583,
      "Cre": 584,
      "ption": 585,
      "AxTable": 586,
      "Ġwh": 587,
      "Ġl": 588,
      "con": 589,
      "Ke": 590,
      "=\"{": 591,
      "Class": 592,
      "asset": 593,
      "try": 594,
      "lean": 595,
      "ator": 596,
      "Ġis": 597,
      "Bank": 598,
      "}\"": 599,
      "List": 600,
      "Ġinvent": 601,
      "Ġname": 602,
      "ci": 603,
      "ox": 604,
      "Query": 605,
      "Parameter": 606,
      "Defin": 607,
      "ange": 608,
      "Cal": 609,
      "date": 610,
      "ItemValue": 611,
      "Model": 612,
      "Ledger": 613,
      "Of": 614,
      "At": 615,
      "Ġpro": 616,
      "ĠĠĠĠĠĠĠĠĠĠĠĠĠĠĠĠĠĠĠĠĠĠĠĠĠĠĠĠĠĠĠĠĠ": 617,
      "cess": 618,
      "alse": 619,
      "any": 620,
      "ject": 621,
      "Ġfor": 622,
      "ns": 623,
      "Custom": 624,
      "Ġto": 625,
      "By": 626,
      "Bin": 627,
      "ail": 628,
      "Binding": 629,
      "ft": 630,
      "box": 631,
      "Ġof": 632,
      "urch": 633,
      "cl": 634,
      "oolean": 635,
      "ĠĠĠĠĠĠĠĠĠĠĠĠĠĠĠĠĠĠĠĠĠĠĠĠĠĠĠĠĠĠĠĠĠĠĠ": 636,
      "ler": 637,
      "00": 638,
      "Ġa": 639,
      "Col": 640,
      "ule": 641,
      "Pl": 642,
      "ute": 643,
      "trib": 644,
      "Element": 645,
      "Post": 646,
      "Book": 647,
      "Ġxml": 648,
      "Currency": 649,
      "ader": 650,
      "Relation": 651,
      "Payment": 652,
      "os": 653,
      "AxTableField": 654,
      "Ġxmlns": 655,
      "Default": 656,
      "th": 657,
      "AAAAAAAAAAAAAAAA": 658,
      "Dis": 659,
      "ference": 660,
      "ĠItem": 661,
      "atch": 662,
      "ign": 663,
      "oid": 664,
      "Attrib": 665,
      "///": 666,
      "ĠĠĠĠĠĠĠĠĠĠĠĠĠĠĠĠĠĠĠĠĠĠĠĠĠĠĠĠĠĠĠĠĠĠĠĠĠĠĠ": 667,
      "Number": 668,
      "));": 669,
      "low": 670,
      "No": 671,
      "order": 672,
      "eriod": 673,
      "Ġvoid": 674,
      "set": 675,
      "ĠInvent": 676,
      "dit": 677,
      "Transaction": 678,
      "add": 679,
      "Yes": 680,
      "ener": 681,
      "ver": 682,
      "Definition": 683,
      "Textbox": 684,
      "ledger": 685,
      "Attribute": 686,
      "invent": 687,
      "ction": 688,
      "row": 689,
      "Ġcon": 690,
      "Enum": 691,
      "iew": 692,
      "Header": 693,
      "TextFormat": 694,
      "ERTextFormat": 695,
      "Add": 696,
      "Stat": 697,
      "ĠThe": 698,
      "AxForm": 699,
      "Ġfi": 700,
      "Ġst": 701,
      "ĠItemPath": 702,
      "ory": 703,
      "For": 704,
      "alid": 705,
      "Ent": 706,
      "ERFormat": 707,
      "Ġnew": 708,
      "Fields": 709,
      "Prod": 710,
      "ML": 711,
      "Plan": 712,
      "\"&": 713,
      "ĠSy": 714,
      "Up": 715,
      "Can": 716,
      "ĠID": 717,
      "ep": 718,
      "Reference": 719,
      "Is": 720,
      "XML": 721,
      "cri": 722,
      "Calc": 723,
      "),": 724,
      "Loc": 725,
      "rst": 726,
      "Ġcust": 727,
      "trans": 728,
      "ĠĠĠĠĠĠĠĠĠĠĠĠĠ": 729,
      "PropertyBinding": 730,
      "ComponentPropertyBinding": 731,
      "ERFormatComponentPropertyBinding": 732,
      "stance": 733,
      ".>": 734,
      "ize": 735,
      "Ġboolean": 736,
      "ial": 737,
      "Ag": 738,
      "ĉĉĉĉĉ": 739,
      "int": 740,
      "form": 741,
      "Cost": 742,
      "stem": 743,
      "elect": 744,
      "Map": 745,
      "ind": 746,
      "Purch": 747,
      "Ġpar": 748,
      "ĠĠĠĠĠĠĠĠĠĠĠĠĠĠĠĠĠĠĠĠĠĠĠĠĠĠĠĠĠĠĠĠĠĠĠĠĠĠĠĠĠĠĠ": 749,
      "ouch": 750,
      "ww": 751,
      "idth": 752,
      "Width": 753,
      "oucher": 754,
      "riv": 755,
      "ether": 756,
      "Reg": 757,
      "Border": 758,
      "Extension": 759,
      "bject": 760,
      "ĠĠĠĠĠĠĠĠĠĠĠĠĠĠĠĠĠĠĠĠĠĠĠĠĠĠĠĠĠĠĠĠĠĠĠĠĠĠĠĠĠ": 761,
      "ime": 762,
      "Ġclass": 763,
      "Version": 764,
      "clar": 765,
      "Entry": 766,
      "Left": 767,
      "TypeName": 768,
      "Entity": 769,
      "Company": 770,
      "Ġasset": 771,
      "TablixCell": 772,
      "Hand": 773,
      "Status": 774,
      "Period": 775,
      "claration": 776,
      "preci": 777,
      "etail": 778,
      "ERModel": 779,
      "View": 780,
      "As": 781,
      "à¸": 782,
      "ere": 783,
      "cord": 784,
      "ress": 785,
      "Gener": 786,
      "Declaration": 787,
      "alance": 788,
      "Qty": 789,
      "file": 790,
      "System": 791,
      "On": 792,
      "ork": 793,
      "ds": 794,
      "Ġ\"": 795,
      "From": 796,
      "Keep": 797,
      "Ġth": 798,
      "ast": 799,
      "ĠAsset": 800,
      ".=\"{": 801,
      "Ġj": 802,
      "quot": 803,
      "ines": 804,
      "heck": 805,
      "State": 806,
      "Res": 807,
      "Ord": 808,
      "=\"_": 809,
      "eg": 810,
      "Ch": 811,
      "query": 812,
      "Methods": 813,
      "BR": 814,
      "Voucher": 815,
      "Tog": 816,
      "preciation": 817,
      "Order": 818,
      "nd": 819,
      "ement": 820,
      "ĠĠĠĠĠĠĠĠĠĠĠĠĠĠĠĠĠĠĠĠĠĠĠĠĠĠĠĠĠĠĠĠĠĠĠĠĠĠĠĠĠĠĠĠĠĠĠ": 821,
      "Together": 822,
      "KeepTogether": 823,
      "ob": 824,
      "scal": 825,
      "ec": 826,
      "Fiscal": 827,
      "ĉĉĉĉĉĉĉĉ": 828,
      "ific": 829,
      "Size": 830,
      "Time": 831,
      "ive": 832,
      "RU": 833,
      "First": 834,
      "Handler": 835,
      "Balance": 836,
      "otal": 837,
      "Ġ0": 838,
      "rea": 839,
      "Ġbudget": 840,
      "Process": 841,
      "'.": 842,
      "AsString": 843,
      "Object": 844,
      "Ref": 845,
      "SourceCode": 846,
      "ExpressionAsString": 847,
      "Ġde": 848,
      "Record": 849,
      "mark": 850,
      "ĠExpressionAsString": 851,
      "Un": 852,
      "DataType": 853,
      "ainer": 854,
      "TextRuns": 855,
      "Grow": 856,
      "Paragraphs": 857,
      "CanGrow": 858,
      "ected": 859,
      "field": 860,
      "Inter": 861,
      "Sch": 862,
      "Ġfrom": 863,
      "tected": 864,
      "escri": 865,
      "ip": 866,
      "Ġprotected": 867,
      "Rule": 868,
      "Parameters": 869,
      "Address": 870,
      "ror": 871,
      "ild": 872,
      "IN": 873,
      "find": 874,
      "ĠĠĠĠĠĠĠĠĠĠĠĠĠĠĠĠĠĠĠĠĠĠĠĠĠĠĠĠĠĠĠĠĠĠĠĠĠ": 875,
      "BE": 876,
      "stant": 877,
      "Ġtrue": 878,
      "JournalTrans": 879,
      "Ġ'": 880,
      "Del": 881,
      "Not": 882,
      "ies": 883,
      "().": 884,
      "ly": 885,
      "one": 886,
      "Ġwhere": 887,
      "Ġ+": 888,
      "Ġel": 889,
      "ĠA": 890,
      "Ġtrans": 891,
      "ith": 892,
      "AxDimension": 893,
      "ĠC": 894,
      "Constant": 895,
      "Ind": 896,
      "AxClass": 897,
      "Credit": 898,
      "Ġfield": 899,
      "Sh": 900,
      "pen": 901,
      "Sub": 902,
      "rivate": 903,
      "Detail": 904,
      "ĠĠĠĠĠĠ": 905,
      "ve": 906,
      "abled": 907,
      "Ġ[": 908,
      "Ġ/&": 909,
      "Ġprivate": 910,
      "Ġstat": 911,
      "MS": 912,
      "ED": 913,
      "Pri": 914,
      "this": 915,
      "Sett": 916,
      "Ġrecord": 917,
      "que": 918,
      "Sum": 919,
      "ear": 920,
      "cel": 921,
      "op": 922,
      "Event": 923,
      "vi": 924,
      "Align": 925,
      "Ġledger": 926,
      "())": 927,
      "CellContents": 928,
      "Top": 929,
      "vel": 930,
      "Update": 931,
      "rig": 932,
      "cust": 933,
      "ification": 934,
      "SY": 935,
      "FontSize": 936,
      "ily": 937,
      "AX": 938,
      "Act": 939,
      "amily": 940,
      "Family": 941,
      "Ġstr": 942,
      "FontFamily": 943,
      "Ġelse": 944,
      "Product": 945,
      "sert": 946,
      "Orig": 947,
      "ac": 948,
      "Range": 949,
      "Allow": 950,
      "Ġg": 951,
      "ution": 952,
      "ire": 953,
      "ess": 954,
      "fo": 955,
      "Bu": 956,
      "out": 957,
      "CustomProperty": 958,
      "acking": 959,
      "Pre": 960,
      "Bot": 961,
      "ended": 962,
      "Ġret": 963,
      "Ġ(!": 964,
      "type": 965,
      "Aut": 966,
      "ics": 967,
      "Log": 968,
      "Right": 969,
      "SYS": 970,
      "Base": 971,
      "Ġset": 972,
      "Transfer": 973,
      "update": 974,
      "model": 975,
      "Ġbe": 976,
      "Bott": 977,
      "Descri": 978,
      "ĠM": 979,
      "Ġfalse": 980,
      "Per": 981,
      "Key": 982,
      "gs": 983,
      "=\"\"": 984,
      "est": 985,
      "inal": 986,
      "Bottom": 987,
      "Ġex": 988,
      "cur": 989,
      "Contract": 990,
      "als": 991,
      "Work": 992,
      "instance": 993,
      "PaddingLeft": 994,
      "urrent": 995,
      "Parm": 996,
      "Int": 997,
      "ary": 998,
      "Valid": 999,
      "ite": 1000,
      "Ġstatic": 1001,
      "pp": 1002,
      "25": 1003,
      "Secon": 1004,
      "ialog": 1005,
      "loc": 1006,
      "ard": 1007,
      "Statement": 1008,
      "AxTableFieldGroup": 1009,
      "Depreciation": 1010,
      "'$": 1011,
      "BudgetPlan": 1012,
      "Schem": 1013,
      "ile": 1014,
      "Adj": 1015,
      "NoYes": 1016,
      "Price": 1017,
      "Ġtable": 1018,
      "amount": 1019,
      "AAAAAAAAAAAAAAAAAAAAAAAAAAAAAAAA": 1020,
      "pos": 1021,
      "Enabled": 1022,
      "OM": 1023,
      "Ġ!": 1024,
      "art": 1025,
      "Ġparm": 1026,
      "Ġvalue": 1027,
      "User": 1028,
      "ĠĠĠĠĠĠĠĠĠĠĠĠĠĠĠĠĠĠĠĠĠĠĠĠĠĠĠĠĠĠĠĠĠĠĠĠĠĠĠĠĠĠĠĠĠĠĠĠĠ": 1029,
      "Year": 1030,
      "Info": 1031,
      "Deb": 1032,
      "CustVend": 1033,
      "ifi": 1034,
      "ir": 1035,
      "Create": 1036,
      "Paym": 1037,
      "play": 1038,
      "oin": 1039,
      "de": 1040,
      "001": 1041,
      "pr": 1042,
      "Index": 1043,
      "20": 1044,
      "Ġversion": 1045,
      "Second": 1046,
      "Job": 1047,
      "Ġr": 1048,
      "aint": 1049,
      "DataSourceField": 1050,
      "marks": 1051,
      "TransDate": 1052,
      "Total": 1053,
      "struct": 1054,
      "Ġ1": 1055,
      "Oper": 1056,
      "ĠĠĠĠĠĠĠĠĠĠĠĠĠĠĠĠĠĠĠĠĠĠĠĠĠĠĠĠĠĠĠĠĠĠĠĠĠĠĠĠĠĠĠĠĠ": 1057,
      "pec": 1058,
      "ical": 1059,
      "Ġbank": 1060,
      "ys": 1061,
      "Ġselect": 1062,
      "Cur": 1063,
      "tp": 1064,
      "Exch": 1065,
      "remarks": 1066,
      "ĠSys": 1067,
      "ĠValue": 1068,
      "Ret": 1069,
      "iscal": 1070,
      "arch": 1071,
      "Relations": 1072,
      "ree": 1073,
      "ization": 1074,
      "Disc": 1075,
      "Container": 1076,
      "Color": 1077,
      "AxFormDataSourceField": 1078,
      "ĠComponent": 1079,
      "());": 1080,
      "Ġe": 1081,
      "(\"": 1082,
      "org": 1083,
      "http": 1084,
      "Ġh": 1085,
      "parator": 1086,
      "curity": 1087,
      "Ġquery": 1088,
      "ature": 1089,
      "Fe": 1090,
      "://": 1091,
      "ill": 1092,
      "Hel": 1093,
      "ĠLedger": 1094,
      "Security": 1095,
      "Ġenc": 1096,
      "Ġcase": 1097,
      "Open": 1098,
      "App": 1099,
      "Er": 1100,
      "separator": 1101,
      "SalesInvoice": 1102,
      "ERTextFormatXML": 1103,
      "oding": 1104,
      "DefaultName": 1105,
      "<|": 1106,
      "|>": 1107,
      "vice": 1108,
      "LA": 1109,
      "utf": 1110,
      "Schema": 1111,
      "com": 1112,
      "mt": 1113,
      "Ġencoding": 1114,
      "TextAlign": 1115,
      "\"?": 1116,
      "www": 1117,
      "reate": 1118,
      "ull": 1119,
      "Extended": 1120,
      "<?": 1121,
      "\"?>": 1122,
      "Display": 1123,
      "Posting": 1124,
      "false": 1125,
      "2001": 1126,
      "XMLSchema": 1127,
      "oun": 1128,
      "ntax": 1129,
      "Ġthat": 1130,
      "InvoiceJour": 1131,
      "ternal": 1132,
      "ntaxVersion": 1133,
      "ĠSyntaxVersion": 1134,
      "Ġq": 1135,
      "ateg": 1136,
      "BOM": 1137,
      "InventDim": 1138,
      "put": 1139,
      "reak": 1140,
      "Count": 1141,
      "Local": 1142,
      "Ġform": 1143,
      "AxSecurity": 1144,
      ">@": 1145,
      "ĠD": 1146,
      "Unit": 1147,
      "Mode": 1148,
      "Ġdim": 1149,
      "arget": 1150,
      "Ġby": 1151,
      "Print": 1152,
      "ĠCBA": 1153,
      "new": 1154,
      "(\"@": 1155,
      "Row": 1156,
      "ountry": 1157,
      "PT": 1158,
      "None": 1159,
      "TypeId": 1160,
      "DateTime": 1161,
      "Reporting": 1162,
      "JP": 1163,
      "Equ": 1164,
      "iation": 1165,
      "ĠBank": 1166,
      "ge": 1167,
      "(),": 1168,
      "Mod": 1169,
      "ration": 1170,
      "mit": 1171,
      "erator": 1172,
      "Ġcontr": 1173,
      "Proj": 1174,
      "ember": 1175,
      "ore": 1176,
      "10": 1177,
      "Fl": 1178,
      "anb": 1179,
      "EDT": 1180,
      "With": 1181,
      "Lines": 1182,
      "Rate": 1183,
      "ExtendedDataType": 1184,
      "ERTextFormatXMLElement": 1185,
      "ari": 1186,
      "FirstExpression": 1187,
      "SecondExpression": 1188,
      "InventTrans": 1189,
      "Error": 1190,
      "anban": 1191,
      "Ġpr": 1192,
      "ete": 1193,
      "Auto": 1194,
      "Colum": 1195,
      "yn": 1196,
      "Ġand": 1197,
      "ov": 1198,
      "Ġcal": 1199,
      "ĉĉĉĉĉĉ": 1200,
      "istri": 1201,
      "item": 1202,
      "ERExpressionStringItemValue": 1203,
      "Ġ\"_": 1204,
      "Ġ-": 1205,
      "ivity": 1206,
      "cm": 1207,
      "Ar": 1208,
      "fieldNum": 1209,
      "Member": 1210,
      "ERExpressionStringConstant": 1211,
      "We": 1212,
      "val": 1213,
      "&#": 1214,
      "xA": 1215,
      "BEL": 1216,
      "ash": 1217,
      "Accounting": 1218,
      "LABEL": 1219,
      "Ġtax": 1220,
      "table": 1221,
      "Operation": 1222,
      "FB": 1223,
      ".</": 1224,
      "Ġ#": 1225,
      "RPT": 1226,
      "DataSet": 1227,
      "Excel": 1228,
      "ry": 1229,
      "ning": 1230,
      "Dep": 1231,
      "ategory": 1232,
      "DataContainer": 1233,
      "ournal": 1234,
      "ĉĉĉĉĉĉĉ": 1235,
      "ookup": 1236,
      "Batch": 1237,
      "Ġ|": 1238,
      ";=": 1239,
      "Ġtransaction": 1240,
      "Description": 1241,
      "Ġamount": 1242,
      "mg": 1243,
      "Man": 1244,
      "oad": 1245,
      "ĠĠĠĠĠĠĠĠĠĠĠĠĠĠĠĠĠĠĠĠĠĠĠĠĠĠĠĠĠĠĠĠĠĠĠĠĠĠĠĠĠĠĠĠĠĠĠĠĠĠĠ": 1246,
      "ĠS": 1247,
      "Calcul": 1248,
      "Ġ||": 1249,
      "Ġus": 1250,
      "Equals": 1251,
      "Ġcont": 1252,
      "ERDataContainer": 1253,
      "Ġbreak": 1254,
      "Ident": 1255,
      "Regist": 1256,
      "FD": 1257,
      "ervice": 1258,
      "Feature": 1259,
      "Build": 1260,
      "Real": 1261,
      "old": 1262,
      "/$": 1263,
      "AxReport": 1264,
      "=\"$": 1265,
      "istrib": 1266,
      "ier": 1267,
      "Ġor": 1268,
      "ified": 1269,
      "bds": 1270,
      "DataEntity": 1271,
      "Ġ(_": 1272,
      "Ġdata": 1273,
      "Ġdate": 1274,
      "11": 1275,
      "lter": 1276,
      "Location": 1277,
      "value": 1278,
      "Ġ!=": 1279,
      "Or": 1280,
      "And": 1281,
      "reg": 1282,
      "acture": 1283,
      "ace": 1284,
      "MST": 1285,
      "Ġon": 1286,
      "LedgerDimension": 1287,
      "ĠQuery": 1288,
      "pro": 1289,
      "GER": 1290,
      "PaddingRight": 1291,
      "etter": 1292,
      "posal": 1293,
      "orre": 1294,
      "Origin": 1295,
      "Country": 1296,
      "Customer": 1297,
      "CBARPT": 1298,
      "ise": 1299,
      "Column": 1300,
      "straint": 1301,
      "Mar": 1302,
      "Settlement": 1303,
      "cil": 1304,
      "ual": 1305,
      "init": 1306,
      "ynam": 1307,
      "Target": 1308,
      "Constraint": 1309,
      "Check": 1310,
      "enu": 1311,
      "AxTableFieldGroupField": 1312,
      "co": 1313,
      "Helper": 1314,
      "ĠG": 1315,
      "Reser": 1316,
      "ciliation": 1317,
      "quest": 1318,
      "Tracking": 1319,
      "Recon": 1320,
      "Po": 1321,
      "Ġinstance": 1322,
      "Related": 1323,
      "End": 1324,
      "TransType": 1325,
      "Category": 1326,
      "Adjust": 1327,
      "Ġdimension": 1328,
      "UI": 1329,
      "Ac": 1330,
      "ItemId": 1331,
      "Party": 1332,
      "AxFormControl": 1333,
      "Rece": 1334,
      "TableId": 1335,
      "Ġget": 1336,
      "ierarch": 1337,
      "Dynam": 1338,
      "Level": 1339,
      "Use": 1340,
      "IS": 1341,
      "\",": 1342,
      "PaddingBottom": 1343,
      "Region": 1344,
      "PaddingTop": 1345,
      "ĠCust": 1346,
      "istribution": 1347,
      "eas": 1348,
      "Enumerator": 1349,
      "Ġtmp": 1350,
      "Ġmethod": 1351,
      "ayment": 1352,
      "ped": 1353,
      "reement": 1354,
      "Ġint": 1355,
      "formation": 1356,
      "Ġjoin": 1357,
      "Emp": 1358,
      "Out": 1359,
      "Ġfiscal": 1360,
      "ierarchy": 1361,
      "Ġcom": 1362,
      "Ġnum": 1363,
      "Weight": 1364,
      "ception": 1365,
      "Ali": 1366,
      "ink": 1367,
      "Len": 1368,
      "AC": 1369,
      "FiscalDocument": 1370,
      "Free": 1371,
      "Alias": 1372,
      "40": 1373,
      "Conf": 1374,
      "fault": 1375,
      "Profile": 1376,
      "dition": 1377,
      "ĠBudget": 1378,
      "Service": 1379,
      "ache": 1380,
      "Bl": 1381,
      "Context": 1382,
      ")]": 1383,
      "essage": 1384,
      "FormControl": 1385,
      "ask": 1386,
      "antity": 1387,
      "Numer": 1388,
      "AxReportDataSet": 1389,
      "Types": 1390,
      "cial": 1391,
      "('": 1392,
      "45": 1393,
      "Mark": 1394,
      "pany": 1395,
      "26": 1396,
      "EventHandler": 1397,
      "Select": 1398,
      "Ph": 1399,
      "Ġk": 1400,
      "ists": 1401,
      "Condition": 1402,
      "Ġqbds": 1403,
      "create": 1404,
      "Match": 1405,
      "budget": 1406,
      "IC": 1407,
      "Ġaccount": 1408,
      "Ġar": 1409,
      "construct": 1410,
      "Comm": 1411,
      "go": 1412,
      "46": 1413,
      "47": 1414,
      "49": 1415,
      "Ġvend": 1416,
      "Ca": 1417,
      "VendTrans": 1418,
      "Init": 1419,
      "TaxTrans": 1420,
      "If": 1421,
      "Ġnot": 1422,
      "Vendor": 1423,
      "Area": 1424,
      "13": 1425,
      "CurrencyCode": 1426,
      "Height": 1427,
      "Edit": 1428,
      "AmountCur": 1429,
      "Ġwhile": 1430,
      "SourceDocument": 1431,
      "Ġcurrent": 1432,
      "Details": 1433,
      "insert": 1434,
      "ĠinventTrans": 1435,
      "DS": 1436,
      "error": 1437,
      "ValueDefinition": 1438,
      "Exchange": 1439,
      "endar": 1440,
      "Reconciliation": 1441,
      "Ġdel": 1442,
      "ping": 1443,
      "48": 1444,
      "Fin": 1445,
      "ik": 1446,
      "Ġevent": 1447,
      "Imp": 1448,
      "43": 1449,
      "BA": 1450,
      "enum": 1451,
      "ĠNoYes": 1452,
      "Rout": 1453,
      "ItemDefinition": 1454,
      "ValueSource": 1455,
      "Numeric": 1456,
      "Input": 1457,
      "istics": 1458,
      "iness": 1459,
      "data": 1460,
      "Dire": 1461,
      "ItemValueDefinition": 1462,
      "ERModelItemValueDefinition": 1463,
      "ERModelItemDefinition": 1464,
      "ĠĠĠĠĠĠĠĠĠĠĠĠ": 1465,
      "Ġ:": 1466,
      "usiness": 1467,
      "easure": 1468,
      "Start": 1469,
      "Off": 1470,
      "Ġext": 1471,
      "Ġal": 1472,
      "scri": 1473,
      "ĠE": 1474,
      "Dynamics": 1475,
      "gth": 1476,
      "File": 1477,
      "greg": 1478,
      "06": 1479,
      "ts": 1480,
      "oot": 1481,
      "Current": 1482,
      "source": 1483,
      "ERTextFormatString": 1484,
      "tor": 1485,
      "Ġsource": 1486,
      "12": 1487,
      "42": 1488,
      "Registration": 1489,
      "Request": 1490,
      "current": 1491,
      "16": 1492,
      "Project": 1493,
      "DE": 1494,
      "inventDim": 1495,
      "Hierarchy": 1496,
      "vid": 1497,
      "Measure": 1498,
      "CA": 1499,
      "isib": 1500,
      "egate": 1501,
      "Subscri": 1502,
      "Ġcheck": 1503,
      "15": 1504,
      "Doc": 1505,
      "ĠinventDim": 1506,
      "Debtor": 1507,
      "Ġdocument": 1508,
      "ld": 1509,
      "alJournal": 1510,
      "Distribution": 1511,
      "False": 1512,
      "Adjustment": 1513,
      "Mon": 1514,
      "quence": 1515,
      "ility": 1516,
      "VAT": 1517,
      "oft": 1518,
      "ovement": 1519,
      "ert": 1520,
      "Action": 1521,
      "ysical": 1522,
      "ERExpressionReal": 1523,
      "AmountMST": 1524,
      "alAddress": 1525,
      "osition": 1526,
      "ĠUI": 1527,
      "FontWeight": 1528,
      "Ġsu": 1529,
      "contr": 1530,
      "Caption": 1531,
      ";&": 1532,
      "Defined": 1533,
      "alidate": 1534,
      "Flight": 1535,
      "Length": 1536,
      "Ġerror": 1537,
      "Manag": 1538,
      "main": 1539,
      "ERExpressionEnum": 1540,
      "Acc": 1541,
      "Exec": 1542,
      "Setup": 1543,
      "inventTrans": 1544,
      "Ġcontrol": 1545,
      "Ġcan": 1546,
      "Wr": 1547,
      "Ġsh": 1548,
      "Identification": 1549,
      "ipt": 1550,
      "ERExpressionList": 1551,
      "Letter": 1552,
      "voice": 1553,
      "Card": 1554,
      "AAAAAAAAAAAAAAAAAAAAAAAAAAAAAAAAAAAAAAAAAAAAAAAAAAAAAAAAAAAAAAAA": 1555,
      "Ġdialog": 1556,
      "Business": 1557,
      "cul": 1558,
      "num": 1559,
      "New": 1560,
      "Cl": 1561,
      "Calendar": 1562,
      "ound": 1563,
      "Cash": 1564,
      "ties": 1565,
      "True": 1566,
      "goe": 1567,
      "Result": 1568,
      "ERExpressionNumeric": 1569,
      "Segoe": 1570,
      "Point": 1571,
      "Payments": 1572,
      "amp": 1573,
      "DataArea": 1574,
      "Ġsales": 1575,
      "Ġas": 1576,
      "mi": 1577,
      "FieldReference": 1578,
      "UserDefined": 1579,
      "JournalTable": 1580,
      "Ġjournal": 1581,
      "Ġprod": 1582,
      "ĠT": 1583,
      "Char": 1584,
      "sh": 1585,
      "AxReportDataSetField": 1586,
      "All": 1587,
      "17": 1588,
      "Proposal": 1589,
      "Over": 1590,
      "WH": 1591,
      "flow": 1592,
      "DisplayWidth": 1593,
      "Booking": 1594,
      "Parent": 1595,
      "Corre": 1596,
      "her": 1597,
      "',": 1598,
      "Ġreport": 1599,
      "Alloc": 1600,
      "CountryRegion": 1601,
      "Ġthrow": 1602,
      "TextInvoice": 1603,
      "Sequence": 1604,
      "Filter": 1605,
      "Return": 1606,
      "strument": 1607,
      "iker": 1608,
      "Config": 1609,
      "Moniker": 1610,
      "ton": 1611,
      "Ġpost": 1612,
      "99": 1613,
      "Lookup": 1614,
      "Ġline": 1615,
      "imp": 1616,
      "Transactions": 1617,
      "Ġupdate": 1618,
      "TablixMember": 1619,
      "DataEntityView": 1620,
      "AB": 1621,
      "son": 1622,
      "ERDataContainerPath": 1623,
      "Ġnumber": 1624,
      "soft": 1625,
      "ERDataContainerPathBinding": 1626,
      "ish": 1627,
      "AxDataEntityView": 1628,
      "Fun": 1629,
      "lection": 1630,
      "Priv": 1631,
      "utton": 1632,
      "gal": 1633,
      "Privile": 1634,
      "ie": 1635,
      "Ġres": 1636,
      ")&": 1637,
      "PaymentBy": 1638,
      "Ġ>": 1639,
      "cent": 1640,
      "Delete": 1641,
      "Route": 1642,
      "Ġ+=": 1643,
      "Ġch": 1644,
      "xed": 1645,
      "Args": 1646,
      "tableNum": 1647,
      "Cache": 1648,
      "Debit": 1649,
      "EntryPoint": 1650,
      "Kanban": 1651,
      "\");": 1652,
      "Export": 1653,
      "PostalAddress": 1654,
      "FreeTextInvoice": 1655,
      "icro": 1656,
      "icrosoft": 1657,
      "Jmg": 1658,
      "LabelId": 1659,
      "DimensionAttribute": 1660,
      "Ġcre": 1661,
      "ecast": 1662,
      "imary": 1663,
      "ations": 1664,
      "lip": 1665,
      "Ġspec": 1666,
      "Properties": 1667,
      "ST": 1668,
      "Message": 1669,
      "other": 1670,
      "Aging": 1671,
      "Ġprocess": 1672,
      "Be": 1673,
      "Agreement": 1674,
      "Bill": 1675,
      ").": 1676,
      "strumentation": 1677,
      "Sys": 1678,
      "ends": 1679,
      "Ġinit": 1680,
      "18": 1681,
      "19": 1682,
      "lication": 1683,
      "ĉĉĉĉĉĉĉĉĉ": 1684,
      "Ġperiod": 1685,
      "InvoiceTrans": 1686,
      "xt": 1687,
      "ĠForm": 1688,
      "Read": 1689,
      "Ġinternal": 1690,
      "Ġsuper": 1691,
      "BankAccount": 1692,
      "tax": 1693,
      "RefRecId": 1694,
      "urrency": 1695,
      "Ig": 1696,
      "DimensionField": 1697,
      "Creditor": 1698,
      "ĠInventDim": 1699,
      "EC": 1700,
      "lines": 1701,
      "Menu": 1702,
      "clud": 1703,
      "ĠĠĠĠĠĠĠĠĠĠĠĠĠĠ": 1704,
      "rid": 1705,
      "Quantity": 1706,
      "imit": 1707,
      "record": 1708,
      "29": 1709,
      "pack": 1710,
      "Rever": 1711,
      "Ġparameter": 1712,
      "CH": 1713,
      "Ġwith": 1714,
      "Physical": 1715,
      "Ctr": 1716,
      "Activity": 1717,
      "Reserv": 1718,
      "Localization": 1719,
      "Privilege": 1720,
      "Receipt": 1721,
      "imal": 1722,
      "ĠRecId": 1723,
      "bank": 1724,
      "Hook": 1725,
      "Hookable": 1726,
      "fr": 1727,
      "GroupBy": 1728,
      "heque": 1729,
      "ssue": 1730,
      "Spec": 1731,
      "';": 1732,
      "Ġan": 1733,
      "sum": 1734,
      "Devel": 1735,
      "AxSecurityPrivilege": 1736,
      "ates": 1737,
      "ould": 1738,
      "Mapping": 1739,
      "rm": 1740,
      "quis": 1741,
      "Integ": 1742,
      "AxDimensionFieldReference": 1743,
      "=\"@": 1744,
      "Ġother": 1745,
      "ĠĠĠĠĠĠĠĠĠĠ": 1746,
      "ERExpressionStringLabel": 1747,
      "uration": 1748,
      "Provid": 1749,
      "Position": 1750,
      "Ġadd": 1751,
      "Null": 1752,
      "heet": 1753,
      "class": 1754,
      "IT": 1755,
      "Ign": 1756,
      "Ġfirst": 1757,
      "Ġextends": 1758,
      "Ut": 1759,
      "Ignore": 1760,
      "vance": 1761,
      "Ã©": 1762,
      "Slip": 1763,
      "RelationConstraint": 1764,
      "Collection": 1765,
      "Facture": 1766,
      "ExcelRange": 1767,
      "Node": 1768,
      "ĠfieldNum": 1769,
      "use": 1770,
      "23": 1771,
      "ainAccount": 1772,
      "text": 1773,
      "Task": 1774,
      "Ġused": 1775,
      "AXEDT": 1776,
      "Controller": 1777,
      "IF": 1778,
      "ptor": 1779,
      "Th": 1780,
      "Generated": 1781,
      "ĠGet": 1782,
      "essment": 1783,
      "imalLength": 1784,
      "ove": 1785,
      "quisition": 1786,
      "27": 1787,
      "EDTRelation": 1788,
      "Repl": 1789,
      "emp": 1790,
      "Ġtts": 1791,
      "Fixed": 1792,
      "ancial": 1793,
      "Fmt": 1794,
      "ade": 1795,
      "mitt": 1796,
      "ai": 1797,
      "Visib": 1798,
      "83": 1799,
      "ich": 1800,
      "IgnoreEDTRelation": 1801,
      "Ġdefault": 1802,
      "lear": 1803,
      "ERExpressionEnumItemValue": 1804,
      "Ġact": 1805,
      "Wh": 1806,
      "ĠledgerJournalTrans": 1807,
      "Req": 1808,
      "Button": 1809,
      "Link": 1810,
      "den": 1811,
      "abl": 1812,
      "Instrumentation": 1813,
      "CW": 1814,
      "args": 1815,
      "Inventory": 1816,
      "Subscriber": 1817,
      "empl": 1818,
      "Sc": 1819,
      "Ġpre": 1820,
      "coRes": 1821,
      "Su": 1822,
      "Show": 1823,
      "Mand": 1824,
      "oped": 1825,
      "ffer": 1826,
      "Ġtype": 1827,
      "CE": 1828,
      "Hcm": 1829,
      "company": 1830,
      "Us": 1831,
      "Vari": 1832,
      "ĠeventHandler": 1833,
      "Ġun": 1834,
      "65": 1835,
      "RelatedField": 1836,
      "wise": 1837,
      "Gr": 1838,
      "Boolean": 1839,
      "SystemGenerated": 1840,
      "Ġitem": 1841,
      "AF": 1842,
      "ict": 1843,
      "ivery": 1844,
      "ĠTax": 1845,
      "Insert": 1846,
      "IsSystemGenerated": 1847,
      "Ġcontainer": 1848,
      "28": 1849,
      "Forecast": 1850,
      "Aggreg": 1851,
      "Descriptor": 1852,
      "Only": 1853,
      "Generic": 1854,
      "aging": 1855,
      "ĠbudgetPlan": 1856,
      "75": 1857,
      "Import": 1858,
      "Exception": 1859,
      "Controls": 1860,
      "05": 1861,
      "ĠSet": 1862,
      "mission": 1863,
      "Summary": 1864,
      "Provider": 1865,
      "ooter": 1866,
      "Ġsett": 1867,
      "Load": 1868,
      "opy": 1869,
      "LocalizationTmp": 1870,
      "Ġ*": 1871,
      "astat": 1872,
      "trastat": 1873,
      "Ġpurch": 1874,
      "Empl": 1875,
      "Ġotherwise": 1876,
      "ĠĠĠĠĠĠĠĠĠĠĠĠĠĠĠĠĠĠĠĠĠĠĠĠĠĠĠĠĠĠĠĠĠĠĠĠĠĠĠĠĠĠĠĠĠĠĠĠĠĠĠĠĠ": 1877,
      "Ġbu": 1878,
      "Footer": 1879,
      "DataAreaId": 1880,
      "Last": 1881,
      "64": 1882,
      "Site": 1883,
      "ĠDevel": 1884,
      "ĠĠĠĠĠĠĠĠĠĠĠĠĠĠĠĠĠĠĠĠĠĠĠĠĠĠĠĠĠĠĠĠĠĠĠĠĠĠĠĠĠĠĠĠĠĠĠĠĠĠĠĠĠĠĠ": 1885,
      "EF": 1886,
      "ĠCustVend": 1887,
      "ĠList": 1888,
      "Validation": 1889,
      "Change": 1890,
      "Ġcost": 1891,
      "Application": 1892,
      "85": 1893,
      "CF": 1894,
      "BottomBorder": 1895,
      "Upd": 1896,
      "Ship": 1897,
      ")).": 1898,
      "35": 1899,
      ";,": 1900,
      "89": 1901,
      "Ġlog": 1902,
      "WHS": 1903,
      "atement": 1904,
      "AxDimensionAttribute": 1905,
      "KeyFields": 1906,
      "br": 1907,
      "ERExpressionRealItemValue": 1908,
      "FieldId": 1909,
      "ized": 1910,
      "Markup": 1911,
      "CR": 1912,
      "ĠDeveloped": 1913,
      "Black": 1914,
      "Issue": 1915,
      "rit": 1916,
      "Rev": 1917,
      "Util": 1918,
      "Cancel": 1919,
      "lock": 1920,
      "CN": 1921,
      "Txt": 1922,
      "Ġare": 1923,
      "EN": 1924,
      "QueryParameter": 1925,
      "Ġgener": 1926,
      "Packing": 1927,
      "Direction": 1928,
      "CC": 1929,
      "Offset": 1930,
      "name": 1931,
      "ak": 1932,
      "Note": 1933,
      "atory": 1934,
      "erExpression": 1935,
      "Ro": 1936,
      "AD": 1937,
      "ĠĠĠĠĠĠĠĠĠĠĠĠĠĠĠĠĠĠ": 1938,
      "Ġ?": 1939,
      "onth": 1940,
      "ĠN": 1941,
      "Hid": 1942,
      "Amounts": 1943,
      "Person": 1944,
      "AccountNum": 1945,
      "fiscal": 1946,
      "ĠBudgetPlan": 1947,
      "ending": 1948,
      ")\"": 1949,
      "EE": 1950,
      "ave": 1951,
      "textbox": 1952,
      "Sched": 1953,
      "ExpressionItem": 1954,
      "ERModelExpressionItem": 1955,
      "Active": 1956,
      "Ġad": 1957,
      "TablixColumn": 1958,
      "Ġnull": 1959,
      "Ġfinal": 1960,
      "sales": 1961,
      "prod": 1962,
      "Legal": 1963,
      "AxSecurityEntryPoint": 1964,
      "AxSecurityEntryPointReference": 1965,
      "ERExpressionGeneric": 1966,
      "ers": 1967,
      "87": 1968,
      "ous": 1969,
      "Processing": 1970,
      "Mult": 1971,
      "move": 1972,
      ".'$": 1973,
      "egin": 1974,
      "30": 1975,
      "Ġdated": 1976,
      "Module": 1977,
      "Vert": 1978,
      "Ġpayment": 1979,
      "FormControlExtension": 1980,
      "post": 1981,
      "SalesInvoiceTmp": 1982,
      "HeaderFooter": 1983,
      "BB": 1984,
      "Vertical": 1985,
      "Ġwhich": 1986,
      "95": 1987,
      "Ġinvoice": 1988,
      "Ġse": 1989,
      "Reservation": 1990,
      "GroupId": 1991,
      "let": 1992,
      "ĠGets": 1993,
      "Interest": 1994,
      "ick": 1995,
      "SourceDocumentLine": 1996,
      "MethodName": 1997,
      "ee": 1998,
      "Ġtotal": 1999,
      "ff": 2000,
      "CurrencyAmount": 2001,
      "ination": 2002,
      "AllowEdit": 2003,
      "erial": 2004,
      "ĠĠĠĠĠĠĠĠĠĠĠĠĠĠĠĠĠĠĠĠĠĠĠĠĠĠĠĠĠĠĠĠĠĠĠĠĠĠĠĠĠĠĠĠĠĠĠĠĠĠĠĠĠĠĠĠĠĠĠĠĠĠĠĠ": 2005,
      "Ġbom": 2006,
      "unc": 2007,
      "dim": 2008,
      "payment": 2009,
      "ĠType": 2010,
      "BuildDataSource": 2011,
      "Lay": 2012,
      "ailed": 2013,
      "22": 2014,
      "CustomProperties": 2015,
      "Sp": 2016,
      "olid": 2017,
      "Ġass": 2018,
      "ĠExcelRange": 2019,
      "Microsoft": 2020,
      "PaymentByDebtor": 2021,
      "erm": 2022,
      "OR": 2023,
      "validate": 2024,
      "Manager": 2025,
      "TransOpen": 2026,
      "86": 2027,
      "Ġid": 2028,
      "Ġi": 2029,
      "ection": 2030,
      "own": 2031,
      "Worker": 2032,
      "Ġent": 2033,
      "ĠassetBook": 2034,
      "Hidden": 2035,
      "ERTextFormatExcel": 2036,
      "Ġdepreciation": 2037,
      "from": 2038,
      "ĠMap": 2039,
      "Cheque": 2040,
      "ĠExtension": 2041,
      "80": 2042,
      "ĠP": 2043,
      "Allocation": 2044,
      "Primary": 2045,
      "'.'": 2046,
      "ISO": 2047,
      "Delivery": 2048,
      "44": 2049,
      ")))": 2050,
      "Ġcreate": 2051,
      "')": 2052,
      "firm": 2053,
      "odule": 2054,
      "Ġcontract": 2055,
      "nil": 2056,
      "33": 2057,
      ";\"": 2058,
      "MX": 2059,
      "Agent": 2060,
      "97": 2061,
      "Workflow": 2062,
      "PackingSlip": 2063,
      "Ġrel": 2064,
      "Fact": 2065,
      "ating": 2066,
      "ative": 2067,
      "riteri": 2068,
      "Dialog": 2069,
      "Classification": 2070,
      "Common": 2071,
      "Est": 2072,
      "riteria": 2073,
      "ason": 2074,
      "'.'$": 2075,
      "check": 2076,
      "Grant": 2077,
      "Interval": 2078,
      "Ġorder": 2079,
      "Ġinventory": 2080,
      "Function": 2081,
      "AccountStatement": 2082,
      "Ġcurrency": 2083,
      "Em": 2084,
      "Ġlist": 2085,
      "Ġresult": 2086,
      "vend": 2087,
      "account": 2088,
      "ĠSubscriber": 2089,
      "Initial": 2090,
      "Configuration": 2091,
      "public": 2092,
      "Join": 2093,
      "assetBook": 2094,
      "Ġobject": 2095,
      "Co": 2096,
      "GeneralJournal": 2097,
      "Ġsum": 2098,
      "Ġcalcul": 2099,
      "à¹": 2100,
      "ble": 2101,
      "clude": 2102,
      "Information": 2103,
      "Calculation": 2104,
      "67": 2105,
      "pon": 2106,
      "ĠBOM": 2107,
      "RF": 2108,
      "ĠSysOperation": 2109,
      "AxSecurityPrivilegeReference": 2110,
      "ĠTransDate": 2111,
      "Intrastat": 2112,
      "calc": 2113,
      "Internal": 2114,
      "07": 2115,
      "mis": 2116,
      "to": 2117,
      "NotEquals": 2118,
      "ĠIs": 2119,
      "Ġloc": 2120,
      "CashDisc": 2121,
      "Maint": 2122,
      "ario": 2123,
      "ner": 2124,
      "Part": 2125,
      "Ġen": 2126,
      "Ġgroup": 2127,
      "istory": 2128,
      "Ġconst": 2129,
      "AE": 2130,
      "LC": 2131,
      "Ġshould": 2132,
      "BC": 2133,
      "ll": 2134,
      "Ġexists": 2135,
      "41": 2136,
      "Day": 2137,
      "MenuItem": 2138,
      "Financial": 2139,
      "DD": 2140,
      "93": 2141,
      "contract": 2142,
      "PostingType": 2143,
      "Ġmap": 2144,
      "Settle": 2145,
      "ron": 2146,
      "Shar": 2147,
      "Host": 2148,
      "wit": 2149,
      "Advance": 2150,
      "journal": 2151,
      "=\"\">": 2152,
      "=\"'$": 2153,
      "Met": 2154,
      "Sup": 2155,
      "Term": 2156,
      "ICMS": 2157,
      "witch": 2158,
      "prmis": 2159,
      "vail": 2160,
      "Ġvalid": 2161,
      "TablixRow": 2162,
      "ERDataContainerDescriptor": 2163,
      "ishment": 2164,
      "Totals": 2165,
      "96": 2166,
      "ero": 2167,
      "adata": 2168,
      "ities": 2169,
      "ach": 2170,
      "Values": 2171,
      "ĠInventTrans": 2172,
      "Page": 2173,
      "uction": 2174,
      "VerticalAlign": 2175,
      "Retail": 2176,
      "only": 2177,
      "Case": 2178,
      "cat": 2179,
      ".\"": 2180,
      "Ġit": 2181,
      "quire": 2182,
      "Retry": 2183,
      "Limit": 2184,
      "Empty": 2185,
      "ERTextFormatExcelCell": 2186,
      "kip": 2187,
      "Appro": 2188,
      "Ġwork": 2189,
      "InvoiceTable": 2190,
      "()));": 2191,
      "ZIndex": 2192,
      "strFmt": 2193,
      "irParty": 2194,
      "Ġ\"@": 2195,
      "ĠĠĠĠĠĠĠĠĠĠĠĠĠĠĠĠĠĠĠĠ": 2196,
      "Failed": 2197,
      "ased": 2198,
      "FalseValue": 2199,
      "TrueValue": 2200,
      "ERExpressionGenericIf": 2201,
      "Ġdelegate": 2202,
      "ĠĠĠĠĠĠĠĠĠĠĠĠĠĠĠĠĠĠĠĠĠĠĠĠĠĠĠĠĠĠĠĠĠĠĠĠĠĠĠĠĠĠĠĠĠĠĠĠĠĠĠĠĠĠĠĠĠ": 2203,
      "run": 2204,
      "Cod": 2205,
      "ose": 2206,
      "Ġdis": 2207,
      "Ġcustom": 2208,
      "37": 2209,
      "plit": 2210,
      "tern": 2211,
      "Ġle": 2212,
      "Assessment": 2213,
      "Ġwhether": 2214,
      "Confirm": 2215,
      "Replace": 2216,
      "External": 2217,
      "func": 2218,
      "enario": 2219,
      "SourceTracking": 2220,
      "dsCW": 2221,
      "Original": 2222,
      "BF": 2223,
      "ql": 2224,
      "Back": 2225,
      "ouble": 2226,
      "ender": 2227,
      "Resource": 2228,
      "01": 2229,
      "Execution": 2230,
      "ply": 2231,
      "ved": 2232,
      "Logger": 2233,
      "ĠThis": 2234,
      "emplate": 2235,
      "bs": 2236,
      "Access": 2237,
      "Help": 2238,
      "Ġ,": 2239,
      "2025": 2240,
      "BP": 2241,
      "LegalEntity": 2242,
      "EA": 2243,
      "55": 2244,
      "Double": 2245,
      "SalesTable": 2246,
      "Constraints": 2247,
      "TaxAmount": 2248,
      "FromDate": 2249,
      "Delegate": 2250,
      "AccountType": 2251,
      "EInvoice": 2252,
      "tmp": 2253,
      "Percent": 2254,
      "custVendTrans": 2255,
      "Month": 2256,
      "BD": 2257,
      "ĠfiscalDocument": 2258,
      "ĠĊ": 2259,
      "ysis": 2260,
      "budgetPlan": 2261,
      "ON": 2262,
      "BudgetControl": 2263,
      "Clos": 2264,
      "Ġqu": 2265,
      "ledgerJournalTrans": 2266,
      "FixedAsset": 2267,
      "BookId": 2268,
      "kCtr": 2269,
      "antt": 2270,
      "AccountEntry": 2271,
      "lv": 2272,
      "Reserve": 2273,
      "DataSources": 2274,
      "ading": 2275,
      "FIN": 2276,
      "Generate": 2277,
      "Due": 2278,
      "ToDate": 2279,
      "Anal": 2280,
      "anch": 2281,
      "Purchase": 2282,
      "DefaultDimension": 2283,
      "ĠCost": 2284,
      "02": 2285,
      "Des": 2286,
      "ra": 2287,
      "03": 2288,
      "TopBorder": 2289,
      "Ø§": 2290,
      "dataSource": 2291,
      "Non": 2292,
      "AR": 2293,
      "ĠeventHandlerElement": 2294,
      "ParmData": 2295,
      ".'": 2296,
      "MainAccount": 2297,
      "ĠcustVend": 2298,
      "ba": 2299,
      "SalesInvoiceLocalizationTmp": 2300,
      "Ġorig": 2301,
      "Ġinsert": 2302,
      "Dec": 2303,
      "History": 2304,
      "Ġswitch": 2305,
      "process": 2306,
      "CompanyInfo": 2307,
      "mittance": 2308,
      "77": 2309,
      "Ġwill": 2310,
      "Correct": 2311,
      "setField": 2312,
      "olum": 2313,
      "ested": 2314,
      "Visibility": 2315,
      "work": 2316,
      "RFQ": 2317,
      "bu": 2318,
      "ĠtableNum": 2319,
      "Ġab": 2320,
      "oy": 2321,
      "ĠPeriod": 2322,
      "ObjectType": 2323,
      "FF": 2324,
      "mpt": 2325,
      "Cent": 2326,
      "ĠSysD": 2327,
      "War": 2328,
      "Modified": 2329,
      "AxDataEntityViewField": 2330,
      "ĠĠĠĠĠĠĠĠĊ": 2331,
      "eterm": 2332,
      "AssetId": 2333,
      "ERExpressionStringNotEquals": 2334,
      "Next": 2335,
      "StartDate": 2336,
      "Role": 2337,
      "Ġinter": 2338,
      "Ġhas": 2339,
      "Ġ@": 2340,
      "Reason": 2341,
      "LocationId": 2342,
      "Ġfirstonly": 2343,
      "Ġstatement": 2344,
      "Ġenum": 2345,
      "ReportingCurrency": 2346,
      "HeaderFooterTmp": 2347,
      "Movement": 2348,
      "66": 2349,
      "Criteria": 2350,
      "ĠMax": 2351,
      "ify": 2352,
      "Pattern": 2353,
      "Blank": 2354,
      "purch": 2355,
      "bom": 2356,
      "ĠCreate": 2357,
      "iter": 2358,
      "ĠPath": 2359,
      "Ġaccounting": 2360,
      "tries": 2361,
      "GE": 2362,
      "LedgerJournalTrans": 2363,
      "Ġbatch": 2364,
      "Metadata": 2365,
      "Acquisition": 2366,
      "Staging": 2367,
      "GL": 2368,
      "ledgerVoucher": 2369,
      "Withh": 2370,
      "itle": 2371,
      "Remittance": 2372,
      "Ġ<=": 2373,
      "08": 2374,
      "default": 2375,
      "ifier": 2376,
      "InventDimId": 2377,
      "Charge": 2378,
      "PropertyName": 2379,
      "Child": 2380,
      "CalcTrans": 2381,
      "ND": 2382,
      "Entries": 2383,
      "ey": 2384,
      "ĠB": 2385,
      "ĠJmg": 2386,
      "Suite": 2387,
      "Scenario": 2388,
      "opul": 2389,
      "Comb": 2390,
      "Eu": 2391,
      "PS": 2392,
      "red": 2393,
      "atform": 2394,
      "14": 2395,
      "36": 2396,
      "SalesLine": 2397,
      "ĠassetTrans": 2398,
      "Platform": 2399,
      "Contact": 2400,
      "Ġspecified": 2401,
      "olic": 2402,
      "Layout": 2403,
      "Correction": 2404,
      "ĠPropertyName": 2405,
      "Transformation": 2406,
      "can": 2407,
      "Prompt": 2408,
      "88": 2409,
      "Ġimp": 2410,
      "AxTableFieldString": 2411,
      "control": 2412,
      "Struct": 2413,
      "escription": 2414,
      "Ġmark": 2415,
      "Seq": 2416,
      "DateTimeUtil": 2417,
      "ĠcustTrans": 2418,
      "Ġbuffer": 2419,
      "Copy": 2420,
      "Pack": 2421,
      "Remain": 2422,
      "Quot": 2423,
      "PO": 2424,
      "Ã¡": 2425,
      "air": 2426,
      "ĠĠĠĠĊ": 2427,
      "AAAAAAAAAAAAAAAAAAAAAAAAAAAAAAAAAAAAAAAAAAAAAAAAAAAAAAAAAAAAAAAAAAAAAAAAAAAAAAAAAAAAAAAAAAAAAAAAAAAAAAAAAAAAAAAAAAAAAAAAAAAAAAAA": 2428,
      "FA": 2429,
      "eh": 2430,
      "Ġsub": 2431,
      "ĠMaximalLength": 2432,
      "just": 2433,
      "Ġper": 2434,
      "uted": 2435,
      "Ġkanban": 2436,
      "Ġcompany": 2437,
      "Solid": 2438,
      "mf": 2439,
      "Session": 2440,
      "General": 2441,
      "yc": 2442,
      "ived": 2443,
      "FieldName": 2444,
      "Matching": 2445,
      "Bold": 2446,
      "ObjectName": 2447,
      "Permission": 2448,
      "Ow": 2449,
      "Records": 2450,
      "PurchLine": 2451,
      "90": 2452,
      "Pick": 2453,
      "res": 2454,
      "AccountingDistribution": 2455,
      "imple": 2456,
      "Ġproj": 2457,
      "eed": 2458,
      "Title": 2459,
      "UR": 2460,
      "ablishment": 2461,
      "ÙĦ": 2462,
      "ĠDimension": 2463,
      "InventTable": 2464,
      "Sheet": 2465,
      "header": 2466,
      "Cons": 2467,
      "TR": 2468,
      "Flow": 2469,
      "Posted": 2470,
      "Ġrecords": 2471,
      "Grid": 2472,
      "Template": 2473,
      "Ġdo": 2474,
      "Idx": 2475,
      "Ġlocal": 2476,
      "Ġrun": 2477,
      "Car": 2478,
      "AxDimensionRelationConstraint": 2479,
      "Ġposting": 2480,
      "Concat": 2481,
      "Stor": 2482,
      "Logistics": 2483,
      "Simple": 2484,
      "Ġmatch": 2485,
      "Reverse": 2486,
      "Quotation": 2487,
      "Analysis": 2488,
      "Activ": 2489,
      "Ġat": 2490,
      "Direct": 2491,
      "ĠĠĠĠĠĠĠĠĠĠĠĠĠĠĠĠĠĠĠĠĠĠ": 2492,
      "AM": 2493,
      "DB": 2494,
      "lient": 2495,
      "76": 2496,
      "pare": 2497,
      "Selection": 2498,
      "ERDataContainerDescriptorItem": 2499,
      "funcName": 2500,
      "FE": 2501,
      "ERExpressionInt": 2502,
      "enate": 2503,
      "ĉĉĉĉĉĉĉĉĉĉĉ": 2504,
      "Used": 2505,
      "Shared": 2506,
      "Ð¾": 2507,
      "Stre": 2508,
      "addField": 2509,
      "Ġconstruct": 2510,
      "Balances": 2511,
      "98": 2512,
      "0625": 2513,
      "DA": 2514,
      "AccountTrans": 2515,
      "pedRecord": 2516,
      "olicy": 2517,
      "DC": 2518,
      "24": 2519,
      "Concatenate": 2520,
      "addRange": 2521,
      "ERExpressionStringConcatenate": 2522,
      "Ġy": 2523,
      "all": 2524,
      "line": 2525,
      "Ġfacture": 2526,
      "ĠcheckFailed": 2527,
      "edClass": 2528,
      "ProjectInvoice": 2529,
      "LogTrans": 2530,
      "vious": 2531,
      "ĠMin": 2532,
      "Created": 2533,
      "ClassTypeId": 2534,
      "Net": 2535,
      "Ð°": 2536,
      "StringControl": 2537,
      "Ġ%": 2538,
      ")),": 2539,
      "Establishment": 2540,
      "ExchRate": 2541,
      "InvoiceId": 2542,
      "An": 2543,
      "FiscalCalendar": 2544,
      "Stmt": 2545,
      "CO": 2546,
      "ĠAn": 2547,
      "ĠqueryRun": 2548,
      "One": 2549,
      "LineNum": 2550,
      "Mandatory": 2551,
      "TablixCells": 2552,
      "NO": 2553,
      "Br": 2554,
      "Red": 2555,
      "Revers": 2556,
      "CustTrans": 2557,
      "Ġ2": 2558,
      "PL": 2559,
      "Dimensions": 2560,
      "Ġall": 2561,
      "ving": 2562,
      "AssetTable": 2563,
      "Accr": 2564,
      "tra": 2565,
      "Ġcalc": 2566,
      "Ġwhen": 2567,
      "Euro": 2568,
      "FC": 2569,
      "ward": 2570,
      "InventTransOrigin": 2571,
      "MY": 2572,
      "proj": 2573,
      "Output": 2574,
      "Ġcode": 2575,
      "Org": 2576,
      "enance": 2577,
      "nl": 2578,
      "peri": 2579,
      "und": 2580,
      "version": 2581,
      "InvoiceLine": 2582,
      "ĠLedgerDimension": 2583,
      "Reval": 2584,
      "WrkCtr": 2585,
      "BillOf": 2586,
      "RightBorder": 2587,
      "InvoiceInfo": 2588,
      "BudgetTransaction": 2589,
      "round": 2590,
      "cise": 2591,
      "agreement": 2592,
      "Ġvalidate": 2593,
      "21": 2594,
      "Zero": 2595,
      "aym": 2596,
      "FDD": 2597,
      "Builder": 2598,
      "ĠData": 2599,
      "gr": 2600,
      "clear": 2601,
      "Du": 2602,
      "period": 2603,
      "InvoiceBase": 2604,
      "ReportParameter": 2605,
      "Labels": 2606,
      "anges": 2607,
      "Prior": 2608,
      "Autom": 2609,
      "Adm": 2610,
      "Consum": 2611,
      "ĠQueryBuildDataSource": 2612,
      "09": 2613,
      "Relie": 2614,
      "lob": 2615,
      "Ġpack": 2616,
      "anged": 2617,
      "ĠEcoRes": 2618,
      "LeftBorder": 2619,
      "isEnabled": 2620,
      "ERExpressionListItemValue": 2621,
      "Production": 2622,
      "ĠgeneralJournal": 2623,
      "39": 2624,
      "OfMeasure": 2625,
      "Enums": 2626,
      "!@": 2627,
      "ĠledgerVoucher": 2628,
      "fiscalDocument": 2629,
      ",&#": 2630,
      "Ġap": 2631,
      "SiteId": 2632,
      "++": 2633,
      "Factor": 2634,
      "internal": 2635,
      "RelatedTable": 2636,
      "Sign": 2637,
      "Ġuse": 2638,
      "Ġexch": 2639,
      "ĠF": 2640,
      "vert": 2641,
      "Cat": 2642,
      "itemId": 2643,
      "DimensionName": 2644,
      "SalesInvoiceHeaderFooterTmp": 2645,
      "EcoRes": 2646,
      "Get": 2647,
      "ĠSysDa": 2648,
      "Management": 2649,
      "rie": 2650,
      "Multi": 2651,
      "Split": 2652,
      "Block": 2653,
      "Flag": 2654,
      "Constants": 2655,
      "andard": 2656,
      "AssetBook": 2657,
      "Ġtransactions": 2658,
      "ality": 2659,
      "Ġ>=": 2660,
      "begin": 2661,
      "Exp": 2662,
      "56": 2663,
      "AllowBlank": 2664,
      "ocus": 2665,
      "Closing": 2666,
      "Processor": 2667,
      "BillOfExchange": 2668,
      "Email": 2669,
      "ĠBudgetControl": 2670,
      "Write": 2671,
      "Oth": 2672,
      "Maintenance": 2673,
      "70": 2674,
      "ExchangeRate": 2675,
      "commit": 2676,
      "ERExpressionIntConstant": 2677,
      "ERModelGroupBy": 2678,
      "ĠcustVendTrans": 2679,
      "ĠParent": 2680,
      "AU": 2681,
      "del": 2682,
      "84": 2683,
      "inality": 2684,
      "CustVendTrans": 2685,
      "Cardinality": 2686,
      "ĠExtensionTarget": 2687,
      "Withhold": 2688,
      "');": 2689,
      "opulate": 2690,
      "CustInvoiceJour": 2691,
      "ialize": 2692,
      "31": 2693,
      "32": 2694,
      "cost": 2695,
      "Ġjob": 2696,
      "IE": 2697,
      "/&": 2698,
      "nection": 2699,
      "Aggregate": 2700,
      "Ġup": 2701,
      "Ã¤": 2702,
      "prmisDefault": 2703,
      "BankReconciliation": 2704,
      "ings": 2705,
      "Excise": 2706,
      "Tag": 2707,
      "Ġtr": 2708,
      "activity": 2709,
      "Ġmust": 2710,
      "irect": 2711,
      "Avail": 2712,
      "SE": 2713,
      "ĠFB": 2714,
      "ReportTmp": 2715,
      "boolean": 2716,
      "**": 2717,
      "PurchReq": 2718,
      "ĠCreates": 2719,
      "TH": 2720,
      "Policy": 2721,
      "Ġstart": 2722,
      "te": 2723,
      "ĠQueryRun": 2724,
      "Structure": 2725,
      "38": 2726,
      "log": 2727,
      "ĠBankReconciliation": 2728,
      "AxTableRelationConstraint": 2729,
      "Discount": 2730,
      "AxQuery": 2731,
      "Employ": 2732,
      "Sort": 2733,
      "Xml": 2734,
      "ICAg": 2735,
      "invoice": 2736,
      "Att": 2737,
      "Owner": 2738,
      "Automation": 2739,
      "54": 2740,
      "ApplicationSuite": 2741,
      "ĠParentPath": 2742,
      "Ġind": 2743,
      "ĠReturn": 2744,
      "for": 2745,
      "aggreg": 2746,
      "Stamp": 2747,
      "findBy": 2748,
      "79": 2749,
      "BusinessPlatform": 2750,
      "SharedTypes": 2751,
      "apt": 2752,
      "Ðµ": 2753,
      "roll": 2754,
      "Ġvalues": 2755,
      "ĠSales": 2756,
      "RS": 2757,
      "ĠtaxTrans": 2758,
      "Duty": 2759,
      "Validate": 2760,
      "Der": 2761,
      "LineItem": 2762,
      "Span": 2763,
      "Tree": 2764,
      "Ġmodel": 2765,
      "pecial": 2766,
      "lobal": 2767,
      "EB": 2768,
      "AP": 2769,
      "rice": 2770,
      "start": 2771,
      "Ġoption": 2772,
      "ycle": 2773,
      "UseOnly": 2774,
      "InternalUseOnly": 2775,
      "60": 2776,
      "ĠVend": 2777,
      "HelpText": 2778,
      "Go": 2779,
      "Integration": 2780,
      "InternalUseOnlyAttribute": 2781,
      "load": 2782,
      "Ġident": 2783,
      "Mat": 2784,
      "ERExpressionStringEquals": 2785,
      "ĠMinimalLength": 2786,
      "posit": 2787,
      "Storage": 2788,
      "Ġuser": 2789,
      "dimension": 2790,
      "Ġimplement": 2791,
      "AxQuerySimple": 2792,
      "50": 2793,
      "InventTransfer": 2794,
      "GLS": 2795,
      "bl": 2796,
      "lookup": 2797,
      "OnHand": 2798,
      "Ġcontain": 2799,
      "DP": 2800,
      "anization": 2801,
      "Max": 2802,
      "alog": 2803,
      "Ġreg": 2804,
      "DF": 2805,
      "fin": 2806,
      "cr": 2807,
      "Items": 2808,
      "InventSum": 2809,
      "cont": 2810,
      "Addend": 2811,
      "Dif": 2812,
      "az": 2813,
      "mon": 2814,
      "92": 2815,
      "FixedAssets": 2816,
      "Ġquantity": 2817,
      "Ġ'')": 2818,
      "hip": 2819,
      "AssetTrans": 2820,
      "AxTableIndex": 2821,
      "Relationship": 2822,
      "ĠisValid": 2823,
      "Updated": 2824,
      "DimensionRelations": 2825,
      "tron": 2826,
      "):": 2827,
      "Ġactivity": 2828,
      "Ġttsbegin": 2829,
      "Rep": 2830,
      "Ġttscommit": 2831,
      "81": 2832,
      "Ġproduct": 2833,
      "Nested": 2834,
      "ES": 2835,
      "fter": 2836,
      "select": 2837,
      "Ctrl": 2838,
      "ĠI": 2839,
      "TaxReport": 2840,
      "WMS": 2841,
      "ĠDocument": 2842,
      "Ð¸": 2843,
      "Ġvoucher": 2844,
      "ParameterName": 2845,
      "InterCompany": 2846,
      "Mg": 2847,
      "ja": 2848,
      "Ġjmg": 2849,
      "Ġprint": 2850,
      "ient": 2851,
      "odified": 2852,
      "Selected": 2853,
      "build": 2854,
      "ĠAssetTransType": 2855,
      "57": 2856,
      "ms": 2857,
      "custVend": 2858,
      "Ġpl": 2859,
      "parent": 2860,
      "resh": 2861,
      "Ġcontroller": 2862,
      "CellDefinition": 2863,
      "Dest": 2864,
      "PurchTable": 2865,
      ")));": 2866,
      "by": 2867,
      "Min": 2868,
      "Ġreference": 2869,
      "iteral": 2870,
      "Accrual": 2871,
      "inter": 2872,
      "ĠIf": 2873,
      "AxDimensionRelation": 2874,
      "exception": 2875,
      "ĠbudgetTransaction": 2876,
      "Abs": 2877,
      "Ġargs": 2878,
      "59": 2879,
      "Syn": 2880,
      "ĠfieldStr": 2881,
      "fit": 2882,
      "ERExpressionBoolean": 2883,
      "ICAgICAg": 2884,
      "Advanced": 2885,
      "Codes": 2886,
      "Enable": 2887,
      "Now": 2888,
      "Ġcatch": 2889,
      "ĠProj": 2890,
      "CustTable": 2891,
      "Nullable": 2892,
      "fore": 2893,
      "tronic": 2894,
      "hor": 2895,
      "JournalId": 2896,
      "next": 2897,
      "69": 2898,
      "RO": 2899,
      "iry": 2900,
      "Forms": 2901,
      "KanbanJob": 2902,
      "Ġtask": 2903,
      "AI": 2904,
      "This": 2905,
      "ease": 2906,
      "Heading": 2907,
      "CostAmount": 2908,
      "moveNext": 2909,
      "Executed": 2910,
      "Schedule": 2911,
      "wr": 2912,
      "exists": 2913,
      "Mandate": 2914,
      "view": 2915,
      "Ġbased": 2916,
      "ĠDialog": 2917,
      "Quar": 2918,
      "Ġstatus": 2919,
      "ross": 2920,
      "ÃŃ": 2921,
      "fieldnum": 2922,
      "Ġ.": 2923,
      "not": 2924,
      "cId": 2925,
      "Ġbook": 2926,
      "SalesList": 2927,
      "cted": 2928,
      "depreciation": 2929,
      "Books": 2930,
      "Client": 2931,
      "Grouped": 2932,
      "Ġadjust": 2933,
      "BAN": 2934,
      "ColumnIndex": 2935,
      "RowIndex": 2936,
      "Operations": 2937,
      "calcul": 2938,
      "Initializ": 2939,
      "Ġwe": 2940,
      "ouse": 2941,
      "apter": 2942,
      "quired": 2943,
      "ta": 2944,
      "PurchRFQ": 2945,
      "Ġmovement": 2946,
      "ĠNumber": 2947,
      "62": 2948,
      "group": 2949,
      "iso": 2950,
      "DocumentType": 2951,
      "LedgerVoucher": 2952,
      "Test": 2953,
      "Ġany": 2954,
      "Ġparameters": 2955,
      "63": 2956,
      "ride": 2957,
      "OrderBy": 2958,
      "Groups": 2959,
      "enue": 2960,
      "ĠspedRecord": 2961,
      "AXDataType": 2962,
      "cre": 2963,
      "Ġdep": 2964,
      "Years": 2965,
      "Ġoptional": 2966,
      "cs": 2967,
      "Transport": 2968,
      "bound": 2969,
      "Ġlines": 2970,
      "ĠinventTable": 2971,
      "Ġbalance": 2972,
      "ĠReturns": 2973,
      "UseTable": 2974,
      "Ġcredit": 2975,
      "Permissions": 2976,
      "Register": 2977,
      "aggregated": 2978,
      "ĠassetTable": 2979,
      "MemberAttribute": 2980,
      "UseTableRelations": 2981,
      "Cor": 2982,
      "mm": 2983,
      "tract": 2984,
      "Focus": 2985,
      "ible": 2986,
      "utes": 2987,
      "ItemPrice": 2988,
      "inventTable": 2989,
      "DEV": 2990,
      "ãģ": 2991,
      "SumCalc": 2992,
      "Organization": 2993,
      "Depreci": 2994,
      "InventTransId": 2995,
      "iss": 2996,
      "chron": 2997,
      "ByDefault": 2998,
      "ningProcess": 2999,
      "Billing": 3000,
      "Ð½": 3001,
      "Ã³": 3002,
      "ables": 3003,
      ".[": 3004,
      "Ġheader": 3005,
      "Ġcorre": 3006,
      "58": 3007,
      "itional": 3008,
      "description": 3009,
      "report": 3010,
      "LedgerEntry": 3011,
      "zh": 3012,
      "SG": 3013,
      "Ġlast": 3014,
      "Connection": 3015,
      "lict": 3016,
      "IM": 3017,
      "Days": 3018,
      "ek": 3019,
      "Ġdelete": 3020,
      "sheet": 3021,
      "ater": 3022,
      "SalesTax": 3023,
      "à¸£": 3024,
      "code": 3025,
      "Ġselected": 3026,
      "UnitOfMeasure": 3027,
      "DepAmount": 3028,
      "Ġfind": 3029,
      "ablenum": 3030,
      "nel": 3031,
      "eco": 3032,
      "Settled": 3033,
      "Eng": 3034,
      "(#": 3035,
      "ĠAmountMST": 3036,
      "Manual": 3037,
      "Box": 3038,
      "GeneralJournalEntry": 3039,
      "Expen": 3040,
      "empt": 3041,
      "sL": 3042,
      "BaseAmount": 3043,
      "PSN": 3044,
      "uation": 3045,
      "addDataSource": 3046,
      "EndDate": 3047,
      "78": 3048,
      "NAM": 3049,
      "73": 3050,
      "oss": 3051,
      "Replacement": 3052,
      "Exists": 3053,
      "accounting": 3054,
      "cept": 3055,
      "count": 3056,
      "Ġsing": 3057,
      "53": 3058,
      "))]": 3059,
      "document": 3060,
      "94": 3061,
      "ĠAmountCur": 3062,
      "DueDate": 3063,
      "Exist": 3064,
      "ecoRes": 3065,
      "IBAN": 3066,
      "NAME": 3067,
      "Stage": 3068,
      "Fr": 3069,
      "Es": 3070,
      "52": 3071,
      "pose": 3072,
      "hand": 3073,
      "over": 3074,
      "ferred": 3075,
      "DocumentTable": 3076,
      "Ġchange": 3077,
      "Visible": 3078,
      "ERTextFormatSequence": 3079,
      "ĠSystem": 3080,
      "ERExpressionDate": 3081,
      "CollectionLetter": 3082,
      "ERU": 3083,
      "DataElement": 3084,
      "04": 3085,
      "91": 3086,
      "Round": 3087,
      "lec": 3088,
      "Ġrever": 3089,
      "getEnumerator": 3090,
      "Indic": 3091,
      "à¸²": 3092,
      "GEERU": 3093,
      "recordset": 3094,
      "InvoiceDate": 3095,
      "FI": 3096,
      "NameField": 3097,
      "Accounts": 3098,
      "Dist": 3099,
      "fig": 3100,
      "letter": 3101,
      "isMethod": 3102,
      "isMethodExecuted": 3103,
      "'),": 3104,
      "Zone": 3105,
      "=\"@&": 3106,
      "Ġyear": 3107,
      "BudgetPlanLine": 3108,
      "Other": 3109,
      "DirParty": 3110,
      "Ġds": 3111,
      "CreditCard": 3112,
      "Branch": 3113,
      "undle": 3114,
      "Ø§ÙĦ": 3115,
      "Respon": 3116,
      "transDate": 3117,
      "Ġ]": 3118,
      "Mapped": 3119,
      "MCR": 3120,
      "ÑĤ": 3121,
      "Lif": 3122,
      "kanban": 3123,
      "ĠAx": 3124,
      "InventDimension": 3125,
      "Adapter": 3126,
      "ĠIn": 3127,
      "ColSpan": 3128,
      "ĠbankAccountTrans": 3129,
      "olume": 3130,
      "mb": 3131,
      "face": 3132,
      "TD": 3133,
      "PaymMode": 3134,
      "etermines": 3135,
      "do": 3136,
      "ision": 3137,
      "bate": 3138,
      "ĠEventHandler": 3139,
      "ĠCurrency": 3140,
      "orig": 3141,
      "Ġvar": 3142,
      "mitted": 3143,
      "Combination": 3144,
      "TaxAssessment": 3145,
      "eries": 3146,
      "71": 3147,
      "Assign": 3148,
      "Where": 3149,
      "gress": 3150,
      "CM": 3151,
      ";=\"": 3152,
      "Ġnext": 3153,
      "Arch": 3154,
      "ffect": 3155,
      "Ġfields": 3156,
      "BookingPeriod": 3157,
      "Prepayment": 3158,
      "ting": 3159,
      "Ġsettlement": 3160,
      "ItemGroup": 3161,
      "ictField": 3162,
      "82": 3163,
      "Docu": 3164,
      "ĠTarget": 3165,
      "Ġcustomer": 3166,
      "FormLetter": 3167,
      "icing": 3168,
      "AxMeasure": 3169,
      "dataSourceTable": 3170,
      "ray": 3171,
      "Expl": 3172,
      "PrePrint": 3173,
      "Ġretry": 3174,
      "Ġsys": 3175,
      "Ġrule": 3176,
      "Assoc": 3177,
      "FormDataSource": 3178,
      "dialog": 3179,
      "ormal": 3180,
      "BudgetSource": 3181,
      "ĠAssetDepreciation": 3182,
      "lectronic": 3183,
      "CurrencyReval": 3184,
      "Modification": 3185,
      "cba": 3186,
      "ExchangeHelper": 3187,
      "isible": 3188,
      "quiry": 3189,
      "PIS": 3190,
      "ĠAmount": 3191,
      "Ġusing": 3192,
      "total": 3193,
      "ĉĉĉĉĉĉĉĉĉĉ": 3194,
      "City": 3195,
      "DataContract": 3196,
      "2026": 3197,
      "ling": 3198,
      "Mgmt": 3199,
      "ref": 3200,
      "Ġfile": 3201,
      "FINS": 3202,
      "lier": 3203,
      "currency": 3204,
      "Search": 3205,
      "72": 3206,
      "Ġimplements": 3207,
      "ĠDescription": 3208,
      "map": 3209,
      "ru": 3210,
      "Deposit": 3211,
      "show": 3212,
      "AXEDTFormat": 3213,
      "AXEDTTextAlign": 3214,
      "AXEDTDirection": 3215,
      "Calculated": 3216,
      "Ġfin": 3217,
      "Quality": 3218,
      "Inst": 3219,
      "TableName": 3220,
      "ĠCo": 3221,
      "ĠtoDate": 3222,
      "ActiveView": 3223,
      "fromDate": 3224,
      "Ġend": 3225,
      "34": 3226,
      "Ġ)": 3227,
      "Ġparent": 3228,
      "ked": 3229,
      "EV": 3230,
      "Pending": 3231,
      "EnumType": 3232,
      "Calculations": 3233,
      "Revenue": 3234,
      "Ġfb": 3235,
      "module": 3236,
      "Ded": 3237,
      "formRun": 3238,
      "leton": 3239,
      "ExtensionClass": 3240,
      "Option": 3241,
      "raft": 3242,
      "\";": 3243,
      "Engine": 3244,
      "Ð¾Ð": 3245,
      "Street": 3246,
      "ĠRegistration": 3247,
      "FreeTextInvoiceTmp": 3248,
      "Special": 3249,
      "cope": 3250,
      "centive": 3251,
      "AccountingDate": 3252,
      "74": 3253,
      "([": 3254,
      "upport": 3255,
      "Subscription": 3256,
      "EP": 3257,
      "PositionForecast": 3258,
      "];": 3259,
      "CompanyName": 3260,
      "Reversal": 3261,
      "ĠLog": 3262,
      "Standard": 3263,
      "stract": 3264,
      "ens": 3265,
      "LedgerJournal": 3266,
      "ense": 3267,
      "Ġax": 3268,
      "Retryable": 3269,
      "grade": 3270,
      "DM": 3271,
      "Electronic": 3272,
      "Ġtime": 3273,
      "Fac": 3274,
      "ION": 3275,
      "iven": 3276,
      "SourceDocumentLineItem": 3277,
      "Multip": 3278,
      "ĠDateTimeUtil": 3279,
      "read": 3280,
      "Conflict": 3281,
      "Ġcreated": 3282,
      "ident": 3283,
      "Ġmain": 3284,
      "ĠinventTransOrigin": 3285,
      "UM": 3286,
      "Ġrange": 3287,
      "ide": 3288,
      "AL": 3289,
      "skip": 3290,
      "caller": 3291,
      "rs": 3292,
      "GB": 3293,
      "Commit": 3294,
      "sTo": 3295,
      "Ġplan": 3296,
      "ĠSets": 3297,
      "fix": 3298,
      "Material": 3299,
      "Ġassessment": 3300,
      "ĠInitializ": 3301,
      "Design": 3302,
      "Ġmax": 3303,
      "StmtISO": 3304,
      "Cla": 3305,
      "ĠInitializes": 3306,
      "queryRun": 3307,
      "ĠAssetAmount": 3308,
      "ccess": 3309,
      "NumberOf": 3310,
      "movement": 3311,
      "Ġneed": 3312,
      "ĠItemId": 3313,
      "Subtract": 3314,
      "Serial": 3315,
      ";,&#": 3316,
      "ique": 3317,
      "ves": 3318,
      "Adv": 3319,
      "Ġdetail": 3320,
      "Volume": 3321,
      "ifies": 3322,
      "ister": 3323,
      "Temp": 3324,
      "HandlerRegistration": 3325,
      "HandlerSubscription": 3326,
      "ĠeventHandlerMethodName": 3327,
      "ĠSubscriberMethod": 3328,
      "ĠSubscriberElement": 3329,
      "ĠeventHandlerElementName": 3330,
      "ĠeventHandlerElementTypeId": 3331,
      "ĠEventHandlerType": 3332,
      "ĠTargetElement": 3333,
      "ĠRegistrationMethodName": 3334,
      "Ġmodule": 3335,
      "jmg": 3336,
      "ĠinventSum": 3337,
      "Disposal": 3338,
      "Inquiry": 3339,
      "Override": 3340,
      "izing": 3341,
      "io": 3342,
      "ĠHcm": 3343,
      "urpose": 3344,
      "AttributeValue": 3345,
      "Buffer": 3346,
      "HeaderRecId": 3347,
      "formControl": 3348,
      "ĠinventTransfer": 3349,
      "sett": 3350,
      "ĠDetermines": 3351,
      "MappedField": 3352,
      "Ġreser": 3353,
      "newFrom": 3354,
      "Ġonly": 3355,
      "Warning": 3356,
      "erExpressionNot": 3357,
      "inventTransfer": 3358,
      "Ùħ": 3359,
      "Incentive": 3360,
      "format": 3361,
      "EU": 3362,
      "Ġlookup": 3363,
      "gment": 3364,
      ">.": 3365,
      "Finish": 3366,
      "Variant": 3367,
      "aster": 3368,
      "Section": 3369,
      "Activities": 3370,
      "Compare": 3371,
      "IP": 3372,
      "list": 3373,
      "AxTableIndexField": 3374,
      "Break": 3375,
      "toDate": 3376,
      "HM": 3377,
      "visible": 3378,
      "TransactionType": 3379,
      "ĠStatus": 3380,
      "Enc": 3381,
      "Consumption": 3382,
      "Sec": 3383,
      "PriceDisc": 3384,
      "Admin": 3385,
      "TaxCode": 3386,
      "\")": 3387,
      "RefId": 3388,
      "lation": 3389,
      "empty": 3390,
      "ĠLogistics": 3391,
      "ĠdelegateElement": 3392,
      "DelegateTypeId": 3393,
      "ĠRefRecId": 3394,
      "ges": 3395,
      "ĠĠĠĠĠĠĠĠĠĠĠĠĠĠĠĠĠĠĠĠĠĠĠĠĠĠĠĠĠĠĠĠĠĠĠĠĠĠĠĠĠĠĠĠĠĠĠĠĠĠĠĠĠĠĠĠĠĠĠ": 3396,
      "fmt": 3397,
      "ĠJ": 3398,
      "erated": 3399,
      "ehouse": 3400,
      "qty": 3401,
      "uctionEntry": 3402,
      "SalesQuotation": 3403,
      "EventType": 3404,
      "delete": 3405,
      "Ġoriginal": 3406,
      "product": 3407,
      "umbr": 3408,
      "oration": 3409,
      "51": 3410,
      "ExchAdj": 3411,
      "61": 3412,
      "yy": 3413,
      "Ġz": 3414,
      "Ġprovid": 3415,
      "NestedTarget": 3416,
      "Ġfilter": 3417,
      "AxReportDataSetParameter": 3418,
      ";)\"": 3419,
      "umbrance": 3420,
      "LCImport": 3421,
      "pa": 3422,
      "Ġcount": 3423,
      "Expense": 3424,
      "Ġsingleton": 3425,
      "ĠbudgetPlanLine": 3426,
      "NZ": 3427,
      "Upgrade": 3428,
      "Disable": 3429,
      "Scheme": 3430,
      "Invoices": 3431,
      "Ge": 3432,
      "Cover": 3433,
      "ĠstrFmt": 3434,
      "Changed": 3435,
      "Ln": 3436,
      "ipCode": 3437,
      "ages": 3438,
      "ERExpressionEnumEquals": 3439,
      "Clean": 3440,
      "Gre": 3441,
      "PdsCW": 3442,
      "Rebate": 3443,
      "BooleanItemValue": 3444,
      "erExpressionBooleanItemValue": 3445,
      "etary": 3446,
      "Ġover": 3447,
      "ned": 3448,
      "reight": 3449,
      "Ġcache": 3450,
      "Partition": 3451,
      "eger": 3452,
      "Ġenabled": 3453,
      "Ap": 3454,
      "hol": 3455,
      "Ġinformation": 3456,
      "FM": 3457,
      "68": 3458,
      "rel": 3459,
      "ĠFiscalDocument": 3460,
      "ATE": 3461,
      "CostTrans": 3462,
      "Dat": 3463,
      "Payroll": 3464,
      "Ġ12": 3465,
      "ĠFeature": 3466,
      "ĠĠĠĠĠĠĠĠĠĠĠĠĠĠĠĠĠĠĠĠĠĠĠĠĠĠ": 3467,
      "Association": 3468,
      "Ġprev": 3469,
      "Approval": 3470,
      "Ġshow": 3471,
      "TransObject": 3472,
      "Ġmatching": 3473,
      "TextDec": 3474,
      "enuItem": 3475,
      "TextDecoration": 3476,
      "inary": 3477,
      "ĠĠĠĠĠĠĠĠĠĠĠĠĠĠĠĠĠĠĠĠĠĠĠĠĠĠĠĠ": 3478,
      "sp": 3479,
      "dis": 3480,
      "OrCreate": 3481,
      "Picking": 3482,
      "Ġcash": 3483,
      "Ġtemp": 3484,
      "Archive": 3485,
      "Retrie": 3486,
      "acters": 3487,
      "AN": 3488,
      "Instance": 3489,
      "ModelId": 3490,
      "xD": 3491,
      "issing": 3492,
      "Exempt": 3493,
      "Ġno": 3494,
      "Ġacc": 3495,
      "fieldId": 3496,
      "Available": 3497,
      "('$": 3498,
      "ĠcustInvoiceJour": 3499,
      "Trade": 3500,
      "Advice": 3501,
      "Im": 3502,
      "ERExpressionAnd": 3503,
      "Delta": 3504,
      "FR": 3505,
      "ProcessLogTrans": 3506,
      "DimensionGroup": 3507,
      "Ġcur": 3508,
      "InventLocationId": 3509,
      "ĠLedgerJournal": 3510,
      "ale": 3511,
      "iated": 3512,
      "ãĥ": 3513,
      "Normal": 3514,
      "Div": 3515,
      "Static": 3516,
      "ÙĬ": 3517,
      "Administ": 3518,
      "Columns": 3519,
      "ERExpressionNumericEquals": 3520,
      "eek": 3521,
      "Catalog": 3522,
      "Ġrelated": 3523,
      "AgreementLine": 3524,
      "eted": 3525,
      "Loss": 3526,
      "Ġload": 3527,
      "PurchaseOrder": 3528,
      "ffective": 3529,
      "Forward": 3530,
      "FirstPayment": 3531,
      "ExciseDuty": 3532,
      "Root": 3533,
      "Additional": 3534,
      "Ġagreement": 3535,
      "ements": 3536,
      "ĠĠĠĠĠĠĠĠĠĠĠĠĠĠĠĠĠĠĠĠĠĠĠĠĠĠĠĠĠĠ": 3537,
      "mbol": 3538,
      "rator": 3539,
      "EntryPoints": 3540,
      "Gu": 3541,
      "MenuItemDisplay": 3542,
      "PaymProposal": 3543,
      "Ġexist": 3544,
      "InventQty": 3545,
      "ograph": 3546,
      "Sim": 3547,
      "exp": 3548,
      "av": 3549,
      "DataMaintenance": 3550,
      "pres": 3551,
      "statement": 3552,
      "Ġcontains": 3553,
      "Ġgiven": 3554,
      "ird": 3555,
      "QueryRun": 3556,
      "custInvoiceJour": 3557,
      "QL": 3558,
      "AxFormStringControl": 3559,
      "AxDataEntityViewMappedField": 3560,
      "mer": 3561,
      "ĠTransformation": 3562,
      "Ġhave": 3563,
      "queryValue": 3564,
      "hu": 3565,
      "FontStyle": 3566,
      "FDoc": 3567,
      "Ġdocuments": 3568,
      "uals": 3569,
      "Ġ'';": 3570,
      "Variance": 3571,
      "CreditorAgent": 3572,
      "Purpose": 3573,
      "ĠObject": 3574,
      "ced": 3575,
      "ĠAr": 3576,
      "Shipment": 3577,
      "ao": 3578,
      "ĠR": 3579,
      "etch": 3580,
      "Rest": 3581,
      "TaxAct": 3582,
      "ĠTypes": 3583,
      "arning": 3584,
      "LineAmount": 3585,
      "ĠLedgerPostingType": 3586,
      "way": 3587,
      "PurchBook": 3588,
      "TimeZone": 3589,
      "Ġdimensions": 3590,
      "Corp": 3591,
      "ground": 3592,
      "à¸Ļ": 3593,
      "Ġhand": 3594,
      "ERTextFormatXMLAttribute": 3595,
      "PaymentByCreditor": 3596,
      "net": 3597,
      "Creation": 3598,
      "initFrom": 3599,
      "Ġopen": 3600,
      "UnitId": 3601,
      "ĠAND": 3602,
      "ĠIN": 3603,
      "BudgetSourceTracking": 3604,
      "Integer": 3605,
      "Appended": 3606,
      "Ġtransfer": 3607,
      "AxTableRelation": 3608,
      "Author": 3609,
      "AssetClassification": 3610,
      "NumberSequence": 3611,
      "Settings": 3612,
      "da": 3613,
      "Ġalloc": 3614,
      "Ġ;": 3615,
      "cb": 3616,
      "last": 3617,
      "Background": 3618,
      "Peek": 3619,
      "ken": 3620,
      "GroupControl": 3621,
      "Relieving": 3622,
      "match": 3623,
      "Pool": 3624,
      "Ġkey": 3625,
      "Carry": 3626,
      "Ġindic": 3627,
      "Good": 3628,
      "ZA": 3629,
      "Ġdes": 3630,
      "Intercompany": 3631,
      "ĠCE": 3632,
      "custTrans": 3633,
      "assetTrans": 3634,
      "CostPrice": 3635,
      "Down": 3636,
      "Routing": 3637,
      "fine": 3638,
      "AgreementHeader": 3639,
      "Ġallow": 3640,
      "DimensionAttributeValue": 3641,
      "calculate": 3642,
      "BackgroundColor": 3643,
      "Dlv": 3644,
      "parmIs": 3645,
      "Destination": 3646,
      "0000": 3647,
      "AAA": 3648,
      "Ġreporting": 3649,
      "key": 3650,
      "FreeTextInvoiceLocalizationTmp": 3651,
      "InstrumentationLogger": 3652,
      "umul": 3653,
      "write": 3654,
      "Tables": 3655,
      "Symbol": 3656,
      "UN": 3657,
      "eature": 3658,
      "ĠUpdate": 3659,
      "Ġvendor": 3660,
      "conciliation": 3661,
      "--": 3662,
      "Bundle": 3663,
      "pend": 3664,
      "Scrap": 3665,
      "DefaultAccount": 3666,
      "ERExpressionValidation": 3667,
      "Ġlogger": 3668,
      "ERExpressionValidationCondition": 3669,
      "Ġla": 3670,
      "BuildRange": 3671,
      "Marked": 3672,
      "exch": 3673,
      "FinTag": 3674,
      "ĠRetrie": 3675,
      "Ġexec": 3676,
      "FormRun": 3677,
      "utor": 3678,
      "ake": 3679,
      "Ġremain": 3680,
      "BOMCalc": 3681,
      "gener": 3682,
      "Ġservice": 3683,
      "ingBalance": 3684,
      "char": 3685,
      "airment": 3686,
      "route": 3687,
      "inventDimId": 3688,
      "Ġabstract": 3689,
      "JournalNum": 3690,
      "sv": 3691,
      "AxReportParameter": 3692,
      "ĠfromDate": 3693,
      "Dynamic": 3694,
      "InGroup": 3695,
      "Periods": 3696,
      "Pan": 3697,
      "ĠØ§ÙĦ": 3698,
      "Ġtarget": 3699,
      "number": 3700,
      "voucher": 3701,
      "()))": 3702,
      "ĠinventDimParm": 3703,
      "Ġmessage": 3704,
      "ĠCommon": 3705,
      "acing": 3706,
      "ãĤ": 3707,
      "qbds": 3708,
      "Ġnode": 3709,
      "Ġcalculation": 3710,
      "Mov": 3711,
      "eign": 3712,
      "allow": 3713,
      "InvoiceInfoLine": 3714,
      "Previous": 3715,
      "Ġactive": 3716,
      "Ġsetting": 3717,
      "ĠecoRes": 3718,
      "rink": 3719,
      "Shrink": 3720,
      "Ġsets": 3721,
      "Ġexception": 3722,
      "ĠÐ": 3723,
      "MatchRule": 3724,
      "CanShrink": 3725,
      "transaction": 3726,
      "Frame": 3727,
      "Fee": 3728,
      "ReportingFields": 3729,
      "real": 3730,
      "ĠCS": 3731,
      "CorpTaxAct": 3732,
      "book": 3733,
      "ĠFacture": 3734,
      "SW": 3735,
      "Synchron": 3736,
      "sor": 3737,
      "ography": 3738,
      "FiscalEstablishment": 3739,
      "Ä±": 3740,
      "SalesId": 3741,
      "InvoiceAmount": 3742,
      "Ġpaym": 3743,
      "Phone": 3744,
      "ĠRetrieves": 3745,
      "TableLookup": 3746,
      "ia": 3747,
      "addEnd": 3748,
      "nb": 3749,
      "Factory": 3750,
      "sender": 3751,
      "upTrans": 3752,
      "Diff": 3753,
      "Missing": 3754,
      "Release": 3755,
      "ĠAct": 3756,
      "ĠdateNull": 3757,
      "initialize": 3758,
      "ged": 3759,
      "Ġwas": 3760,
      "ĠFormDataSource": 3761,
      "edAmount": 3762,
      "annel": 3763,
      "Content": 3764,
      "Ġoper": 3765,
      "CountryRegionId": 3766,
      "TransRecId": 3767,
      "Ġaddress": 3768,
      "Bom": 3769,
      "Proc": 3770,
      "Ġbeen": 3771,
      "ĠgeneralJournalAccountEntry": 3772,
      "Master": 3773,
      "Ġformat": 3774,
      "Global": 3775,
      "Attr": 3776,
      "FeatureEnabled": 3777,
      "ĠpurchLine": 3778,
      "When": 3779,
      "TablixMembers": 3780,
      "ĠEcoResProduct": 3781,
      "TO": 3782,
      "no": 3783,
      "ERExpressionListWhere": 3784,
      "CorpTaxActAppended": 3785,
      "Ġ((": 3786,
      ".'&": 3787,
      "Derived": 3788,
      "PrintMgmt": 3789,
      "InventSiteId": 3790,
      "Attributes": 3791,
      "OrderLine": 3792,
      "Maintain": 3793,
      "Ġadjustment": 3794,
      "BatchId": 3795,
      "Ġexchange": 3796,
      "ĠsalesLine": 3797,
      "Ġupd": 3798,
      "Variables": 3799,
      "ĠVoucher": 3800,
      "uplic": 3801,
      "EventHandlers": 3802,
      "IDD": 3803,
      "iteralStr": 3804,
      "LG": 3805,
      "cell": 3806,
      "ĠSelect": 3807,
      "Ġcref": 3808,
      "base": 3809,
      "ĠAdd": 3810,
      "packed": 3811,
      "Supp": 3812,
      "Cycle": 3813,
      "Center": 3814,
      "ProjInvoiceJour": 3815,
      "Ñģ": 3816,
      "Ġprice": 3817,
      "Instruct": 3818,
      "CurrentVersion": 3819,
      "Generation": 3820,
      "sub": 3821,
      "Lic": 3822,
      "Ġunit": 3823,
      "ĠbudgetSourceTracking": 3824,
      "stat": 3825,
      "Ġbase": 3826,
      "cohol": 3827,
      "Ġvari": 3828,
      "Ġpacked": 3829,
      "FieldGroups": 3830,
      "Counter": 3831,
      "EM": 3832,
      "RelationshipType": 3833,
      "abase": 3834,
      "facture": 3835,
      "label": 3836,
      "FirstPaymentInGroup": 3837,
      "CustAccount": 3838,
      "olution": 3839,
      "Ġlogistics": 3840,
      "classStr": 3841,
      "Begin": 3842,
      "ph": 3843,
      "range": 3844,
      "Allocate": 3845,
      "Ġentity": 3846,
      "ThisYear": 3847,
      "Encumbrance": 3848,
      "CI": 3849,
      "ĠInventTable": 3850,
      "EntAsset": 3851,
      "Ġsql": 3852,
      "elerated": 3853,
      "Tel": 3854,
      "Greater": 3855,
      "paym": 3856,
      "ÑĢ": 3857,
      "Ġassoc": 3858,
      "inventTransOrigin": 3859,
      "chem": 3860,
      "Ġrece": 3861,
      "Measures": 3862,
      "Ġentry": 3863,
      "ok": 3864,
      "Ġ(!_": 3865,
      "VersionId": 3866,
      "ĠspecTrans": 3867,
      "Sw": 3868,
      "GU": 3869,
      "prmisdefault": 3870,
      "Ordered": 3871,
      "tablenum": 3872,
      "ĠBusiness": 3873,
      "Review": 3874,
      "Ġok": 3875,
      "Scope": 3876,
      "container": 3877,
      "ZW": 3878,
      "Ã°": 3879,
      "ĠLedgerVoucher": 3880,
      "OP": 3881,
      "RefTableId": 3882,
      "Ã¼": 3883,
      "Ġcancel": 3884,
      "After": 3885,
      "Ġfl": 3886,
      "PostingProfile": 3887,
      "JournalName": 3888,
      "AxSecurityEntryPointReferenceForm": 3889,
      "ĠProd": 3890,
      "Indexes": 3891,
      "ĠvendTrans": 3892,
      "Ġ3": 3893,
      "EventArgs": 3894,
      "Ġattrib": 3895,
      "Rpt": 3896,
      "InsertList": 3897,
      "EL": 3898,
      "Series": 3899,
      "Neg": 3900,
      "ParmTable": 3901,
      "Cap": 3902,
      "we": 3903,
      "Ġim": 3904,
      "oll": 3905,
      "HR": 3906,
      "Ġhcm": 3907,
      "asis": 3908,
      "ountryRegion": 3909,
      "ability": 3910,
      "JoinMode": 3911,
      "Coda": 3912,
      "Cred": 3913,
      "Und": 3914,
      "Impairment": 3915,
      "CP": 3916,
      "Clear": 3917,
      "ĠDate": 3918,
      "Ġproject": 3919,
      "Ġworkflow": 3920,
      "EcoResProduct": 3921,
      "Ġcat": 3922,
      "must": 3923,
      "Onhand": 3924,
      "SalesOrder": 3925,
      "define": 3926,
      "Ġview": 3927,
      "ĠTrue": 3928,
      "string": 3929,
      "ĠMicrosoft": 3930,
      "Rows": 3931,
      "Ġdistribution": 3932,
      "Employee": 3933,
      "ĠsalesTable": 3934,
      "ĠCheck": 3935,
      "ĠAssetDep": 3936,
      "has": 3937,
      "urrence": 3938,
      "ĠCO": 3939,
      "QualityOrder": 3940,
      "DataSourceHandler": 3941,
      "AccountStatementExt": 3942,
      "Warehouse": 3943,
      "ĠDEV": 3944,
      "ZipCode": 3945,
      "Ã¶": 3946,
      "Sent": 3947,
      "gh": 3948,
      "exec": 3949,
      "append": 3950,
      "AccountNumber": 3951,
      "ĠgeneralJournalEntry": 3952,
      "ĠtransDate": 3953,
      "ĠbomCalc": 3954,
      "IntItemValue": 3955,
      "FileName": 3956,
      "erExpressionIntItemValue": 3957,
      "CBAA": 3958,
      "sumed": 3959,
      "Sql": 3960,
      "formance": 3961,
      "Documents": 3962,
      "OfThe": 3963,
      "Ġoff": 3964,
      "ACType": 3965,
      "parameter": 3966,
      "ictTable": 3967,
      "ĠWHS": 3968,
      "LL": 3969,
      "sed": 3970,
      "Exim": 3971,
      "LineBase": 3972,
      "ĠException": 3973,
      "RunBase": 3974,
      "Sped": 3975,
      "Zh": 3976,
      "Ġ,@": 3977,
      "edBy": 3978,
      "Ġqty": 3979,
      "ategy": 3980,
      "Usage": 3981,
      "Hans": 3982,
      "UpdateConflict": 3983,
      "ReductionEntry": 3984,
      "nown": 3985,
      "les": 3986,
      "VEN": 3987,
      "Ġinfo": 3988,
      "taxTrans": 3989,
      "ĠInventQty": 3990,
      "Has": 3991,
      "Indirect": 3992,
      "Li": 3993,
      "back": 3994,
      "SalesInvoiceDS": 3995,
      "iro": 3996,
      "Ġcba": 3997,
      "CurrentList": 3998,
      "Std": 3999,
      "License": 4000,
      "JourEntries": 4001,
      "GeneralJournalAccountEntry": 4002,
      "ĠĠĠĠĠĠĠĠĠĠĠĠĠĠĠĠĠĠĠĠĠĠĠĠĠĠĠĠĠĠĠĠĠĠĠĠĠĠĠĠĠĠĠĠĠĠĠĠĠĠĠĠĠĠĠĠĠĠĠĠĠ": 4003,
      "TaxWithhold": 4004,
      "omest": 4005,
      "Ø±": 4006,
      "Ġdisplay": 4007,
      "AAg": 4008,
      "inventDimParm": 4009,
      "ĠactivityContext": 4010,
      "omestic": 4011,
      "join": 4012,
      "ana": 4013,
      "LineType": 4014,
      "Ġph": 4015,
      "ĠLedgerJournalTrans": 4016,
      "ĠmainAccount": 4017,
      "AccountingCurrencyAmount": 4018,
      "Ġbuild": 4019,
      "strfmt": 4020,
      "custom": 4021,
      "ĠfiscalCalendar": 4022,
      "Notes": 4023,
      "uer": 4024,
      "recId": 4025,
      "Populate": 4026,
      "ission": 4027,
      "RelatedTableCardinality": 4028,
      "ĠDialogField": 4029,
      "ĠisEnabled": 4030,
      "rong": 4031,
      "à¸£à¸": 4032,
      "ĠcustInvoiceTrans": 4033,
      "Ġchild": 4034,
      "using": 4035,
      "Ġder": 4036,
      "ĠAssetBook": 4037,
      "ĠAssetTable": 4038,
      "ĠformRun": 4039,
      "salesTable": 4040,
      "DEVInteg": 4041,
      "ĠApp": 4042,
      "Que": 4043,
      "tableId": 4044,
      "Identifier": 4045,
      "rides": 4046,
      "packedClass": 4047,
      "ERExpressionBooleanConstant": 4048,
      "ĠX": 4049,
      "TaxRegistration": 4050,
      "ename": 4051,
      "inventSum": 4052,
      "Ġ/*": 4053,
      "antine": 4054,
      "figuration": 4055,
      "ExportedClass": 4056,
      "gin": 4057,
      "Receiv": 4058,
      "of": 4059,
      "ĠledgerDimension": 4060,
      "++;": 4061,
      "HU": 4062,
      "RoutingNumber": 4063,
      "AccountTable": 4064,
      "AccessLevel": 4065,
      "Transportation": 4066,
      "FiscalCalendarPeriod": 4067,
      "Processed": 4068,
      "BudgetPlanHeader": 4069,
      "Before": 4070,
      "AccountId": 4071,
      "Opr": 4072,
      "ĠLe": 4073,
      "Ġabs": 4074,
      "Ġcalculate": 4075,
      "COFINS": 4076,
      "Full": 4077,
      "Solution": 4078,
      "ledgerDimension": 4079,
      "InstrumentationActivity": 4080,
      "ĠKanban": 4081,
      "TS": 4082,
      "KeepWith": 4083,
      "ĠCurrencyExchangeHelper": 4084,
      "KeepWithGroup": 4085,
      "enabled": 4086,
      "BudgetPlanScenario": 4087,
      "Ġ10": 4088,
      "Ġtry": 4089,
      "eration": 4090,
      "ĠĠĠĠĠĠĠĠĠĠĠĠĠĠĠĠĠĠĠĠĠĠĠĠĠĠĠĠĠĠĠĠĠĠĠĠĠĠĠĠĠĠĠĠĠĠĠĠĠĠĠĠĠĠĠĠĠĠĠĠĠĠĠ": 4091,
      "InvoiceAccount": 4092,
      "TaxDed": 4093,
      "Ġchar": 4094,
      "Assets": 4095,
      "Integrator": 4096,
      "cy": 4097,
      "ĠcustTable": 4098,
      "DetailsTmp": 4099,
      "ERTextFormatExcelRange": 4100,
      "ToCancel": 4101,
      "Regul": 4102,
      "Skip": 4103,
      "Channel": 4104,
      "miss": 4105,
      "Include": 4106,
      "Receive": 4107,
      "olumn": 4108,
      "osit": 4109,
      "Life": 4110,
      "Ġcons": 4111,
      "****": 4112,
      "DataElementOutput": 4113,
      "Ok": 4114,
      "ĠRecord": 4115,
      "Ins": 4116,
      "findOrCreate": 4117,
      "HeaderFooterDS": 4118,
      "Facade": 4119,
      "ERModelGroupByAggreg": 4120,
      "GIN": 4121,
      "bit": 4122,
      "DocumentLine": 4123,
      "Ġcaller": 4124,
      "posting": 4125,
      "TitleField": 4126,
      "Render": 4127,
      "ody": 4128,
      "Contrib": 4129,
      "Ġstring": 4130,
      "wrong": 4131,
      "Transit": 4132,
      "rative": 4133,
      "ĠField": 4134,
      "ContactPerson": 4135,
      "hl": 4136,
      "ĠBatch": 4137,
      "CBAT": 4138,
      "Events": 4139,
      "irt": 4140,
      "Freight": 4141,
      "UseOf": 4142,
      "eased": 4143,
      "BPError": 4144,
      "Main": 4145,
      "Geography": 4146,
      "Ranges": 4147,
      "UseOfFunction": 4148,
      "ĠcustTransOpen": 4149,
      "SysQuery": 4150,
      "Goods": 4151,
      "wrongUseOfFunction": 4152,
      "orary": 4153,
      "JournalLine": 4154,
      "SourceRecId": 4155,
      "branch": 4156,
      "Ġadvance": 4157,
      "Foreign": 4158,
      "vation": 4159,
      "BU": 4160,
      "print": 4161,
      "RetryCount": 4162,
      "AAB": 4163,
      "extended": 4164,
      "Costing": 4165,
      "PreTaxDed": 4166,
      "Secondary": 4167,
      "Ur": 4168,
      "Ġcalled": 4169,
      "Prefix": 4170,
      "CoBy": 4171,
      "Layer": 4172,
      "Concept": 4173,
      "olog": 4174,
      "Ġmodified": 4175,
      "AAG": 4176,
      "ĠĠĠĠĠĠĠĠĠĠĠĠĊ": 4177,
      "ĠInventTransOrigin": 4178,
      "ĠId": 4179,
      "ayout": 4180,
      "Pmf": 4181,
      "Quarter": 4182,
      "sible": 4183,
      "ClassName": 4184,
      "ĠCFM": 4185,
      "rier": 4186,
      "CBI": 4187,
      "ĠmethodStr": 4188,
      "are": 4189,
      "iating": 4190,
      "AccountStatementExtTmp": 4191,
      "Ms": 4192,
      "Worksheet": 4193,
      "status": 4194,
      "Bar": 4195,
      "Ġcommon": 4196,
      "node": 4197,
      "ERExpressionOr": 4198,
      "OT": 4199,
      "ĠBOMCalc": 4200,
      "LT": 4201,
      "'s": 4202,
      "bW": 4203,
      "imated": 4204,
      "Taxable": 4205,
      "VendInvoice": 4206,
      "SubscriberAccessLevel": 4207,
      "CompanyId": 4208,
      "DepreciationProfile": 4209,
      "BudgetBalances": 4210,
      "cbc": 4211,
      "ready": 4212,
      "Ġdatacontract": 4213,
      "AAAAAAAAAAAAAAAAAAAAAAAAAAAAAAAAAAAAAAAAAAAAAAAAAAAAAAAAAAAAAAAAAAAAAAAAAAAAAAAAAAAAAAAAAAAAAAAAAAAAAAAAAAAAAAAAAAAAAAAAAAAAAAAAAAAAAAAAAAAAAAAAAAAAAAAAAAAAAAAAAAAAAAAAAAAAAAAAAAAAAAAAAAAAAAAAAAAAAAAAAAAAAAAAAAAAAAAAAAAAAAAAAAAAAAAAAAAAAAAAAAAAAAAAAAAAAAAA": 4214,
      "Ġfinancial": 4215,
      "AssetGroup": 4216,
      "ĠSysQuery": 4217,
      "ĠCalcul": 4218,
      "Pair": 4219,
      "IFT": 4220,
      "Administrative": 4221,
      "Ed": 4222,
      "ĠDataMemberAttribute": 4223,
      "PurchReqLine": 4224,
      "IQ": 4225,
      "ene": 4226,
      "Øª": 4227,
      "Specific": 4228,
      "AdministrativeCent": 4229,
      "Fil": 4230,
      "ĠaccountingDistribution": 4231,
      "AdvancedLedgerEntry": 4232,
      "ĠValid": 4233,
      "400": 4234,
      "CustPaym": 4235,
      "Ġdi": 4236,
      "125": 4237,
      "FirstAddend": 4238,
      "SecondAddend": 4239,
      "Requested": 4240,
      "ERExpressionNumericAdd": 4241,
      "DMF": 4242,
      "Reports": 4243,
      "TransactionId": 4244,
      "valid": 4245,
      "ĠPurch": 4246,
      "ĠFieldId": 4247,
      "Matched": 4248,
      "Ġprevious": 4249,
      "Shipping": 4250,
      "Ġsearch": 4251,
      "CustInvoice": 4252,
      "igit": 4253,
      "register": 4254,
      "result": 4255,
      "ERObject": 4256,
      "Equal": 4257,
      "Ġassociated": 4258,
      "AxAggregate": 4259,
      "Ġtext": 4260,
      "County": 4261,
      "DimensionValue": 4262,
      "tableStr": 4263,
      "à¸ĩ": 4264,
      "Approved": 4265,
      "AmountTo": 4266,
      "salesLine": 4267,
      "orer": 4268,
      "Ġreal": 4269,
      "Ġrequest": 4270,
      "Ġinitial": 4271,
      "SelectionField": 4272,
      "Based": 4273,
      "Planned": 4274,
      "Ġamounts": 4275,
      "bed": 4276,
      "cluded": 4277,
      "Ġ*/": 4278,
      "Incl": 4279,
      "BillingClassification": 4280,
      "Cert": 4281,
      "EnumValue": 4282,
      "Summar": 4283,
      "igation": 4284,
      "ERExpressionStringReplace": 4285,
      "IsReg": 4286,
      "IsRegexp": 4287,
      "Ġref": 4288,
      "LogisticsAddress": 4289,
      "CFD": 4290,
      "LedgerAccount": 4291,
      "Modify": 4292,
      "That": 4293,
      "space": 4294,
      "ĠconPeek": 4295,
      "ĠFiscal": 4296,
      "Mst": 4297,
      "Ġaut": 4298,
      "ĠassetDep": 4299,
      "Ġinitialize": 4300,
      "Queue": 4301,
      "à¸Ń": 4302,
      "Outlet": 4303,
      "ula": 4304,
      "100": 4305,
      "des": 4306,
      "PaymentRequest": 4307,
      "Draft": 4308,
      "ĠTransaction": 4309,
      "ulture": 4310,
      "PackingSlipTrans": 4311,
      "Explorer": 4312,
      "CategoryId": 4313,
      "SourceExplorer": 4314,
      "Taxes": 4315,
      "Rendering": 4316,
      "EX": 4317,
      "Depreciate": 4318,
      "Mer": 4319,
      "QueryObject": 4320,
      "DataEntityPermissions": 4321,
      "formControlStr": 4322,
      "(&#": 4323,
      "local": 4324,
      "Ġpay": 4325,
      "ERE": 4326,
      "TaxType": 4327,
      "udit": 4328,
      "Stream": 4329,
      "search": 4330,
      "Remittances": 4331,
      "realized": 4332,
      "Stoc": 4333,
      "DataProvider": 4334,
      "More": 4335,
      "TaxBaseAmount": 4336,
      "vc": 4337,
      "Web": 4338,
      "erver": 4339,
      "Ġmin": 4340,
      "Manually": 4341,
      "Domestic": 4342,
      "Modifications": 4343,
      "Duplic": 4344,
      "Overrides": 4345,
      "fl": 4346,
      "budgetPlanLine": 4347,
      "TaxGroup": 4348,
      "wh": 4349,
      "Ġone": 4350,
      "JournalType": 4351,
      "TmpTaxReport": 4352,
      "ButtonControl": 4353,
      "ChequeTable": 4354,
      "ReportEntry": 4355,
      "Alcohol": 4356,
      "Effective": 4357,
      "BankDocument": 4358,
      "Found": 4359,
      "Ġac": 4360,
      "LV": 4361,
      "ĠCreditCard": 4362,
      "DeliveryDate": 4363,
      "ionField": 4364,
      "Inbound": 4365,
      "imals": 4366,
      "Unique": 4367,
      "ĠbudgetTransactionLine": 4368,
      "DocumentEntry": 4369,
      "Ġdescription": 4370,
      "CreditNote": 4371,
      "ICMSST": 4372,
      "BI": 4373,
      "HcmWorker": 4374,
      "Ġvalidation": 4375,
      "Finished": 4376,
      "imum": 4377,
      "ĠCBARPT": 4378,
      "WHERE": 4379,
      "Ġcl": 4380,
      "hes": 4381,
      "Virt": 4382,
      "BookValue": 4383,
      "Ġdoes": 4384,
      "Support": 4385,
      "ĠSelectionField": 4386,
      "ĠledgerJournalTable": 4387,
      "Ġadded": 4388,
      "à¸±": 4389,
      "Ġ'',": 4390,
      "Save": 4391,
      "ignment": 4392,
      "etaryAmount": 4393,
      "Culture": 4394,
      "ĠCoc": 4395,
      "SummaryTmp": 4396,
      "Ġtracking": 4397,
      "addLink": 4398,
      "Ġreturns": 4399,
      "HeaderTmp": 4400,
      "Rd": 4401,
      "Ġcontext": 4402,
      "Ġrelie": 4403,
      "izingDefinition": 4404,
      "joinMode": 4405,
      "TotalAmount": 4406,
      "Kind": 4407,
      "Profit": 4408,
      "rsReport": 4409,
      "GV": 4410,
      "common": 4411,
      "etermine": 4412,
      "activityContext": 4413,
      "Ġfun": 4414,
      "à¸ģ": 4415,
      "PrePrintLevel": 4416,
      "ET": 4417,
      "Äģ": 4418,
      "RegNum": 4419,
      "Ġposted": 4420,
      "Percentage": 4421,
      "Overview": 4422,
      "DefaultAggregate": 4423,
      "Ġreconciliation": 4424,
      "ocu": 4425,
      "Ġlegal": 4426,
      "RecordId": 4427,
      "CZ": 4428,
      "Ġmarked": 4429,
      "SRS": 4430,
      "Array": 4431,
      "ĠCurrencyCode": 4432,
      "ERExpressionDateItemValue": 4433,
      "BudgetReservation": 4434,
      "PaymAdvice": 4435,
      "Ġpass": 4436,
      "Ġmenu": 4437,
      "AgingReportTmp": 4438,
      "StatementLine": 4439,
      "Strategy": 4440,
      "Defaulting": 4441,
      "Third": 4442,
      "Absence": 4443,
      "RenderingCulture": 4444,
      "Complet": 4445,
      "à¹Ģ": 4446,
      "pri": 4447,
      "Enter": 4448,
      "CFM": 4449,
      "Image": 4450,
      "ung": 4451,
      "CashDiscount": 4452,
      "Ġout": 4453,
      "Supply": 4454,
      "byperiod": 4455,
      "branchbyperiod": 4456,
      "ĠfactureJour": 4457,
      "grouped": 4458,
      "price": 4459,
      "ored": 4460,
      "ĠisEnabledByDefault": 4461,
      "PR": 4462,
      "ĠInventTransfer": 4463,
      "Ġhierarchy": 4464,
      "Bon": 4465,
      "Funding": 4466,
      "\")&": 4467,
      "ERObjectOperation": 4468,
      "SO": 4469,
      "WidthMode": 4470,
      "SWIFT": 4471,
      "Find": 4472,
      "Quarantine": 4473,
      "Ġpart": 4474,
      "CustAccountStatementExtTmp": 4475,
      "Ġrepres": 4476,
      "Iterator": 4477,
      "Initiating": 4478,
      "istration": 4479,
      "Ġprocessing": 4480,
      "addSelectionField": 4481,
      "AxFormControlExtension": 4482,
      "Ab": 4483,
      "edi": 4484,
      "ĠclassName": 4485,
      "Ġfound": 4486,
      "endingNote": 4487,
      "Ġupdated": 4488,
      "isField": 4489,
      "cket": 4490,
      "AxFormControlExtensionProperty": 4491,
      "Amt": 4492,
      "Flo": 4493,
      "Attach": 4494,
      "ging": 4495,
      "LM": 4496,
      "ug": 4497,
      "Ġsame": 4498,
      "custVendTransOpen": 4499,
      "edList": 4500,
      "pected": 4501,
      "JobId": 4502,
      "Response": 4503,
      "Commitment": 4504,
      "imiter": 4505,
      "ĠSRS": 4506,
      "Ġ11": 4507,
      "ParmLine": 4508,
      "Ġbeing": 4509,
      "ERExpressionListFirst": 4510,
      "Ġattribute": 4511,
      "BPUpgrade": 4512,
      "Database": 4513,
      "Comment": 4514,
      "SalesListReporting": 4515,
      "Translation": 4516,
      "Lean": 4517,
      "Caller": 4518,
      "Ġed": 4519,
      "ificate": 4520,
      "ProjInvoice": 4521,
      "Priority": 4522,
      "alty": 4523,
      "SecCur": 4524,
      "Ġ&#": 4525,
      "active": 4526,
      "essages": 4527,
      "à¹Ī": 4528,
      "Margin": 4529,
      "ĠInventDimId": 4530,
      "rever": 4531,
      "RunIn": 4532,
      "Statistics": 4533,
      ";&#": 4534,
      "Released": 4535,
      "Outbound": 4536,
      "Combo": 4537,
      "CIAP": 4538,
      "ERExpressionNumericGreater": 4539,
      "ls": 4540,
      "Recover": 4541,
      "ĠformDataSource": 4542,
      "VATNum": 4543,
      "Body": 4544,
      "Structured": 4545,
      "Seconds": 4546,
      "cw": 4547,
      "Ġlevel": 4548,
      "MM": 4549,
      "Ġwarning": 4550,
      "ĠAssetTrans": 4551,
      "ĉĉĉĉĉĉĉĉĉĉĉĉĉĉĉĉĉ": 4552,
      "LO": 4553,
      "Ġempl": 4554,
      "CheckResult": 4555,
      "CountryRegionCode": 4556,
      "Ġempty": 4557,
      "ĠSpec": 4558,
      "ĠFieldPath": 4559,
      "ZX": 4560,
      "IsManually": 4561,
      "IsManuallyUpdated": 4562,
      "uend": 4563,
      "yt": 4564,
      "ReasonCode": 4565,
      "ĠLean": 4566,
      "umulated": 4567,
      "Subtra": 4568,
      "UserId": 4569,
      "Carrier": 4570,
      "Minuend": 4571,
      "Subtraend": 4572,
      "Employment": 4573,
      "Ġreturned": 4574,
      "Ġstate": 4575,
      "Close": 4576,
      "ERExpressionNumericSubtract": 4577,
      "Decimals": 4578,
      "primary": 4579,
      "Ġcw": 4580,
      "FormName": 4581,
      "ollow": 4582,
      "ĠCustVendTrans": 4583,
      "Gantt": 4584,
      "Ġfeature": 4585,
      "Ġproper": 4586,
      "batch": 4587,
      "Reply": 4588,
      "fb": 4589,
      "yalty": 4590,
      "ById": 4591,
      "ltern": 4592,
      "ĠModel": 4593,
      "Guid": 4594,
      "older": 4595,
      "AccessPermissions": 4596,
      "DirectAccessPermissions": 4597,
      "ĠmoduleName": 4598,
      "Db": 4599,
      "OnCreate": 4600,
      "AttendingNote": 4601,
      "Cleanup": 4602,
      "Gw": 4603,
      "ProjId": 4604,
      "PriorYears": 4605,
      "Ġcol": 4606,
      "VendTable": 4607,
      "Final": 4608,
      "Param": 4609,
      "netmodule": 4610,
      "Blocking": 4611,
      "AxReportParameterBase": 4612,
      "Confirmed": 4613,
      "Ġenumerator": 4614,
      "Pct": 4615,
      "target": 4616,
      "DataService": 4617,
      "GST": 4618,
      "TaxTransactions": 4619,
      "NewSession": 4620,
      "ĠArgs": 4621,
      "design": 4622,
      "Port": 4623,
      "unt": 4624,
      "oper": 4625,
      "wo": 4626,
      "ĠbudgetControl": 4627,
      "ĠCustTrans": 4628,
      "IsEmpty": 4629,
      "InitiatingParty": 4630,
      "Preferred": 4631,
      "Do": 4632,
      "ĠW": 4633,
      "Ġphysical": 4634,
      "Upl": 4635,
      "DefinitionGroup": 4636,
      "InvoiceInfoTable": 4637,
      "CBATax": 4638,
      "Jl": 4639,
      "ched": 4640,
      "Val": 4641,
      "Ġcopy": 4642,
      "Upload": 4643,
      "Altern": 4644,
      "Ġoffset": 4645,
      "uring": 4646,
      "Ð»": 4647,
      "UIBuilder": 4648,
      "Claim": 4649,
      "Convert": 4650,
      "RunInNewSession": 4651,
      "LanguageId": 4652,
      "InstrumentationConstants": 4653,
      "isEnabledByDefault": 4654,
      "Pa": 4655,
      "GeneralLedger": 4656,
      "Command": 4657,
      "Ġthere": 4658,
      "Conversion": 4659,
      "acity": 4660,
      "ICAgICAgICAgICAg": 4661,
      "ĠbudgetSource": 4662,
      "Ġorigin": 4663,
      "ystem": 4664,
      "AutoPopulate": 4665,
      "Ġtemporary": 4666,
      "Brid": 4667,
      "ĠFormRun": 4668,
      "acter": 4669,
      "DayOf": 4670,
      "TmpTaxReportById": 4671,
      "Sing": 4672,
      "ÙĪ": 4673,
      "Ġposition": 4674,
      "Ġlabel": 4675,
      "UserPreferred": 4676,
      "UserPreferredTimeZone": 4677,
      "iif": 4678,
      "ift": 4679,
      "Ġwr": 4680,
      "ĠProcess": 4681,
      "Interface": 4682,
      "Float": 4683,
      "PaymentType": 4684,
      "\")),": 4685,
      "Ġaction": 4686,
      "Segment": 4687,
      "ECT": 4688,
      "icle": 4689,
      "AllowEditOnCreate": 4690,
      "purchLine": 4691,
      "CustInvoiceTrans": 4692,
      "SalesPrice": 4693,
      "Ġgantt": 4694,
      "DisplayOrder": 4695,
      "Recip": 4696,
      "currencyCode": 4697,
      "Ġ100": 4698,
      "Ġdetails": 4699,
      "ĠBoolean": 4700,
      "Datasource": 4701,
      "Ġrespon": 4702,
      "Indicator": 4703,
      "DepreciationAmount": 4704,
      "ĠTo": 4705,
      "Bucket": 4706,
      "identifier": 4707,
      "VATA": 4708,
      "Covering": 4709,
      "Reconci": 4710,
      "QU": 4711,
      "Ġcar": 4712,
      "ĠQty": 4713,
      "Ġelement": 4714,
      "SQL": 4715,
      "Formletter": 4716,
      "ĠActual": 4717,
      "known": 4718,
      "Remaining": 4719,
      "IIF": 4720,
      "Di": 4721,
      "ca": 4722,
      "RoundOff": 4723,
      "Giro": 4724,
      "QSw": 4725,
      "Closed": 4726,
      "à¸²à¸": 4727,
      "ĠinventItemPrice": 4728,
      "TransactionCurrencyAmount": 4729,
      "bC": 4730,
      "getUserPreferredTimeZone": 4731,
      "OpenTmp": 4732,
      "Pane": 4733,
      "user": 4734,
      "ĠRetail": 4735,
      "BudgetTransactionLine": 4736,
      "trl": 4737,
      "Ġinto": 4738,
      "DocumentDate": 4739,
      "FormControlOverrides": 4740,
      "ship": 4741,
      "HMIM": 4742,
      "QAA": 4743,
      "Rules": 4744,
      "OrNull": 4745,
      "folog": 4746,
      "ModelGroup": 4747,
      "Mach": 4748,
      "Ġavail": 4749,
      "VendorInvoice": 4750,
      "etchMode": 4751,
      "Url": 4752,
      "assetTable": 4753,
      "Ġroute": 4754,
      "Buil": 4755,
      "Ids": 4756,
      "unpack": 4757,
      "ProdTable": 4758,
      "Ġparty": 4759,
      "Ġafter": 4760,
      "ĠSupport": 4761,
      "ConditionHost": 4762,
      "MessageHost": 4763,
      "mount": 4764,
      "AxTableFieldReal": 4765,
      "ERExpressionBooleanHost": 4766,
      "Elements": 4767,
      "ĠAssetTransDate": 4768,
      "Ġinclude": 4769,
      "ered": 4770,
      "BankStatement": 4771,
      "azy": 4772,
      "final": 4773,
      "SourceSystem": 4774,
      "BoxControl": 4775,
      "method": 4776,
      "ĠWhen": 4777,
      "PJ": 4778,
      "Collections": 4779,
      "ListPage": 4780,
      "ERExpressionListFirstOrNull": 4781,
      "Packed": 4782,
      "Ġprimary": 4783,
      "Recipient": 4784,
      "ERExpressionStringHost": 4785,
      "Ġ'$": 4786,
      "ĠCompanyInfo": 4787,
      "LineDisc": 4788,
      "InventoryDataService": 4789,
      "AdministrativeCentre": 4790,
      "BudgetPlanningProcess": 4791,
      "CoveringLetter": 4792,
      "FiscalDocumentLine": 4793,
      "Ġlink": 4794,
      "'\"": 4795,
      "Charges": 4796,
      "++)": 4797,
      "Public": 4798,
      "Sale": 4799,
      "ĠZh": 4800,
      "ĠZhao": 4801,
      "Ġnon": 4802,
      "Printout": 4803,
      "à¹ī": 4804,
      "ĠTableId": 4805,
      "Formula": 4806,
      "Hour": 4807,
      "Accelerated": 4808,
      "CommonBase": 4809,
      "Ø¯": 4810,
      "MethodTarget": 4811,
      "MethodDelegate": 4812,
      "Ġcheque": 4813,
      "exist": 4814,
      "FormNestedTarget": 4815,
      "DimensionHierarchy": 4816,
      "ElementOwner": 4817,
      "ElementKind": 4818,
      "addCustomProperty": 4819,
      "ExtensionTarget": 4820,
      "fieldStr": 4821,
      "ootFormName": 4822,
      "CRootFormName": 4823,
      "CNested": 4824,
      "ĠIsStatic": 4825,
      "ĠIsCommonBase": 4826,
      "ĠIsFormNestedTarget": 4827,
      "sLazy": 4828,
      "ĠCoCRootFormName": 4829,
      "ĠCoCNested": 4830,
      "ĠCocMethodDelegate": 4831,
      "ĠActualExtensionTarget": 4832,
      "ĠSupportsLazy": 4833,
      "ĠIsCommonBaseMethodTarget": 4834,
      "ĠIsFormNestedTargetConcept": 4835,
      "ĠCoCNestedElementKind": 4836,
      "ĠCocMethodDelegateElementOwner": 4837,
      "ĠSupportsLazyInit": 4838,
      "ĠV": 4839,
      "Ġman": 4840,
      "notSent": 4841,
      "LedgerPostingType": 4842,
      "schem": 4843,
      "BIC": 4844,
      "Ġut": 4845,
      "GroupSetup": 4846,
      "cursor": 4847,
      "ERExpressionListIsEmpty": 4848,
      "ĠListEnumerator": 4849,
      "ĠassetCorpTaxActAppended": 4850,
      "Ġ-=": 4851,
      "FBBookingPeriod": 4852,
      "SheetNode": 4853,
      "ReverseCharge": 4854,
      "AAAAh": 4855,
      "ĠformControl": 4856,
      "Ġdiscount": 4857,
      "AAgAAAAh": 4858,
      "AAGAAgAAAAh": 4859,
      "ke": 4860,
      "ĠPdsCW": 4861,
      "Ġreservation": 4862,
      "Roll": 4863,
      "'.'&": 4864,
      "ProcessLogTransOper": 4865,
      "SourceDocumentHeader": 4866,
      "object": 4867,
      "ark": 4868,
      "kanbanJob": 4869,
      "Framework": 4870,
      "ĠValidates": 4871,
      "UP": 4872,
      "ĠCalculates": 4873,
      "à¸µ": 4874,
      "TransId": 4875,
      "Presumed": 4876,
      "ĠMainAccount": 4877,
      "LegalEntityIn": 4878,
      "ReportHeader": 4879,
      "SCM": 4880,
      "istrict": 4881,
      "ssuer": 4882,
      "elements": 4883,
      "URL": 4884,
      "El": 4885,
      "FormView": 4886,
      "ĠGantt": 4887,
      "VATAmount": 4888,
      "Indicates": 4889,
      "Apt": 4890,
      "CarryForward": 4891,
      "Ġmethods": 4892,
      "LogisticsPostalAddress": 4893,
      "Ġrequired": 4894,
      "Ã§": 4895,
      "ĉĉĉĉĉĉĉĉĉĉĉĉĉ": 4896,
      "controlName": 4897,
      "Ob": 4898,
      "]);": 4899,
      "olding": 4900,
      "Aptos": 4901,
      "Remove": 4902,
      "ways": 4903,
      "oicing": 4904,
      "Ø©": 4905,
      "AssetDep": 4906,
      "Desc": 4907,
      "notSentTransactions": 4908,
      "rule": 4909,
      "ForUpdate": 4910,
      "DisplayValue": 4911,
      "YAC": 4912,
      "smm": 4913,
      "ĠNew": 4914,
      "Ġso": 4915,
      "ĠqueryBuildDataSource": 4916,
      "Depreciable": 4917,
      "LP": 4918,
      "Ġreverse": 4919,
      "StdCost": 4920,
      "remove": 4921,
      "LoadTable": 4922,
      "po": 4923,
      "ĠDel": 4924,
      "Msg": 4925,
      "pdsCW": 4926,
      "aily": 4927,
      "Ġlogic": 4928,
      "ĠFirst": 4929,
      "odes": 4930,
      "isLegalEntityIn": 4931,
      "DocumentNumber": 4932,
      "AAAACE": 4933,
      "ToString": 4934,
      "first": 4935,
      "Ġproduction": 4936,
      "AND": 4937,
      "gAI": 4938,
      "job": 4939,
      "ogatory": 4940,
      "BudgetPlanning": 4941,
      "Marking": 4942,
      "Ġremaining": 4943,
      "WrkCtrJob": 4944,
      "rop": 4945,
      "à¸ļ": 4946,
      "Ġfieldnum": 4947,
      "Allowed": 4948,
      "Actions": 4949,
      "Ġspecific": 4950,
      "ActionType": 4951,
      "Ġcalculated": 4952,
      "ĠkanbanJob": 4953,
      "inct": 4954,
      "AAYAC": 4955,
      "ĠSysOperationDisplayOrder": 4956,
      "SortedList": 4957,
      "AAYACAAAACE": 4958,
      "credit": 4959,
      "'\">": 4960,
      "dat": 4961,
      "IdFlag": 4962,
      "Ġdif": 4963,
      "Referenced": 4964,
      "Ġforupdate": 4965,
      "VendAccount": 4966,
      "Synchronize": 4967,
      "200": 4968,
      "odity": 4969,
      "BudgetPlanGenerate": 4970,
      "Ġappro": 4971,
      "Ġest": 4972,
      "dd": 4973,
      "StmtISOReportEntry": 4974,
      "Bene": 4975,
      "Mid": 4976,
      "ORM": 4977,
      "dep": 4978,
      "Fill": 4979,
      "accountingDistribution": 4980,
      "Ġoperation": 4981,
      "ĠCustTable": 4982,
      "ĠTmp": 4983,
      "ĠtmpTable": 4984,
      "Progress": 4985,
      "CountryRegionCodes": 4986,
      "Obl": 4987,
      "Ġextension": 4988,
      "Ġmult": 4989,
      "ĠfieldId": 4990,
      "Ġretryable": 4991,
      "LedgerJournalTable": 4992,
      "link": 4993,
      "ERExpressionGenericCase": 4994,
      "Completed": 4995,
      "Nom": 4996,
      "References": 4997,
      "Ġbutton": 4998,
      "urement": 4999,
      "ĉĉĉĉĉĉĉĉĉĉĉĉ": 5000,
      "isLegalEntityInCountryRegion": 5001,
      "QAB": 5002,
      "DepreciationMethod": 5003,
      "valuation": 5004,
      "Kana": 5005,
      "Ø¨": 5006,
      "PatternVersion": 5007,
      "Duplicate": 5008,
      "quirement": 5009,
      "ĠdelegateTypeId": 5010,
      "ĠdelegateMethodName": 5011,
      "ĠdelegateElementName": 5012,
      "ĠdelegateElementTypeId": 5013,
      "SourceDoc": 5014,
      "Divid": 5015,
      "Pds": 5016,
      "reporting": 5017,
      "Frm": 5018,
      "Language": 5019,
      "Ġwhs": 5020,
      "RefType": 5021,
      "Counting": 5022,
      "ded": 5023,
      "ilt": 5024,
      "Ġro": 5025,
      "Construct": 5026,
      "Ġinterface": 5027,
      "acc": 5028,
      "adjust": 5029,
      "AAAAIQ": 5030,
      "parmReport": 5031,
      "BudgetModelId": 5032,
      "Bug": 5033,
      "gAIAAAAIQ": 5034,
      "QABgAIAAAAIQ": 5035,
      "zL": 5036,
      "cip": 5037,
      "Submission": 5038,
      "ORMAT": 5039,
      "Ãº": 5040,
      "ledgerJournal": 5041,
      "ĠfactureTrans": 5042,
      "ka": 5043,
      "ights": 5044,
      "AutoCreate": 5045,
      "findRecId": 5046,
      "ches": 5047,
      "WorkItem": 5048,
      "copy": 5049,
      "Aw": 5050,
      "izard": 5051,
      "ĠJournal": 5052,
      "ĠInventTransType": 5053,
      "ĠClass": 5054,
      "ĠIntrastat": 5055,
      "ordinary": 5056,
      "Plate": 5057,
      "Actual": 5058,
      "Ġbet": 5059,
      "Unknown": 5060,
      "going": 5061,
      "ĠĠĠĠĠĠĠĠĠĠĠĠĠĠĠĠĠĠĠĠĠĠĠĠĠĠĠĠĠĠĠĠĠĠĠĠĠĠĠĠĠĠĠĠĠĠĠĠĠĠĠĠĠĠĠĠĠĠĠĠĠĠĠĠĠĠĠ": 5062,
      "ERFormatMapping": 5063,
      "uc": 5064,
      "Ðº": 5065,
      "settlement": 5066,
      "InventReserve": 5067,
      "PrePrinted": 5068,
      "isc": 5069,
      "TypeOf": 5070,
      "Ġ''": 5071,
      "Distrib": 5072,
      "off": 5073,
      "Prev": 5074,
      "InventDimParm": 5075,
      "PaymentsFor": 5076,
      "Den": 5077,
      "ĠDebit": 5078,
      "LineNumber": 5079,
      "Ġperform": 5080,
      "BL": 5081,
      "message": 5082,
      "Commission": 5083,
      "Required": 5084,
      "Ġqbr": 5085,
      "BankLC": 5086,
      "DK": 5087,
      "ze": 5088,
      "Commodity": 5089,
      "([#": 5090,
      "Ġindicates": 5091,
      "vd": 5092,
      "ÙĨ": 5093,
      "Incom": 5094,
      "ĠMark": 5095,
      "ma": 5096,
      "PurchId": 5097,
      "ableTo": 5098,
      "Initialized": 5099,
      "Ġallocation": 5100,
      "StampJournalTable": 5101,
      "na": 5102,
      "()).": 5103,
      "ĠitemId": 5104,
      "PaymProposalLine": 5105,
      "ooper": 5106,
      "AxTableFieldEnum": 5107,
      "ĠBook": 5108,
      "part": 5109,
      "CFDI": 5110,
      "NU": 5111,
      "))\"": 5112,
      "ĠvendInvoiceJour": 5113,
      "ĠInsert": 5114,
      "vat": 5115,
      "Orders": 5116,
      "Under": 5117,
      "ĠCash": 5118,
      "Writer": 5119,
      "Ġsummary": 5120,
      "Adjustments": 5121,
      "ĠInventDimParm": 5122,
      "SL": 5123,
      "ries": 5124,
      "Ġdu": 5125,
      "ortization": 5126,
      "filter": 5127,
      "ĠmarkupTrans": 5128,
      "ĠbudgetTransactionHeader": 5129,
      "forma": 5130,
      "SalesQuotationTable": 5131,
      "Attachment": 5132,
      "be": 5133,
      "ĠdirParty": 5134,
      "ositive": 5135,
      "modified": 5136,
      "include": 5137,
      "Ġregistration": 5138,
      "tts": 5139,
      "Sync": 5140,
      "Ġ4": 5141,
      "peek": 5142,
      "Invoicing": 5143,
      "ĠinventJournalTrans": 5144,
      "Clause": 5145,
      "ĠCat": 5146,
      "MarkupTrans": 5147,
      "Royalty": 5148,
      "ĠCooper": 5149,
      "TmpTable": 5150,
      "ĠSysInstrumentationActivity": 5151,
      "Unrealized": 5152,
      "Received": 5153,
      "AccountStatementLines": 5154,
      "ĠLogisticsAddress": 5155,
      "Ġsign": 5156,
      "Ġcomp": 5157,
      "ĠsysTableLookup": 5158,
      "Ø¹": 5159,
      "addFieldNumeric": 5160,
      "Need": 5161,
      "oop": 5162,
      "AutoDeclaration": 5163,
      "Characters": 5164,
      "MenuItemName": 5165,
      "Fax": 5166,
      "QR": 5167,
      "open": 5168,
      "Ġfact": 5169,
      "BookMap": 5170,
      "md": 5171,
      "getSystem": 5172,
      "PackingSlipJour": 5173,
      "Supplier": 5174,
      "au": 5175,
      "StampJournalTrans": 5176,
      "ĠInventCost": 5177,
      "Ġimport": 5178,
      "Ġbefore": 5179,
      "CS": 5180,
      "ĠSh": 5181,
      "AxEnumValue": 5182,
      "Complement": 5183,
      "AxDataEntityViewKey": 5184,
      "dataContract": 5185,
      "Old": 5186,
      "ĠUnitOfMeasure": 5187,
      "002": 5188,
      "Revision": 5189,
      "AxQuerySimpleDataSource": 5190,
      "ĠbudgetPlanHeader": 5191,
      "ĠfiscalDocumentTaxTrans": 5192,
      "Apply": 5193,
      "ĠdimensionAttributeValue": 5194,
      "assetId": 5195,
      "ExtensionControl": 5196,
      "Deleted": 5197,
      "ThirdParty": 5198,
      "Dead": 5199,
      "Ġresource": 5200,
      "Chars": 5201,
      "II": 5202,
      "ecycle": 5203,
      "rough": 5204,
      "custTable": 5205,
      "ĠEFDoc": 5206,
      "AxTableRelationConstraintField": 5207,
      "medi": 5208,
      "ĠER": 5209,
      "Ġmod": 5210,
      "Calculator": 5211,
      "service": 5212,
      "Mappings": 5213,
      "ledgerVoucherGeneralJournalEntry": 5214,
      "Ġcriteria": 5215,
      "Ġag": 5216,
      "imes": 5217,
      "isFieldSet": 5218,
      "fq": 5219,
      "Filtered": 5220,
      "],": 5221,
      "Authorization": 5222,
      "ted": 5223,
      "AxMenu": 5224,
      "Ending": 5225,
      "Ġgenerate": 5226,
      "Procurement": 5227,
      "Vs": 5228,
      "Ġcb": 5229,
      "ĠQueryBuildRange": 5230,
      "Cross": 5231,
      "Issuer": 5232,
      "CustTransOpen": 5233,
      "Jobs": 5234,
      "ExecutionId": 5235,
      "Names": 5236,
      "Ġrest": 5237,
      "ERModelGroupByFieldReference": 5238,
      "Hh": 5239,
      "}\">": 5240,
      "ĠvendTable": 5241,
      "InterestTrans": 5242,
      "Ġflight": 5243,
      "SA": 5244,
      "ause": 5245,
      "AxSecurityDataEntity": 5246,
      "Conformance": 5247,
      "execute": 5248,
      "Det": 5249,
      "ĠassetSumCalc": 5250,
      "Ġexisting": 5251,
      "unit": 5252,
      "Mass": 5253,
      "ĠUpdates": 5254,
      "ceed": 5255,
      "ExchAdjustment": 5256,
      "uced": 5257,
      "Ġthen": 5258,
      "Basis": 5259,
      "TP": 5260,
      "ingPeriod": 5261,
      "itution": 5262,
      "Ġdebit": 5263,
      "enumStr": 5264,
      "fiscalEstablishment": 5265,
      "InterestJour": 5266,
      ")</": 5267,
      "za": 5268,
      "ĠIndicates": 5269,
      "vention": 5270,
      "Buy": 5271,
      "ationCode": 5272,
      "lg": 5273,
      "uo": 5274,
      "ĠcustInvoiceTable": 5275,
      "ĠSysOperationLabel": 5276,
      "Ġpassed": 5277,
      "Reversed": 5278,
      "Benefit": 5279,
      "StateMach": 5280,
      "iangu": 5281,
      "Ġsystem": 5282,
      "position": 5283,
      "ĠExtensionNestedTarget": 5284,
      "ĠExtensionClassName": 5285,
      "ĠExtensionTargetName": 5286,
      "ĠExtensionTargetTypeId": 5287,
      "exchRate": 5288,
      "ĠExtensionNestedTargetName": 5289,
      "GTD": 5290,
      "ĠFlight": 5291,
      "Ġretrie": 5292,
      "Consolid": 5293,
      "BER": 5294,
      "Ġlean": 5295,
      "licked": 5296,
      "convert": 5297,
      "IntercompanyTransfer": 5298,
      "ĠrecId": 5299,
      "AccountingCurrency": 5300,
      "StatusIssue": 5301,
      "FactureJour": 5302,
      "SP": 5303,
      "Conv": 5304,
      "DefaultValue": 5305,
      "FiscalYear": 5306,
      "TaxExempt": 5307,
      "Sharing": 5308,
      "Lifecycle": 5309,
      "menuItem": 5310,
      "ĠDEVInteg": 5311,
      "ĠCustom": 5312,
      "TaxItemGroup": 5313,
      "Disp": 5314,
      "AdmTrans": 5315,
      "Ġchangecompany": 5316,
      "rLine": 5317,
      "ĠledgerVoucherTransObject": 5318,
      "Ġapp": 5319,
      "ione": 5320,
      "ProfileId": 5321,
      "TA": 5322,
      "1365": 5323,
      "ĠFind": 5324,
      "CurrencyRevalTmp": 5325,
      ",_": 5326,
      "CG": 5327,
      "Fund": 5328,
      "ERExpressionRealAbs": 5329,
      "wn": 5330,
      "ĠassetTableMethod": 5331,
      "Op": 5332,
      "ĠcustBillOfExchange": 5333,
      "ĠformName": 5334,
      "ĠBudgetTransaction": 5335,
      "ĠLedgerJournalACType": 5336,
      "Ġreceipt": 5337,
      "down": 5338,
      "ĠamountCur": 5339,
      "Character": 5340,
      "ĠAssetDepreciationMethod": 5341,
      "Lnht": 5342,
      "ĠfiscalCalendarPeriod": 5343,
      "extendedType": 5344,
      ",'": 5345,
      "EffectiveDate": 5346,
      "Ġsettle": 5347,
      "posure": 5348,
      "enishment": 5349,
      "Token": 5350,
      "ĠbankDocumentTable": 5351,
      "max": 5352,
      "Modules": 5353,
      "NonConformance": 5354,
      "ĠledgerVoucherObject": 5355,
      "CBATaxExciseDuty": 5356,
      "dLedgerEntry": 5357,
      "oney": 5358,
      "postalAddress": 5359,
      "FieldExpression": 5360,
      "ReportingCurrencyAmount": 5361,
      "Ġalready": 5362,
      "journalTable": 5363,
      "fill": 5364,
      "child": 5365,
      "Ġhel": 5366,
      "InventoryTransaction": 5367,
      "generate": 5368,
      "Rem": 5369,
      "inue": 5370,
      "Store": 5371,
      "inctProduct": 5372,
      "ĠAS": 5373,
      "Specification": 5374,
      "ween": 5375,
      "TabPage": 5376,
      "à¸´": 5377,
      "Ġrevers": 5378,
      "gantt": 5379,
      "Reset": 5380,
      "Âł": 5381,
      "InData": 5382,
      "InventJournalTrans": 5383,
      "idate": 5384,
      "Ġenable": 5385,
      "AAC": 5386,
      "AreaId": 5387,
      "ĠfiscalDocumentLine": 5388,
      "ĠK": 5389,
      "DataElementName": 5390,
      "Ġsc": 5391,
      "Ġinst": 5392,
      "Pricing": 5393,
      "FreeTextInvoiceHeaderFooterDS": 5394,
      "Stock": 5395,
      "TrackingDim": 5396,
      "].[": 5397,
      "corre": 5398,
      "Send": 5399,
      "CreditLimit": 5400,
      "Multiplier": 5401,
      "DocumentStatus": 5402,
      "CostGroup": 5403,
      "PaymId": 5404,
      "Ġprogress": 5405,
      "ĠDirParty": 5406,
      "ĠGlobal": 5407,
      "Ġfunction": 5408,
      "Compl": 5409,
      "ĠStatusIssue": 5410,
      "PdsCWQty": 5411,
      "Ġtablenum": 5412,
      "Ġprofile": 5413,
      "SourceSystemId": 5414,
      "entity": 5415,
      "fields": 5416,
      "NetBookValue": 5417,
      "Ġforecast": 5418,
      "Server": 5419,
      "reverse": 5420,
      "NumChars": 5421,
      "assetDep": 5422,
      "Ġenumeration": 5423,
      "Recurrence": 5424,
      "Rdp": 5425,
      "Digit": 5426,
      "countryRegion": 5427,
      "ProdId": 5428,
      "ĠdimAttr": 5429,
      "DebtorAccount": 5430,
      "forward": 5431,
      "RepYear": 5432,
      "),&#": 5433,
      "Tasks": 5434,
      "IO": 5435,
      "rompt": 5436,
      "Sm": 5437,
      "parmArgs": 5438,
      "NOT": 5439,
      "DepreciableAssets": 5440,
      "Cand": 5441,
      "ToDepreciate": 5442,
      "FreeTextInvoiceDS": 5443,
      "Fix": 5444,
      "reshold": 5445,
      "isFeatureEnabled": 5446,
      "ĠSysOperationDisplayOrderAttribute": 5447,
      "Ġissue": 5448,
      "funcname": 5449,
      "Ġretail": 5450,
      "ExistsJoin": 5451,
      "SalesQuotationLine": 5452,
      "should": 5453,
      "AxQuerySimpleDataSourceField": 5454,
      "Assignment": 5455,
      "Enterpr": 5456,
      "lied": 5457,
      "TaxValue": 5458,
      "Validator": 5459,
      "Corrected": 5460,
      "()),": 5461,
      "VendorProduct": 5462,
      "workflow": 5463,
      "DisableAutoCreate": 5464,
      "InDataRegion": 5465,
      "DisableAutoCreateInDataRegion": 5466,
      "Ġcategory": 5467,
      "Committed": 5468,
      "populate": 5469,
      "DataMethod": 5470,
      "ĠjournalTable": 5471,
      "Light": 5472,
      "Ñı": 5473,
      "ĠReport": 5474,
      "Exposure": 5475,
      "SourceIntegrator": 5476,
      "FreeInvoice": 5477,
      "ead": 5478,
      "DynamicFields": 5479,
      "anies": 5480,
      "izer": 5481,
      "Acct": 5482,
      "Revaluation": 5483,
      "Ġtree": 5484,
      "Chart": 5485,
      "Perform": 5486,
      "der": 5487,
      "TableAdapter": 5488,
      "xSession": 5489,
      "Ġexport": 5490,
      "Accumulated": 5491,
      "RouteJob": 5492,
      "Single": 5493,
      "di": 5494,
      "Exclude": 5495,
      "OperationsTax": 5496,
      "Requisition": 5497,
      "DataGeneration": 5498,
      "TableGroup": 5499,
      "Ġdefin": 5500,
      "spon": 5501,
      "BankAccountTable": 5502,
      "Ġitems": 5503,
      "DirectDebit": 5504,
      "Dem": 5505,
      "cing": 5506,
      "spec": 5507,
      "ueG": 5508,
      "Intermedi": 5509,
      "BusinessEvent": 5510,
      "Ġbusiness": 5511,
      "Ġexecution": 5512,
      "ĠInteger": 5513,
      "Audit": 5514,
      "eu": 5515,
      "ker": 5516,
      "ValueReport": 5517,
      "Colle": 5518,
      "OK": 5519,
      "ledgerJournalTable": 5520,
      "Unary": 5521,
      "Products": 5522,
      "ERExpressionNumericUnary": 5523,
      "CreatedDateTime": 5524,
      "ERExpressionNumericUnarySubtract": 5525,
      "Documentation": 5526,
      "ĠModule": 5527,
      "ĠexchRate": 5528,
      "Ġlimit": 5529,
      "KanbanRule": 5530,
      "untime": 5531,
      "SalesUnit": 5532,
      "Statist": 5533,
      "Bo": 5534,
      "mcr": 5535,
      "Ġavailable": 5536,
      "PurchRFQCase": 5537,
      "DataGenerationTmp": 5538,
      "'t": 5539,
      "osing": 5540,
      "AssetTransType": 5541,
      "ĠcompanyInfo": 5542,
      "Conver": 5543,
      "StateProvider": 5544,
      "Creator": 5545,
      "Ġqr": 5546,
      "ĠvendInvoiceTrans": 5547,
      "ProductionFlow": 5548,
      "PaymentsForCoveringLetter": 5549,
      "icms": 5550,
      "OnDelete": 5551,
      "Certificate": 5552,
      "literalStr": 5553,
      "Ġskip": 5554,
      "Changes": 5555,
      "Ġrate": 5556,
      "WF": 5557,
      "TransTxt": 5558,
      "custInvoiceTrans": 5559,
      "ĠprodCalcTrans": 5560,
      "Invalid": 5561,
      "Ġmonth": 5562,
      "ĠSysDaFieldExpression": 5563,
      "amb": 5564,
      "Alternate": 5565,
      "Services": 5566,
      "GroupByField": 5567,
      "prev": 5568,
      "InventCost": 5569,
      "Sepa": 5570,
      "Submit": 5571,
      "Capacity": 5572,
      "reset": 5573,
      "TmpWrkCtrJob": 5574,
      "place": 5575,
      "Ġcalendar": 5576,
      "Params": 5577,
      "CU": 5578,
      "FromDialog": 5579,
      "ful": 5580,
      "005": 5581,
      "ĠclassStr": 5582,
      "AppSuite": 5583,
      "ĠprocessLogTrans": 5584,
      "Blocked": 5585,
      "primaryLedger": 5586,
      "RB": 5587,
      "ĠXML": 5588,
      "itlement": 5589,
      "InventList": 5590,
      "Obligation": 5591,
      "aj": 5592,
      "ĠpurchTable": 5593,
      "PB": 5594,
      "ĠFalse": 5595,
      "ower": 5596,
      "Dir": 5597,
      "antities": 5598,
      "Depend": 5599,
      "Candidate": 5600,
      "DimensionFocus": 5601,
      "ĠBankReconciliationMatching": 5602,
      "AgingBucket": 5603,
      "aW": 5604,
      "CFOP": 5605,
      "fact": 5606,
      "ĠtableId": 5607,
      "Same": 5608,
      "Developer": 5609,
      "Å¡": 5610,
      "ured": 5611,
      "ReportingDimension": 5612,
      "bankAccount": 5613,
      "InventTransferLine": 5614,
      "ks": 5615,
      "ItemView": 5616,
      "currentRetryCount": 5617,
      "allowEdit": 5618,
      "=&": 5619,
      "FieldList": 5620,
      "FilterExpression": 5621,
      "BankAccountId": 5622,
      "ĠexchangeRate": 5623,
      "EndDisc": 5624,
      "Descr": 5625,
      "Calculate": 5626,
      "vY": 5627,
      "igned": 5628,
      "formDataSource": 5629,
      "Messages": 5630,
      "Sold": 5631,
      "ĠEInvoice": 5632,
      "ĠprevDepAmount": 5633,
      "time": 5634,
      "INVEN": 5635,
      "createElement": 5636,
      "Execute": 5637,
      "RecID": 5638,
      "ControlReport": 5639,
      "ĠAssetDocument": 5640,
      "ChangeTracking": 5641,
      "ĠNumberSeq": 5642,
      "SerialId": 5643,
      "sourceDocument": 5644,
      "ĠsourceDocument": 5645,
      "HierarchyLevel": 5646,
      "Ùģ": 5647,
      "DGE": 5648,
      "Extra": 5649,
      "BudgetModel": 5650,
      "inventJournalTrans": 5651,
      "ĠAdds": 5652,
      "ĠChecks": 5653,
      "request": 5654,
      "Ġpo": 5655,
      "ĠShi": 5656,
      "000": 5657,
      "OpeningBalance": 5658,
      "Rollup": 5659,
      "DeveloperDocumentation": 5660,
      "selectForUpdate": 5661,
      "GEE": 5662,
      "Stop": 5663,
      "ials": 5664,
      "Ġintrastat": 5665,
      "InventBatchId": 5666,
      "igger": 5667,
      "DerivedDataSources": 5668,
      "findOrCreateRange": 5669,
      "Yr": 5670,
      "Ġdat": 5671,
      "antom": 5672,
      "ĠbudgetReservation": 5673,
      "ĠCount": 5674,
      "ĠEnums": 5675,
      "remain": 5676,
      "KK": 5677,
      "Ġred": 5678,
      "Ġclient": 5679,
      "ItemName": 5680,
      "Approve": 5681,
      "Ã³n": 5682,
      "appendChild": 5683,
      "NumberSeq": 5684,
      "bn": 5685,
      "Ġlayout": 5686,
      "PickingList": 5687,
      "},": 5688,
      "Spacing": 5689,
      "ISOCode": 5690,
      "Ġpurchase": 5691,
      "balance": 5692,
      "atio": 5693,
      "ExtensionOf": 5694,
      "Wizard": 5695,
      "ĠĠĠĠĠĠĠĠĠĠĠĠĠĠĠĠĠĠĠĠĠĠĠĠĠĠĠĠĠĠĠĠĠĠĠĠ": 5696,
      "Ġsupport": 5697,
      "FinTagDefaulting": 5698,
      ".%": 5699,
      "posed": 5700,
      "journalTrans": 5701,
      "Edt": 5702,
      "ĠĠĠĠĠĠĠĠĠĠĠĠĠĠĠĠĠĠĠĠĠĠĠĠĠĠĠĠĠĠĠĠĠĠ": 5703,
      "Restri": 5704,
      "Receivable": 5705,
      "Intermediary": 5706,
      "QB": 5707,
      "Named": 5708,
      "Ġworker": 5709,
      "Promiss": 5710,
      "Ġdict": 5711,
      "akt": 5712,
      "StringSize": 5713,
      "Extensions": 5714,
      "ViewModel": 5715,
      "Promissory": 5716,
      "min": 5717,
      "Ø³": 5718,
      "Journals": 5719,
      "VendInvoiceTrans": 5720,
      "ibility": 5721,
      "Numbers": 5722,
      "Ġcorrespon": 5723,
      "Bal": 5724,
      "HcmPosition": 5725,
      "Responsible": 5726,
      "ĠSysOperationLabelAttribute": 5727,
      "entLetter": 5728,
      "Outgoing": 5729,
      "Ġacquisition": 5730,
      "ĠRunBase": 5731,
      "Withholding": 5732,
      "onetaryAmount": 5733,
      "agn": 5734,
      "Cancelled": 5735,
      "parameters": 5736,
      "UT": 5737,
      "Triangu": 5738,
      "Ġfr": 5739,
      "urs": 5740,
      "ĠInventSum": 5741,
      "2016": 5742,
      "PrimaryLedger": 5743,
      "Enterprise": 5744,
      "Hash": 5745,
      "ĠbudgetAnalysis": 5746,
      "ĠCOFINS": 5747,
      "PreTaxDedProcess": 5748,
      "ampa": 5749,
      "Monthly": 5750,
      "identifierStr": 5751,
      "=\"&": 5752,
      "ĠĠĠĠĠĠĠĠĠĠĠĠĠĠĠĠĠĠĠĠĠĠĠĠĠĠĠĠĠĠĠĠĠĠĠĠĠĠĠĠĠĠĠĠĠĠĠĠĠĠĠĠĠĠĠĠĠĠĠĠĠĠĠĠĠ": 5753,
      "Ġday": 5754,
      "Less": 5755,
      "Ct": 5756,
      "LQ": 5757,
      "FeatureExposure": 5758,
      "ConfigId": 5759,
      "DistinctProduct": 5760,
      "ampaign": 5761,
      "ĠDataAreaId": 5762,
      "IntermediaryAgent": 5763,
      "ĠSysOperationGroup": 5764,
      "CollectionLetterJour": 5765,
      "Success": 5766,
      "ĠBudgetPlanning": 5767,
      "PaymModeTable": 5768,
      "ern": 5769,
      "unch": 5770,
      "Should": 5771,
      "legal": 5772,
      "event": 5773,
      "ura": 5774,
      "Ġclear": 5775,
      "Ġedit": 5776,
      "ERModelGroupByAggregation": 5777,
      "imate": 5778,
      "Ġfollow": 5779,
      "TransactionCurrency": 5780,
      "NegInst": 5781,
      "bedded": 5782,
      "onto": 5783,
      "ĠcurrencyCode": 5784,
      "Confirmation": 5785,
      "press": 5786,
      "parmQuery": 5787,
      "ĠInventMovement": 5788,
      "à¸Ļà¸": 5789,
      "PAF": 5790,
      "sk": 5791,
      "ump": 5792,
      "budgetTransaction": 5793,
      "Aggregations": 5794,
      "DocuRef": 5795,
      "Barcode": 5796,
      ".(": 5797,
      "ActionPane": 5798,
      "settle": 5799,
      "Soft": 5800,
      "CustInvoiceTable": 5801,
      "AccountSum": 5802,
      "getSystemDate": 5803,
      "uous": 5804,
      "Printer": 5805,
      "Ġ[#": 5806,
      "Ġrelieving": 5807,
      "ĠRecordInsertList": 5808,
      "Insights": 5809,
      "Ñĥ": 5810,
      "amountCur": 5811,
      "Ġeach": 5812,
      "à¹Ģà¸": 5813,
      "DataSetName": 5814,
      "BudgetTransactionHeader": 5815,
      "SalesVolume": 5816,
      "cellation": 5817,
      "LicensePlate": 5818,
      "Buyer": 5819,
      "SourceType": 5820,
      "Ġcross": 5821,
      "EInvoiceParameters": 5822,
      "QualityOrderTable": 5823,
      "Ġpending": 5824,
      "FBLA": 5825,
      "StructuredRemittances": 5826,
      "ĠassetGroup": 5827,
      "Applic": 5828,
      "BO": 5829,
      "Vi": 5830,
      "reser": 5831,
      "Ġinterest": 5832,
      "GroupedFields": 5833,
      "BPUpgradeMetadata": 5834,
      "ItemType": 5835,
      "DateRange": 5836,
      "RelievingDetail": 5837,
      "kt": 5838,
      "Äį": 5839,
      "AAD": 5840,
      "TableTypeId": 5841,
      "PostingLog": 5842,
      "allment": 5843,
      "ait": 5844,
      "CheckPost": 5845,
      "Deadlock": 5846,
      "CON": 5847,
      "Hold": 5848,
      "ĠFieldName": 5849,
      "Runbase": 5850,
      "ĠbankReconciliation": 5851,
      "ERModelGroupByFunction": 5852,
      "DeltaDim": 5853,
      "Gen": 5854,
      "ĠÃ": 5855,
      "Ġfree": 5856,
      "Virtual": 5857,
      "ynchron": 5858,
      "Threshold": 5859,
      "OffsetLedgerDimension": 5860,
      "Ġav": 5861,
      "Commer": 5862,
      "cluding": 5863,
      "GenerateContract": 5864,
      "late": 5865,
      "ĠecoResProduct": 5866,
      "Ġcollection": 5867,
      "BalanceCalculation": 5868,
      "EUSalesList": 5869,
      "ĠnumberSeq": 5870,
      "startDate": 5871,
      "Veh": 5872,
      "ulation": 5873,
      "Call": 5874,
      "UnitPrice": 5875,
      "WHSWork": 5876,
      "ĠstartDate": 5877,
      "ĠcustSettlement": 5878,
      "Refresh": 5879,
      "ERExpressionRealConstant": 5880,
      "PostingLayer": 5881,
      "ĠdataSource": 5882,
      "Ġchanged": 5883,
      "Ġunpack": 5884,
      "CodaAccountStatementLines": 5885,
      "AdjValue": 5886,
      "bill": 5887,
      "Ġem": 5888,
      "ĠInventUpd": 5889,
      "SpecTrans": 5890,
      "(@": 5891,
      "ĠHelp": 5892,
      "BudgetLine": 5893,
      "EntityType": 5894,
      "ĠfiscalEstablishment": 5895,
      "RouteTrans": 5896,
      "save": 5897,
      "ĠCB": 5898,
      "ITION": 5899,
      "ĠlogisticsAddress": 5900,
      "Lock": 5901,
      "EntityName": 5902,
      "ReqLine": 5903,
      "ElectronicAddress": 5904,
      "Daily": 5905,
      "NUM": 5906,
      "ij": 5907,
      "acro": 5908,
      "CT": 5909,
      "ĠinventSettlement": 5910,
      "ĠParameters": 5911,
      "Ġne": 5912,
      "BankAccountTrans": 5913,
      "VerticalSpacing": 5914,
      "ĠCostAmount": 5915,
      "ĠnewFrom": 5916,
      "ĠnumberOf": 5917,
      "ApplicationPlatform": 5918,
      "Nor": 5919,
      "ACRO": 5920,
      "Nature": 5921,
      "ised": 5922,
      "fice": 5923,
      "Ġconfiguration": 5924,
      "PriceUnit": 5925,
      "Activated": 5926,
      ")&#": 5927,
      "gument": 5928,
      "FiscalCalendarYear": 5929,
      "LiableTo": 5930,
      "ambig": 5931,
      "LiableToVAT": 5932,
      "DTO": 5933,
      "HL": 5934,
      "ny": 5935,
      "ĠMonetaryAmount": 5936,
      "Feed": 5937,
      "Coverage": 5938,
      "ĠFormat": 5939,
      "EnumName": 5940,
      "AgingTmp": 5941,
      "ernal": 5942,
      "AmountIn": 5943,
      "configuration": 5944,
      "me": 5945,
      "Ġfunc": 5946,
      "ĠdictField": 5947,
      "003": 5948,
      "FactureId": 5949,
      "HJ": 5950,
      "column": 5951,
      "NumberFormat": 5952,
      "Instruction": 5953,
      "FORMAT": 5954,
      "wM": 5955,
      "Invoiced": 5956,
      "Coll": 5957,
      "ReferenceCategory": 5958,
      "OpenTrans": 5959,
      "Ã¦": 5960,
      "Ġexp": 5961,
      "Ġ--": 5962,
      "CurrentOperationsTax": 5963,
      "ReportItems": 5964,
      "StatusReceipt": 5965,
      "Estimated": 5966,
      "MessageType": 5967,
      "factureJour": 5968,
      "ĠĠĠĠĠĠĠĠĠĠĠĠĠĠĠĠĊ": 5969,
      "FormStringControl": 5970,
      "ĠDelimiter": 5971,
      "Ġship": 5972,
      "Ġentries": 5973,
      "Ġcorrection": 5974,
      "DBB": 5975,
      "ĠAccountingDistribution": 5976,
      "isRetryable": 5977,
      "VendInvoiceJour": 5978,
      "642": 5979,
      "ince": 5980,
      "advance": 5981,
      "CDR": 5982,
      "ĠqueryBuildRange": 5983,
      "Terms": 5984,
      "lar": 5985,
      "ERExpressionStringToString": 5986,
      "PlanActivity": 5987,
      "PendingReview": 5988,
      "len": 5989,
      "Ġrow": 5990,
      "reference": 5991,
      "Ġperiods": 5992,
      "ĠinterCompany": 5993,
      "LedgerVoucherObject": 5994,
      "ĠStatusReceipt": 5995,
      "display": 5996,
      "ocuRef": 5997,
      "Ġsplit": 5998,
      "Place": 5999,
      "Backend": 6000,
      "FundingSource": 6001,
      "Ht": 6002,
      "ĠinventTransferLine": 6003,
      "Lnhtb": 6004,
      "IV": 6005,
      "CreditorAccount": 6006,
      "ĠLedgerDimensionFacade": 6007,
      "Tracing": 6008,
      "AxView": 6009,
      "OfPeriod": 6010,
      "ĠinventCost": 6011,
      "ĠAssetProposal": 6012,
      "')]": 6013,
      "scheme": 6014,
      "cg": 6015,
      "acquisition": 6016,
      "Ġactual": 6017,
      "Any": 6018,
      "ĠisRetryable": 6019,
      "verty": 6020,
      "Poverty": 6021,
      "HeightMode": 6022,
      "Positive": 6023,
      "cash": 6024,
      "Ġtables": 6025,
      "UserVisibility": 6026,
      "ĠinventoryTransaction": 6027,
      "Lot": 6028,
      "REP": 6029,
      "Customs": 6030,
      "ĠsubledgerVoucherGeneralJournalEntry": 6031,
      "Ip": 6032,
      "Pos": 6033,
      "FormatMapping": 6034,
      "DepreciationDate": 6035,
      "SequenceNumber": 6036,
      "ĠBatchRetryable": 6037,
      "Fw": 6038,
      "af": 6039,
      "sumption": 6040,
      "VATAmounts": 6041,
      "Facility": 6042,
      "Distributor": 6043,
      "PromissoryNote": 6044,
      "cache": 6045,
      "Ġcountry": 6046,
      "Breakdown": 6047,
      "HA": 6048,
      "DocumentTmp": 6049,
      "ĠcustVendTransOpen": 6050,
      "extendedTypeStr": 6051,
      "ChequePrintout": 6052,
      "Ġweight": 6053,
      "Feedback": 6054,
      "enable": 6055,
      "DataMemberAttribute": 6056,
      "Schemes": 6057,
      "ĠFR": 6058,
      "ĠDimensionAttributeValue": 6059,
      "Ġcolumn": 6060,
      "Prov": 6061,
      "Fias": 6062,
      "ĠtaxWithhold": 6063,
      "SysCountryRegionCode": 6064,
      "Corrective": 6065,
      "Ġidentifier": 6066,
      "PovertyFund": 6067,
      "Misc": 6068,
      "US": 6069,
      "åı": 6070,
      "ĠSourceDocument": 6071,
      "Ġbel": 6072,
      "plan": 6073,
      "TMS": 6074,
      "ĠFor": 6075,
      "ĠĠĠĠĠĠĠĠĠĠĠĠĠĠĠĠĠĠĠĠĠĠĠĠĠĠĠĠĠĠĠĠĠĠĠĠĠĠ": 6076,
      "ToBe": 6077,
      "UserContext": 6078,
      "Ġmarkup": 6079,
      "Reconciled": 6080,
      "ĠTaxType": 6081,
      "selected": 6082,
      "paid": 6083,
      "BICFI": 6084,
      "Entities": 6085,
      "Building": 6086,
      "sU": 6087,
      "apply": 6088,
      "Ġcall": 6089,
      "SpedRecord": 6090,
      "CBASales": 6091,
      "Ġcontrols": 6092,
      "LogisticsLocation": 6093,
      "NL": 6094,
      "PRO": 6095,
      "budgetControl": 6096,
      "OwnerId": 6097,
      "Ġcorrect": 6098,
      "Ġbec": 6099,
      "CBARebate": 6100,
      "ĠAssetSumCalc": 6101,
      "fiscalCalendar": 6102,
      "iteralstr": 6103,
      "Ġpri": 6104,
      "ProcessingStatus": 6105,
      "AlcoholDeclaration": 6106,
      "FBBookingPeriodFiscalDocument": 6107,
      "bo": 6108,
      "PerCompany": 6109,
      "CustVendTransOpen": 6110,
      "Ġban": 6111,
      "Alignment": 6112,
      "AgingPeriod": 6113,
      "Ġ@&": 6114,
      "ĠXml": 6115,
      "Custome": 6116,
      "Te": 6117,
      "gu": 6118,
      "Ġblock": 6119,
      "PurchBookData": 6120,
      "----": 6121,
      "emo": 6122,
      "CustPrepayment": 6123,
      "Ġdest": 6124,
      "Ġworksheet": 6125,
      "WIP": 6126,
      "etime": 6127,
      "DateTrans": 6128,
      "ĠliteralStr": 6129,
      "Auth": 6130,
      "Specified": 6131,
      "ĠWang": 6132,
      "incip": 6133,
      "ector": 6134,
      "Built": 6135,
      "ReplyLine": 6136,
      "literalstr": 6137,
      "lex": 6138,
      "ERSolution": 6139,
      "ĠLi": 6140,
      "ReportContext": 6141,
      "ĠBusinessDocument": 6142,
      "Divided": 6143,
      "ux": 6144,
      "ĠAccountNum": 6145,
      "IsDen": 6146,
      "Been": 6147,
      "Ġpercent": 6148,
      "tingParameters": 6149,
      "ĠbudgetSourceTrackingDetail": 6150,
      "((": 6151,
      "Vat": 6152,
      "Ġbill": 6153,
      "Assess": 6154,
      "Ġmand": 6155,
      "CBACustomer": 6156,
      "à¸¡": 6157,
      "OutPaym": 6158,
      "RST": 6159,
      "ĠInvoice": 6160,
      "transfer": 6161,
      "irection": 6162,
      "Referred": 6163,
      "Requirement": 6164,
      "Ġthan": 6165,
      "QuarantineOrder": 6166,
      "Converter": 6167,
      "TM": 6168,
      "etes": 6169,
      "ĠLedgerDimensionDefaultAccount": 6170,
      "Ġcontaining": 6171,
      "Clearing": 6172,
      "IsDenmark": 6173,
      "Ġ5": 6174,
      "Negative": 6175,
      "FormHandler": 6176,
      "Ġsequence": 6177,
      "Ġ,[": 6178,
      "Ġstre": 6179,
      "Ġcontinue": 6180,
      "EFDoc": 6181,
      "ix": 6182,
      "Office": 6183,
      "NetAmount": 6184,
      "AxDataEntityViewKeyField": 6185,
      "Statistical": 6186,
      "inations": 6187,
      "Ġduring": 6188,
      "Which": 6189,
      "ShowTotals": 6190,
      "ĠInserts": 6191,
      "ĠFROM": 6192,
      "sl": 6193,
      "Inner": 6194,
      "Ġselection": 6195,
      "ĠprodTable": 6196,
      "UsedTo": 6197,
      "Ð¼": 6198,
      "FiscalDoc": 6199,
      "RealControl": 6200,
      "DialogField": 6201,
      "CAT": 6202,
      "Sk": 6203,
      "ied": 6204,
      "Ġvan": 6205,
      "PostInvoice": 6206,
      "BudgetControlConfiguration": 6207,
      "SourceBusiness": 6208,
      "ERExpressionNumberFormat": 6209,
      "AxFormExtensionControl": 6210,
      "OffsetAccount": 6211,
      "ĠSubscriberNested": 6212,
      "SourceBusinessEntity": 6213,
      "ĠSubscriberNestedElement": 6214,
      "Catch": 6215,
      "Ġold": 6216,
      "ĠInventInventoryDataService": 6217,
      "Ġfixed": 6218,
      "SizeId": 6219,
      "ValidTo": 6220,
      "DiscAmount": 6221,
      "ColorId": 6222,
      "LACE": 6223,
      "su": 6224,
      "portion": 6225,
      "BudgetCycle": 6226,
      "Setting": 6227,
      "ĠdimensionAttribute": 6228,
      "ĠbomCalcTrans": 6229,
      "ĠTypeDescriptor": 6230,
      "Existing": 6231,
      "StmtISOAccountStatement": 6232,
      "fieldName": 6233,
      "sa": 6234,
      "Ġrec": 6235,
      "Ġnet": 6236,
      "White": 6237,
      "Derogatory": 6238,
      "Ġdepr": 6239,
      "VM": 6240,
      "ĠConstruct": 6241,
      "Ġinteg": 6242,
      "DeleteActions": 6243,
      "AxAggregateDataEntity": 6244,
      "Bul": 6245,
      "ĠeInvoice": 6246,
      "BOMRoute": 6247,
      "refresh": 6248,
      "Multiple": 6249,
      "ĠToby": 6250,
      "Vehicle": 6251,
      "TableRecId": 6252,
      "Ġletter": 6253,
      "ĠBudgetReservation": 6254,
      "LE": 6255,
      "ĠKanbanJob": 6256,
      "Entitlement": 6257,
      "AccountingSourceExplorer": 6258,
      "Ġanal": 6259,
      "ĠfuncName": 6260,
      "TaxAmountMST": 6261,
      "IntentLetter": 6262,
      "Replenishment": 6263,
      "Package": 6264,
      "ev": 6265,
      "Ġdraft": 6266,
      "ReportFormat": 6267,
      "TransactionDate": 6268,
      "PaymSched": 6269,
      "ĠjournalTrans": 6270,
      "ĠvendInvoiceInfoLine": 6271,
      "Initialize": 6272,
      "TablesTmp": 6273,
      "Ġdue": 6274,
      "ĠXu": 6275,
      "DATE": 6276,
      "aut": 6277,
      "Ġconpeek": 6278,
      "generalJournal": 6279,
      "District": 6280,
      "Qv": 6281,
      "ĠPayment": 6282,
      "ERExpressionValidationConditions": 6283,
      "Ġdatasource": 6284,
      "ĠdefaultDimension": 6285,
      "ĠIna": 6286,
      "CleanUp": 6287,
      "ĠPdsCWInventQty": 6288,
      "BT": 6289,
      "Actuals": 6290,
      "addFieldString": 6291,
      "********": 6292,
      "Hours": 6293,
      "Nv": 6294,
      "ĠPerform": 6295,
      "ĠAssetId": 6296,
      "Ġsuccess": 6297,
      "Ġjobs": 6298,
      "ync": 6299,
      "ĠCode": 6300,
      "alloc": 6301,
      "Dates": 6302,
      "WrkCtrId": 6303,
      "bankAccountTrans": 6304,
      "ĠendDate": 6305,
      "ĠAppend": 6306,
      "HhsL": 6307,
      "Äħ": 6308,
      "006": 6309,
      "PeriodEnd": 6310,
      "inventMovement": 6311,
      "WorkTrans": 6312,
      "ERExpressionRealAdapter": 6313,
      "ĠpurchRFQ": 6314,
      "Difference": 6315,
      "BreakDown": 6316,
      "Ġfollowing": 6317,
      "ĠSrsReport": 6318,
      "Demand": 6319,
      "ServiceLife": 6320,
      "ERModelGroupByAggregations": 6321,
      "CompanyAddress": 6322,
      "Embedded": 6323,
      "Splited": 6324,
      "cedure": 6325,
      "Ġcarry": 6326,
      "ATP": 6327,
      "Ġsom": 6328,
      "Recal": 6329,
      "ĠLedgerDimensionAccount": 6330,
      "NULL": 6331,
      "ĠĠĠĠĠĠĠĠĠĠĠĠĠĠĠĠĠĠĠĠĠĠĠĠĠĠĠĠĠĠĠĠĠĠĠĠĠĠĠĠĠĠĠĠĠĠĠĠĠĠĠĠĠĠĠĠĠĠĠĠĠĠ": 6332,
      "nummer": 6333,
      "Variable": 6334,
      "ResourceGroup": 6335,
      "relations": 6336,
      "AxMenuElement": 6337,
      "parmInvent": 6338,
      "rt": 6339,
      "Ġ!_": 6340,
      "ached": 6341,
      "ĠINT": 6342,
      "Ġpopulate": 6343,
      "Ġinstrumentation": 6344,
      "Ġ(%": 6345,
      "committed": 6346,
      "AndBudgetBalances": 6347,
      "ĠTh": 6348,
      "prodTable": 6349,
      "fiscalDocumentLine": 6350,
      "inventTransOriginId": 6351,
      "Incoming": 6352,
      "ĠDimensionAttribute": 6353,
      "ToMap": 6354,
      "Ġread": 6355,
      "WithValue": 6356,
      "Implement": 6357,
      "DebtorAgent": 6358,
      "addFieldValue": 6359,
      "AxViewField": 6360,
      "Ġbecause": 6361,
      "bsol": 6362,
      "GroupMember": 6363,
      "PriceDiscAdmTrans": 6364,
      "Ġprior": 6365,
      "Brow": 6366,
      "Campaign": 6367,
      "StyleId": 6368,
      "ferent": 6369,
      "ÐµÐ½": 6370,
      "bookId": 6371,
      "Cov": 6372,
      "Drop": 6373,
      "aw": 6374,
      "yp": 6375,
      "SourceTableId": 6376,
      "AutoReport": 6377,
      "purchTable": 6378,
      "==": 6379,
      "custInvoiceTable": 6380,
      "EPCG": 6381,
      "TableField": 6382,
      "unic": 6383,
      "CodeId": 6384,
      "ĠcustInvoiceLine": 6385,
      "currentRecord": 6386,
      "JourSetup": 6387,
      "PostingDate": 6388,
      "Uri": 6389,
      "]))": 6390,
      "Ġctrl": 6391,
      "TaxFree": 6392,
      "Ġprocessed": 6393,
      "ProcessedId": 6394,
      "Ġaging": 6395,
      "Ġmat": 6396,
      "Reserved": 6397,
      "Ġhelper": 6398,
      "guments": 6399,
      "MF": 6400,
      "AssetProposal": 6401,
      "PeriodType": 6402,
      "currentValue": 6403,
      "ĠfbTaxTrans": 6404,
      "ĠClassDescription": 6405,
      "cf": 6406,
      "Ġinput": 6407,
      "ElementPosition": 6408,
      "Ġ',": 6409,
      "PreProcessedId": 6410,
      "ĠnumOf": 6411,
      "RdpPreProcessedId": 6412,
      "sent": 6413,
      "ĠAlignment": 6414,
      "128": 6415,
      "CostTransVariance": 6416,
      "Norway": 6417,
      "ne": 6418,
      "ÄĹ": 6419,
      "ĠExim": 6420,
      "amountMST": 6421,
      "mainAccount": 6422,
      "Ġregister": 6423,
      "BOMId": 6424,
      "Ġmapping": 6425,
      "identification": 6426,
      "InstructedAmount": 6427,
      "Cour": 6428,
      "Sl": 6429,
      "ĠWorkflow": 6430,
      "posted": 6431,
      "ĠVendTable": 6432,
      "Esker": 6433,
      "PartitionKey": 6434,
      "Ability": 6435,
      "KanaName": 6436,
      "ĠBudgetPlanLine": 6437,
      "Proforma": 6438,
      "Ġsped": 6439,
      "Cz": 6440,
      "EG": 6441,
      "microsoft": 6442,
      "prec": 6443,
      "ParmId": 6444,
      "ZeroOne": 6445,
      "Fall": 6446,
      "abil": 6447,
      "Composition": 6448,
      "Ġrem": 6449,
      "ĠCustInvoiceJour": 6450,
      "ĠOR": 6451,
      "etadata": 6452,
      "Ġsmm": 6453,
      "ris": 6454,
      "LedgerTrans": 6455,
      "ExtensionAttribute": 6456,
      "VATNumber": 6457,
      "AxQuerySimpleDataSourceRelation": 6458,
      "TrackingDimTracing": 6459,
      "Ġproposal": 6460,
      "CBARPTVend": 6461,
      "ĠfirstOnly": 6462,
      "context": 6463,
      "ĠIFeature": 6464,
      "DateSum": 6465,
      "Ġstor": 6466,
      "Ġtransient": 6467,
      "ĠinventDimId": 6468,
      "Results": 6469,
      "Consist": 6470,
      "Brand": 6471,
      "ĠExtensionTargetType": 6472,
      "Centres": 6473,
      "Expand": 6474,
      "hance": 6475,
      "CurrencySelection": 6476,
      "à¸ª": 6477,
      "lyDivided": 6478,
      "CashFlow": 6479,
      "ĠMapEnumerator": 6480,
      "PriorYear": 6481,
      "BudgetSourceTrackingDetail": 6482,
      "VendorProductCandidate": 6483,
      "DateOf": 6484,
      "Append": 6485,
      "ProfileChange": 6486,
      "ĠcustVendSettlement": 6487,
      "Runtime": 6488,
      "Ġ';": 6489,
      "HH": 6490,
      "Za": 6491,
      "ReportType": 6492,
      "AdvPaym": 6493,
      "ĠGlobalization": 6494,
      "eGw": 6495,
      "Ġnotexists": 6496,
      "PositionForecastScenario": 6497,
      "SS": 6498,
      "1099": 6499,
      "currentKey": 6500,
      "DirPartyTable": 6501,
      "HRM": 6502,
      "legalEntity": 6503,
      "CustomeBalanceCalculation": 6504,
      "Ġdetermine": 6505,
      "255": 6506,
      "Ġeu": 6507,
      "Ġutc": 6508,
      "ĠSourceDocumentLine": 6509,
      "ourcing": 6510,
      "Ġactiv": 6511,
      "ĠsqlStmt": 6512,
      "ante": 6513,
      "PurchPurchaseOrder": 6514,
      "BalanceSheet": 6515,
      "Authority": 6516,
      "Jlb": 6517,
      "Declar": 6518,
      "CalcId": 6519,
      "WorkOrder": 6520,
      "ErNamed": 6521,
      "budgetReservation": 6522,
      "InventItemPrice": 6523,
      "Ġjour": 6524,
      "Operating": 6525,
      "CNPJ": 6526,
      "Empt": 6527,
      "RetryNum": 6528,
      "Ġidentification": 6529,
      "ĠSRSReport": 6530,
      "cac": 6531,
      "used": 6532,
      "ledFrom": 6533,
      "ĠHand": 6534,
      "ValidFrom": 6535,
      "vendInvoiceJour": 6536,
      "AmountReporting": 6537,
      "Beginning": 6538,
      "Ġreversal": 6539,
      ";'$": 6540,
      "Ġclean": 6541,
      "Operator": 6542,
      "ĠBankStatement": 6543,
      "Panel": 6544,
      "req": 6545,
      "ĠINVEN": 6546,
      "Ġrepresent": 6547,
      "NUMBER": 6548,
      "BankLCImport": 6549,
      "ĠtableStr": 6550,
      "ĠbankDeposit": 6551,
      "RegistrationNumber": 6552,
      "uture": 6553,
      "MainAccountId": 6554,
      "ĠsettlementPair": 6555,
      "FinTagDefaultingDocument": 6556,
      "GroupExpression": 6557,
      "irth": 6558,
      "ĠbankChequeTable": 6559,
      "CountryCode": 6560,
      "Ġsettled": 6561,
      "logistics": 6562,
      "FormDataSourceEventHandler": 6563,
      "offset": 6564,
      "Ġfactor": 6565,
      "IR": 6566,
      "Expected": 6567,
      "Ġwrite": 6568,
      "AssetDocument": 6569,
      "addGroupByField": 6570,
      "Ġinterval": 6571,
      "ĠDimensionDefault": 6572,
      "rc": 6573,
      "ĠDictField": 6574,
      "Ġcounter": 6575,
      "ĠRep": 6576,
      "ĠContent": 6577,
      "ComponentModel": 6578,
      "à¸Ķ": 6579,
      "SourceDocumentEnum": 6580,
      "Availability": 6581,
      "ERObjectOperationModify": 6582,
      "ĠAppendCharacter": 6583,
      ";@": 6584,
      "InvoiceTmp": 6585,
      "CredLimit": 6586,
      "Da": 6587,
      "assetTransDate": 6588,
      "IsSepa": 6589,
      "Ġrelease": 6590,
      "CopyOriginal": 6591,
      "Relieve": 6592,
      "Ġsp": 6593,
      "Tele": 6594,
      "Filename": 6595,
      "DbBackend": 6596,
      "Ful": 6597,
      "Wrap": 6598,
      "ialBalance": 6599,
      "PTY": 6600,
      "CommittedCost": 6601,
      "Times": 6602,
      "Ġme": 6603,
      "004": 6604,
      "SumTax": 6605,
      "Small": 6606,
      "iration": 6607,
      "ĠbankAccountTable": 6608,
      "ĠGuo": 6609,
      "ĠPmf": 6610,
      "bomId": 6611,
      "ĠIris": 6612,
      "ĠCounter": 6613,
      "Cc": 6614,
      "Ee": 6615,
      "dle": 6616,
      "rag": 6617,
      "uel": 6618,
      "ĠIt": 6619,
      "Ġreq": 6620,
      "FieldsSet": 6621,
      "Ġ16": 6622,
      "Summarization": 6623,
      "AAYACAAAACEA": 6624,
      "bsolete": 6625,
      "rece": 6626,
      "assert": 6627,
      "pte": 6628,
      "EqualsExpression": 6629,
      "LocalizationDS": 6630,
      "Others": 6631,
      "azione": 6632,
      "Ġconvert": 6633,
      "null": 6634,
      "sourceDocumentLine": 6635,
      "bomCalc": 6636,
      "PackSize": 6637,
      "ĠLedgerJournalTable": 6638,
      "enuFunction": 6639,
      "TaxReportField": 6640,
      "Ġrepresents": 6641,
      "StdCostConv": 6642,
      "createElementWithValue": 6643,
      "REPLACE": 6644,
      "ulti": 6645,
      "Into": 6646,
      "runOperation": 6647,
      "agreementLine": 6648,
      "AccountsReceivable": 6649,
      "BudgetPlanLineActiveView": 6650,
      "numberSequence": 6651,
      "ĠToDate": 6652,
      "ĠInterCompany": 6653,
      "cond": 6654,
      "ĠAssetPost": 6655,
      "Ġsetup": 6656,
      "SettledAmounts": 6657,
      "party": 6658,
      "Ġdirect": 6659,
      "BatchTask": 6660,
      "à¸«": 6661,
      "Ġstruct": 6662,
      "BUDGE": 6663,
      "SalesQty": 6664,
      "Extens": 6665,
      "Interaction": 6666,
      "artin": 6667,
      "characters": 6668,
      "FullText": 6669,
      "ĠSpecifies": 6670,
      "Ð´": 6671,
      "Chain": 6672,
      "Ġexim": 6673,
      "brand": 6674,
      "ĠFormControl": 6675,
      "DataGroup": 6676,
      "ListEnumerator": 6677,
      "ĠledgerJournal": 6678,
      "Prepaid": 6679,
      "Filters": 6680,
      "umpRef": 6681,
      "fc": 6682,
      "Levels": 6683,
      "utorial": 6684,
      "OU": 6685,
      "with": 6686,
      "ison": 6687,
      "Ġreason": 6688,
      "Always": 6689,
      "Ġdeclaration": 6690,
      "defaultDimension": 6691,
      "bt": 6692,
      "stre": 6693,
      "=\"|": 6694,
      "InventLocation": 6695,
      "AxFormDataSource": 6696,
      "Arrange": 6697,
      "ãģ®": 6698,
      "Ġou": 6699,
      "Ġbegin": 6700,
      "BudgetCheck": 6701,
      "Signature": 6702,
      "SpecialDep": 6703,
      "configurationKey": 6704,
      "ten": 6705,
      "TaxBase": 6706,
      "Payer": 6707,
      "ĠLedgerTransType": 6708,
      "NoOutput": 6709,
      "TermReg": 6710,
      "CostCenter": 6711,
      "ĠMartin": 6712,
      "JobType": 6713,
      "Ġextended": 6714,
      "ĠBookStruct": 6715,
      "qr": 6716,
      "CustAgingReportTmp": 6717,
      "ĠtaxAssessment": 6718,
      "ExecutionDate": 6719,
      "Ġhandler": 6720,
      "Bond": 6721,
      "(!": 6722,
      "Cnt": 6723,
      "QF": 6724,
      "AAE": 6725,
      "irement": 6726,
      "PrintControlReport": 6727,
      "Ġprovider": 6728,
      "Ġroot": 6729,
      "FullTextIndexes": 6730,
      "Side": 6731,
      "EnumDataSourceHandler": 6732,
      "inventTransferLine": 6733,
      "FrameType": 6734,
      "Ratio": 6735,
      "updateNow": 6736,
      "ØŃ": 6737,
      "AutoSummary": 6738,
      "BusinessDocument": 6739,
      "AdvanceInvoiceTable": 6740,
      "Relieved": 6741,
      "crease": 6742,
      "AlternateKey": 6743,
      "SR": 6744,
      "Wd": 6745,
      "zÃ¡": 6746,
      "redit": 6747,
      "Av": 6748,
      "Must": 6749,
      "feature": 6750,
      "lu": 6751,
      "ric": 6752,
      "arcode": 6753,
      "Ġsched": 6754,
      "BankName": 6755,
      "Agency": 6756,
      "ErrorWarning": 6757,
      "MarkupTransaction": 6758,
      "JoinDataSource": 6759,
      "KZ": 6760,
      "ĠDateTime": 6761,
      "InventVersionId": 6762,
      "UNT": 6763,
      "sql": 6764,
      "FieldValue": 6765,
      "TablixColumns": 6766,
      "TablixBody": 6767,
      "TablixColumnHierarchy": 6768,
      "TablixRows": 6769,
      "TablixRowHierarchy": 6770,
      "Low": 6771,
      "dataAreaId": 6772,
      "ART": 6773,
      "yz": 6774,
      "Ġround": 6775,
      "Convention": 6776,
      "ByFile": 6777,
      "ĠSEL": 6778,
      "ĠSELECT": 6779,
      "Stra": 6780,
      "Ġinv": 6781,
      "Quick": 6782,
      "ContactInfo": 6783,
      "CommodityRecord": 6784,
      "ĠProject": 6785,
      "getCustVendTrans": 6786,
      "Ġhistory": 6787,
      "ĠtaxAmount": 6788,
      "original": 6789,
      "GeographyL": 6790,
      "oved": 6791,
      "InventItem": 6792,
      "addLookup": 6793,
      "BaseDocument": 6794,
      "Ġnote": 6795,
      "StreetName": 6796,
      "AgingBucketDescription": 6797,
      "SourceBusinessEntityDescription": 6798,
      "ention": 6799,
      "ither": 6800,
      "licationDirection": 6801,
      "ChildType": 6802,
      "Consignment": 6803,
      "FIRST": 6804,
      "ĠReplicationDirection": 6805,
      "417": 6806,
      "appl": 6807,
      "TaxTransactionsByFile": 6808,
      "Hist": 6809,
      "prompt": 6810,
      "Ġperson": 6811,
      "Ġatt": 6812,
      "à¸ģà¸²": 6813,
      "InnerJoin": 6814,
      "Ġsave": 6815,
      "perform": 6816,
      "Ã§Ã": 6817,
      "ins": 6818,
      "arant": 6819,
      "Ġstandard": 6820,
      "AccountID": 6821,
      "Parms": 6822,
      "ĠeInvoiceJour": 6823,
      "ApprovalStatus": 6824,
      "ĠXue": 6825,
      "Gain": 6826,
      "DateRequested": 6827,
      "fe": 6828,
      "Depr": 6829,
      "Recid": 6830,
      "angle": 6831,
      "PaymentAmount": 6832,
      "Uncommitted": 6833,
      "fins": 6834,
      "ĠHcmWorker": 6835,
      "AxEdt": 6836,
      "ToThe": 6837,
      "ander": 6838,
      "FreeTextInvoiceLocalizationDS": 6839,
      "Provides": 6840,
      "execution": 6841,
      "Ġclosing": 6842,
      "AbsenceCode": 6843,
      "ĠHandles": 6844,
      "ctangle": 6845,
      "IsNorway": 6846,
      "Zz": 6847,
      "OrderAccount": 6848,
      "Explo": 6849,
      "ento": 6850,
      "parmToDate": 6851,
      "QueryBuildDataSource": 6852,
      "transType": 6853,
      "Deliv": 6854,
      "Ġcontact": 6855,
      "ĠBudgetSource": 6856,
      "ZeroMore": 6857,
      "ĠSource": 6858,
      "ong": 6859,
      "ĠBudgetSourceTracking": 6860,
      "Merge": 6861,
      "ĠSalesTable": 6862,
      "InventSite": 6863,
      "AxFormGroupControl": 6864,
      "Resol": 6865,
      "HierarchyType": 6866,
      "Ġlocation": 6867,
      "CreatedTransactionId": 6868,
      "Ġbetween": 6869,
      "NumOf": 6870,
      "RecIds": 6871,
      "Listing": 6872,
      "PrimaryIndex": 6873,
      "EsDBB": 6874,
      "ShouldBe": 6875,
      "Browse": 6876,
      "EsDBBQABgAIAAAAIQ": 6877,
      "Sem": 6878,
      "FormType": 6879,
      "Ġmer": 6880,
      "Ġmcr": 6881,
      "ĠdialogField": 6882,
      "GUID": 6883,
      "Ġrev": 6884,
      "ĠcanRunInNewSession": 6885,
      "ningProcessRecId": 6886,
      "AJ": 6887,
      "ĠFromDate": 6888,
      "Trv": 6889,
      "Computed": 6890,
      "AutoBrowse": 6891,
      "FeatureStateProvider": 6892,
      "BAi": 6893,
      "InstrumentationActivities": 6894,
      "ISOCountryRegionCodes": 6895,
      "ĠInventTransId": 6896,
      "ĠSysDaEqualsExpression": 6897,
      "BAA": 6898,
      "ĠCh": 6899,
      "AxResource": 6900,
      "Notification": 6901,
      "Ġarguments": 6902,
      "AFAAGAAgAAAAh": 6903,
      "EsBAi": 6904,
      "Ġdesc": 6905,
      "whs": 6906,
      "447": 6907,
      "Bet": 6908,
      "GT": 6909,
      "Nm": 6910,
      "InBatch": 6911,
      "ital": 6912,
      "ProductReceipt": 6913,
      "AutoLookup": 6914,
      "488": 6915,
      "CountryRegionType": 6916,
      "ualsAndBudgetBalances": 6917,
      "ambiguous": 6918,
      "BondClient": 6919,
      "BalanceReport": 6920,
      "Ġcompl": 6921,
      "ĠsourceDocumentLine": 6922,
      "Netting": 6923,
      "InventJournal": 6924,
      "Without": 6925,
      "AutoIdentification": 6926,
      "MenuItemAction": 6927,
      "canRunInNewSession": 6928,
      "Ġvariables": 6929,
      "isor": 6930,
      "Throw": 6931,
      "raz": 6932,
      "ReplacementKey": 6933,
      "Empties": 6934,
      "Ss": 6935,
      "assetTransType": 6936,
      "pository": 6937,
      "fV": 6938,
      "ral": 6939,
      "Äĵ": 6940,
      "ĠVersion": 6941,
      "Ġsup": 6942,
      "asic": 6943,
      "OfA": 6944,
      "inventDimCriteria": 6945,
      "AdjustmentCode": 6946,
      "Step": 6947,
      "Compens": 6948,
      "PA": 6949,
      "ware": 6950,
      "yZW": 6951,
      "Ġdoc": 6952,
      "ungs": 6953,
      "StampTrans": 6954,
      "ComboBoxControl": 6955,
      "correct": 6956,
      "Cd": 6957,
      "aa": 6958,
      "ĠÑģ": 6959,
      "=\".": 6960,
      "Repository": 6961,
      "InMethods": 6962,
      "heading": 6963,
      "InquiryStaging": 6964,
      "BuiltInMethods": 6965,
      "DataSharing": 6966,
      "macro": 6967,
      "GroupName": 6968,
      "Installment": 6969,
      "missing": 6970,
      "Qx": 6971,
      "CBARPTSalesVolume": 6972,
      "parmFromDate": 6973,
      "Multiply": 6974,
      "Paid": 6975,
      "âĢ": 6976,
      "Icm": 6977,
      "TX": 6978,
      "Ġdie": 6979,
      "Enhance": 6980,
      "DEFIN": 6981,
      "ĠagreementLine": 6982,
      "ĠMarkup": 6983,
      "EUR": 6984,
      "ERModelDefinition": 6985,
      "Ġextra": 6986,
      "TrackingDimensionGroup": 6987,
      "StartPeriod": 6988,
      "worker": 6989,
      "Ġdlg": 6990,
      "Compar": 6991,
      "DocumentTitle": 6992,
      "MeasureGroup": 6993,
      "ĠpackedClass": 6994,
      "PK": 6995,
      "QY": 6996,
      "ĠCustomer": 6997,
      "Relative": 6998,
      "BankDocumentTable": 6999,
      "Ġconf": 7000,
      "Ġsegment": 7001,
      "Ds": 7002,
      "xs": 7003,
      "OverrideMethod": 7004,
      "ĠreportingDimension": 7005,
      "DEFINE": 7006,
      "DataUtil": 7007,
      "SumMarkup": 7008,
      "HierarchyId": 7009,
      "Ã©ro": 7010,
      "LCExport": 7011,
      "GroupedBy": 7012,
      "celling": 7013,
      "ttsLevel": 7014,
      "ĠMenuFunction": 7015,
      "horization": 7016,
      "ĠDebitCredit": 7017,
      "StateMachines": 7018,
      "\"));": 7019,
      "FetchMode": 7020,
      "ĠPrintMgmt": 7021,
      "ĠLander": 7022,
      "Generator": 7023,
      "ProposalLine": 7024,
      "Icms": 7025,
      "createRecord": 7026,
      "BankReconciliationMatchRule": 7027,
      "Complete": 7028,
      "Ii": 7029,
      "Planning": 7030,
      "PurchOrder": 7031,
      "ĠDict": 7032,
      "EndPeriod": 7033,
      "force": 7034,
      "Compensation": 7035,
      "Void": 7036,
      "DimValue": 7037,
      "acted": 7038,
      "Ġallocate": 7039,
      "Ġpayroll": 7040,
      "Ã¸": 7041,
      "Rectangle": 7042,
      "Privileges": 7043,
      "ECLQ": 7044,
      "TermId": 7045,
      "StagingTable": 7046,
      "DlvMode": 7047,
      "QSwECLQ": 7048,
      "QSwECLQAU": 7049,
      "Ġicms": 7050,
      "Ġmore": 7051,
      "DueAmount": 7052,
      "Multiplic": 7053,
      "Straight": 7054,
      "tt": 7055,
      "RelationType": 7056,
      "Inserted": 7057,
      "ĠMina": 7058,
      "ĠPrice": 7059,
      "DataMember": 7060,
      "conds": 7061,
      "ĠconNull": 7062,
      "Adjusted": 7063,
      "EMPTY": 7064,
      "custTransOpen": 7065,
      "SalesInvoiceHeaderFooterDS": 7066,
      "RDD": 7067,
      "ĠBankDocument": 7068,
      "408": 7069,
      "Ġprovides": 7070,
      "Commercial": 7071,
      "Gt": 7072,
      "Trading": 7073,
      "InventMovement": 7074,
      "CBAF": 7075,
      "ĠInventMov": 7076,
      "CashManagement": 7077,
      "KP": 7078,
      "WMSLocationId": 7079,
      "Regulatory": 7080,
      "Amortization": 7081,
      "SalesBalance": 7082,
      "Ġapply": 7083,
      "Ġexceptions": 7084,
      "TaxFreeBalance": 7085,
      "AmountMst": 7086,
      "DocumentNum": 7087,
      "Ġassigned": 7088,
      "delivery": 7089,
      "æľ": 7090,
      "ĠĠĠĠĠĠĠĠĠĠĠĠĠĠĠĠĠĠĠĠĠĠĠĠĠĠĠĠĠĠĠĠĠĠĠĠĠĠĠĠĠĠĠĠĠĠĠĠĠĠĠĠĠĠĠĠĠĠĠĠĠĠĠĠĠĠĠĠĠĠĠ": 7091,
      "see": 7092,
      "à¸¥": 7093,
      "PaymTrans": 7094,
      "ĠpaymentRequest": 7095,
      "BudgetAnalysis": 7096,
      "à¸Ĥ": 7097,
      "AxAggregateDimension": 7098,
      "wAA": 7099,
      "ĠEmpl": 7100,
      "()/": 7101,
      "parmAsset": 7102,
      "('%": 7103,
      "DatabaseLog": 7104,
      "ĠSysInstrumentationActivityContext": 7105,
      "arantee": 7106,
      "fetchMode": 7107,
      "elf": 7108,
      "CaseDetail": 7109,
      "(-": 7110,
      "Ha": 7111,
      "JT": 7112,
      "SF": 7113,
      "VL": 7114,
      "Ñĭ": 7115,
      "ĠdimSynchronize": 7116,
      "Ġcosting": 7117,
      "Consump": 7118,
      "Ġneeded": 7119,
      "PoolId": 7120,
      "urden": 7121,
      "AxMeasureGroup": 7122,
      "point": 7123,
      "agnost": 7124,
      "layout": 7125,
      "Ùĥ": 7126,
      "ĠVendTrans": 7127,
      "DepreciationStartDate": 7128,
      "JobTable": 7129,
      "SysLast": 7130,
      "Turn": 7131,
      "var": 7132,
      "Ġdescri": 7133,
      "Ġlen": 7134,
      "DetailTmp": 7135,
      "ExtendedDataTypeFormat": 7136,
      "AccDist": 7137,
      "MonthDate": 7138,
      "SheetCalculation": 7139,
      "GetExtendedDataTypeFormat": 7140,
      "CBARPTSalesVolumeTmp": 7141,
      "007": 7142,
      "ĠSSRS": 7143,
      "ORNULL": 7144,
      "SetOf": 7145,
      "ĠinventItem": 7146,
      "ĠMenuItem": 7147,
      "enumerator": 7148,
      "ERExpressionNumericMultiply": 7149,
      "021": 7150,
      "ĠSysDaQueryObject": 7151,
      "interCompany": 7152,
      "Multiplicand": 7153,
      "DR": 7154,
      "Have": 7155,
      "BatchJob": 7156,
      "raw": 7157,
      "Accruals": 7158,
      "SortField": 7159,
      "SourceDocLineItem": 7160,
      "year": 7161,
      "ĠperiodAmount": 7162,
      "Storno": 7163,
      "ĠpriceDisc": 7164,
      "logger": 7165,
      "EquallyDivided": 7166,
      "Recovered": 7167,
      "Obsolete": 7168,
      "ĠTaxTrans": 7169,
      "ValueExpression": 7170,
      "ĠbankLCImport": 7171,
      "InventTransWMS": 7172,
      "ĠassetBookTable": 7173,
      "InventTransferTable": 7174,
      "FIRSTORNULL": 7175,
      "Xp": 7176,
      "BankCurrencyReval": 7177,
      "PurchQty": 7178,
      "TransferOrder": 7179,
      "ĠNumberSequence": 7180,
      "Recoverable": 7181,
      "qI": 7182,
      "PaymentId": 7183,
      "initValue": 7184,
      "ConfigurationRecId": 7185,
      "BankReconciliationHeader": 7186,
      "à¸²à¸¢": 7187,
      "inventQty": 7188,
      "ING": 7189,
      "ABC": 7190,
      "vb": 7191,
      "Ġca": 7192,
      "TimeSpan": 7193,
      "custAccount": 7194,
      "Occ": 7195,
      "Included": 7196,
      "FactureDate": 7197,
      "Registered": 7198,
      "Xpp": 7199,
      "ReportFinish": 7200,
      "Locked": 7201,
      "StatusUpdate": 7202,
      "ĠInventDimCtrl": 7203,
      "LoadId": 7204,
      "WorkflowStatus": 7205,
      "TL": 7206,
      "ha": 7207,
      "zU": 7208,
      "ains": 7209,
      "ĠinventSite": 7210,
      "AssignedBy": 7211,
      "IncentiveAccruals": 7212,
      "Ġproperty": 7213,
      "ZV": 7214,
      "Ġspecial": 7215,
      "prior": 7216,
      "\"))": 7217,
      "jU": 7218,
      "FieldSetup": 7219,
      "verage": 7220,
      "ĠSysDaValueExpression": 7221,
      "forUpdate": 7222,
      "AS": 7223,
      "ood": 7224,
      "vX": 7225,
      "DataManagement": 7226,
      "ĠInventory": 7227,
      "ĠsalesPurchBookData": 7228,
      "CustPaymTable": 7229,
      "ĠÃ¡": 7230,
      "ifiers": 7231,
      "Identify": 7232,
      "ĠEND": 7233,
      "Ġresponse": 7234,
      "xx": 7235,
      "change": 7236,
      "FBCIAP": 7237,
      "Manu": 7238,
      "Ġdelivery": 7239,
      "bankCodaAccountStatementLines": 7240,
      "Ã©s": 7241,
      "Ġcatalog": 7242,
      "Bridging": 7243,
      "Reject": 7244,
      "endDate": 7245,
      "TmpAccountSum": 7246,
      "ivation": 7247,
      "CBAPO": 7248,
      "QueryFetchMode": 7249,
      "Ġgr": 7250,
      "ISEMPTY": 7251,
      "JJ": 7252,
      "gle": 7253,
      "ya": 7254,
      "TextValue": 7255,
      "InvoiceNumber": 7256,
      "TaxBranch": 7257,
      "Debug": 7258,
      "ProcessingTmp": 7259,
      "ĠmatchRule": 7260,
      "Ġanalysis": 7261,
      "ĠHMIM": 7262,
      "address": 7263,
      "à¸Ĭ": 7264,
      "NotRecovered": 7265,
      "TransferHistory": 7266,
      "CountrySpecific": 7267,
      "EmbeddedDataSource": 7268,
      "Declarer": 7269,
      "ÙĤ": 7270,
      "apsed": 7271,
      "SubType": 7272,
      "ĠcreditCard": 7273,
      "EAA": 7274,
      "TaxWorkTrans": 7275,
      "AxFormRealControl": 7276,
      "StateId": 7277,
      "Move": 7278,
      "Ġ'');": 7279,
      "taxAmount": 7280,
      "ĠPerforms": 7281,
      "GG": 7282,
      "setAttribute": 7283,
      "LoadLine": 7284,
      "Implementation": 7285,
      "Aa": 7286,
      "TableFields": 7287,
      "GroupOption": 7288,
      "Defer": 7289,
      "TaxInvoice": 7290,
      "DocumentOpenTmp": 7291,
      "ĠassetAmount": 7292,
      "DisplayStr": 7293,
      "CASE": 7294,
      "buffer": 7295,
      "MultiSelect": 7296,
      "DayOfYear": 7297,
      "ĠdimensionAttributeValueCombination": 7298,
      "ERModelGroupByFieldReferences": 7299,
      "ĠPost": 7300,
      "Ġorg": 7301,
      "agent": 7302,
      "Ġmay": 7303,
      "OfYear": 7304,
      "DAT": 7305,
      "ä»": 7306,
      "ĠH": 7307,
      "InvoiceRoundOff": 7308,
      "PropertyModifications": 7309,
      "Princip": 7310,
      "ĠAssetImpairment": 7311,
      "AccountStatementInt": 7312,
      "Ġallowed": 7313,
      "ĠÐ¿": 7314,
      "Triangular": 7315,
      "413": 7316,
      "parmParent": 7317,
      "setValue": 7318,
      "custVendSettlement": 7319,
      "ÑĤÐ°": 7320,
      "ĠIF": 7321,
      "Ġclasses": 7322,
      "ĠassetDepreciableAssets": 7323,
      "TRAN": 7324,
      "012": 7325,
      "975": 7326,
      "ice": 7327,
      "Ġfil": 7328,
      "OfDate": 7329,
      "Links": 7330,
      "NonFiscal": 7331,
      "Corr": 7332,
      "Ġresponsible": 7333,
      "LPCleanup": 7334,
      "AxSecurityDataEntityPermission": 7335,
      "Bound": 7336,
      "ĠLine": 7337,
      "Const": 7338,
      "Ġpag": 7339,
      "AxQuerySimpleEmbeddedDataSource": 7340,
      "Bus": 7341,
      "rals": 7342,
      "Remarks": 7343,
      "FormRef": 7344,
      "ĠInventPosting": 7345,
      "PerDate": 7346,
      "Designer": 7347,
      "Ð²": 7348,
      "retail": 7349,
      "Ġreset": 7350,
      "yyyy": 7351,
      "Ġmultip": 7352,
      "Clicked": 7353,
      "Gross": 7354,
      "KR": 7355,
      "license": 7356,
      "Arriv": 7357,
      "flat": 7358,
      "110": 7359,
      "PaymentIdentification": 7360,
      "ĠInventDimension": 7361,
      "Ġadditional": 7362,
      "ExchangeRateDate": 7363,
      "Nn": 7364,
      "Pass": 7365,
      "oj": 7366,
      "ÅŁ": 7367,
      "ingOrganization": 7368,
      "Ġdet": 7369,
      "InventStatus": 7370,
      "Companies": 7371,
      "TaxInformation": 7372,
      "PaymJournal": 7373,
      "accountingCurrency": 7374,
      "AwB": 7375,
      ".=\"": 7376,
      "amework": 7377,
      "DataMethods": 7378,
      "SalesPackingSlip": 7379,
      "Virtuel": 7380,
      "DO": 7381,
      "parmItemId": 7382,
      "SizeTo": 7383,
      "ĠSysOperationHelpText": 7384,
      "TempTable": 7385,
      "Ġprovided": 7386,
      "BalanceReportColumns": 7387,
      "Np": 7388,
      "ÄĽ": 7389,
      "Ġco": 7390,
      "DataTmp": 7391,
      "JournalRoute": 7392,
      "Lead": 7393,
      "datetime": 7394,
      "SJ": 7395,
      "Ġtest": 7396,
      "Prepar": 7397,
      "Aggregated": 7398,
      "EndingBalance": 7399,
      "TypeEnum": 7400,
      "Head": 7401,
      "FocusName": 7402,
      "RelativeUri": 7403,
      "Wx": 7404,
      "due": 7405,
      "DataSourceName": 7406,
      "BankPaymAdvice": 7407,
      "BudgetPlanHeaderRecId": 7408,
      "Registro": 7409,
      "Bel": 7410,
      "Money": 7411,
      "Yearly": 7412,
      "ez": 7413,
      "ĠĠĠĠĠĠĠĠĠĠĠĠĠĠĠĠĠĠĠĠĠĠĠĠĠĠĠĠĠĠĠĠĠĠĠĠĠĠĠĠĠĠĠĠĠĠĠĠĠĠĠĠĠĠĠĠĠĠĠĠĠĠĠĠĠĠĠĠĠĠĠĠĠĠĠ": 7414,
      "RefInventTransOrigin": 7415,
      "Funds": 7416,
      "vendTrans": 7417,
      "Ġits": 7418,
      "Months": 7419,
      "Ġcharge": 7420,
      "ĠassetCorpTaxActAppendedTablesTmp": 7421,
      "SB": 7422,
      "ever": 7423,
      "ĠSub": 7424,
      "DateControl": 7425,
      "TransferStatus": 7426,
      "ĠbudgetPlanning": 7427,
      "ĠConstructs": 7428,
      "cp": 7429,
      "jour": 7430,
      "ĠSourceDocumentLineItem": 7431,
      "InModel": 7432,
      "ĠĠĠĠĠĠĠĠĠĠĠĠĠĠĠĠĠĠĠĠĠĠĠĠĠĠĠĠĠĠĠĠĠĠĠĠĠĠĠĠ": 7433,
      "Ġpick": 7434,
      "learn": 7435,
      "RelativeUriInModel": 7436,
      "RelativeUriInModelStore": 7437,
      "Birth": 7438,
      "OO": 7439,
      "eta": 7440,
      "Ġdeleted": 7441,
      "ConfigurationKey": 7442,
      "AcquisitionDate": 7443,
      "AV": 7444,
      "jt": 7445,
      "ÅĤ": 7446,
      "reconciliation": 7447,
      "eread": 7448,
      "Ã³d": 7449,
      "ĠModelGUID": 7450,
      "fs": 7451,
      "Ġgeneral": 7452,
      "Yk": 7453,
      "FormExtension": 7454,
      "Ġdec": 7455,
      "TaxationCode": 7456,
      "vendTable": 7457,
      "ĠBankReconciliationMatchRule": 7458,
      "APP": 7459,
      "UpdateConflictNotRecovered": 7460,
      "pay": 7461,
      "Ñĩ": 7462,
      "changed": 7463,
      "InventValue": 7464,
      "ĠstatementLine": 7465,
      "Ġinitialized": 7466,
      "wMAU": 7467,
      "Ll": 7468,
      "Ä«": 7469,
      "ĠAccountingDate": 7470,
      "DAFBLA": 7471,
      "ĠadvancedLedgerEntry": 7472,
      "ZG": 7473,
      "category": 7474,
      "ĠCompany": 7475,
      "StorageDimensionGroup": 7476,
      "partment": 7477,
      "getFirst": 7478,
      "ĠInventJournal": 7479,
      "DocType": 7480,
      "Bridged": 7481,
      "145": 7482,
      "LR": 7483,
      "MEF": 7484,
      "sys": 7485,
      "top": 7486,
      "ĠconLen": 7487,
      "Retirement": 7488,
      "CheckBoxControl": 7489,
      "Ġcomb": 7490,
      "FreeTextInvoiceHeaderFooterTmp": 7491,
      "Bonus": 7492,
      "Ġsim": 7493,
      "person": 7494,
      "Sug": 7495,
      "dimFieldId": 7496,
      "QSwMEF": 7497,
      "Ġdifferent": 7498,
      "AwBQSwMEF": 7499,
      "AwBQSwMEFAAGAAgAAAAh": 7500,
      "RY": 7501,
      "cons": 7502,
      "Personnel": 7503,
      "ĠFinds": 7504,
      "ku": 7505,
      "Ġpacking": 7506,
      "ĠAssetIntercompanyTransfer": 7507,
      "Ġsession": 7508,
      "Expiration": 7509,
      "priceDisc": 7510,
      "Rename": 7511,
      "Ġer": 7512,
      "CustCollections": 7513,
      "ĠexchangeRateHelper": 7514,
      "elim": 7515,
      "AAAAAAAAAAAAAAAAAAAA": 7516,
      "Handling": 7517,
      "Chg": 7518,
      "INT": 7519,
      "CategoryHierarchy": 7520,
      "Partial": 7521,
      "matchRule": 7522,
      "parmShow": 7523,
      "agreementHeader": 7524,
      "creditCard": 7525,
      "sFor": 7526,
      "alf": 7527,
      "Ġsort": 7528,
      "AmountOf": 7529,
      "PathsTo": 7530,
      "ĠBankAccountTrans": 7531,
      "ChequeNum": 7532,
      "ĠAssetTransTypeJournal": 7533,
      "registerOverrideMethod": 7534,
      "Lesser": 7535,
      "PathsToCache": 7536,
      "Ġsite": 7537,
      "InvoiceType": 7538,
      "WithNo": 7539,
      "validateWrite": 7540,
      "Middle": 7541,
      "Ġretrieve": 7542,
      "Explosion": 7543,
      "eliminary": 7544,
      "ĠSalesLine": 7545,
      "=\"'": 7546,
      "ĠInventSiteId": 7547,
      "ĠamountToDepreciate": 7548,
      "Configurationkey": 7549,
      "budgetPlanHeader": 7550,
      "CredMan": 7551,
      "Ġscenario": 7552,
      "Alt": 7553,
      "ĠRoute": 7554,
      "TaxDocument": 7555,
      "config": 7556,
      "OfPayment": 7557,
      "Opening": 7558,
      "ĠFormStringControl": 7559,
      "Regular": 7560,
      "ArrangeMethod": 7561,
      "Loop": 7562,
      "PART": 7563,
      "card": 7564,
      "Namespace": 7565,
      "StatusType": 7566,
      "ĠBankAccountTable": 7567,
      "generalJournalAccountEntry": 7568,
      "Earning": 7569,
      "ii": 7570,
      "chn": 7571,
      "Ġbut": 7572,
      "vendor": 7573,
      "GJP": 7574,
      "Lt": 7575,
      "Tp": 7576,
      "WR": 7577,
      "att": 7578,
      "level": 7579,
      "Texts": 7580,
      "ucted": 7581,
      "cessary": 7582,
      "Ġthrough": 7583,
      "CurYear": 7584,
      "OriginId": 7585,
      "GeneralLedgerBalance": 7586,
      "ConfigurationkeyEnabled": 7587,
      "GJ": 7588,
      "ForThe": 7589,
      "ĉĉĉĉĉĉĉĉĉĉĉĉĉĉĉĉ": 7590,
      "ĠqueryValue": 7591,
      "Ġupdates": 7592,
      "AccrualJourEntries": 7593,
      "Nav": 7594,
      "Ã¥": 7595,
      "Payable": 7596,
      "Ġstrfmt": 7597,
      "proper": 7598,
      "ĠBudgetAnalysis": 7599,
      "CreatedBy": 7600,
      "Reduction": 7601,
      "IPI": 7602,
      "Ġestimated": 7603,
      "StraightLine": 7604,
      "Ġconsumption": 7605,
      "VendorCatalog": 7606,
      "numOf": 7607,
      "EInvoiceIntegration": 7608,
      "ĠcalcArgs": 7609,
      "PurchRFQLine": 7610,
      "Assigned": 7611,
      "Collected": 7612,
      "LicensePlateId": 7613,
      "configurationKeyNum": 7614,
      "learnMore": 7615,
      "Fine": 7616,
      "Ð¿": 7617,
      "ĠCredit": 7618,
      "ath": 7619,
      "AssetImpairment": 7620,
      "urext": 7621,
      "ProdCalcTrans": 7622,
      "PeriodDate": 7623,
      "ExecutionMode": 7624,
      "specTrans": 7625,
      "Kw": 7626,
      "ĠrecordInsertList": 7627,
      "Logic": 7628,
      "FiscalDocumentTaxTrans": 7629,
      "ĠLogisticsPostalAddress": 7630,
      "mustBe": 7631,
      "Ġproperties": 7632,
      "formDataSourceStr": 7633,
      "REC": 7634,
      "ailure": 7635,
      "PaymentStatus": 7636,
      "HCM": 7637,
      "hcm": 7638,
      "jA": 7639,
      "je": 7640,
      "wms": 7641,
      "izes": 7642,
      "PurchReqTable": 7643,
      "Sections": 7644,
      "addLookupfield": 7645,
      "ĠSysOperationHelpTextAttribute": 7646,
      "010": 7647,
      "JourLine": 7648,
      "ReportParameters": 7649,
      "ĠmenuItem": 7650,
      "ERExpressionStringFormat": 7651,
      "ModifiedDateTime": 7652,
      "Ġexecute": 7653,
      "BudgetPlanScenarioRecId": 7654,
      "Diagnost": 7655,
      "BW": 7656,
      "kb": 7657,
      "Trigger": 7658,
      "Ġver": 7659,
      "Ġsettings": 7660,
      "aks": 7661,
      "Carryforward": 7662,
      "Ã¼r": 7663,
      "Ġflag": 7664,
      "PaymentIdentifications": 7665,
      "è¡": 7666,
      "ĠLineNum": 7667,
      "atest": 7668,
      "ĠtmpProcessLogTransOper": 7669,
      "EditMode": 7670,
      "Schedul": 7671,
      "ĠAssetTableMethod": 7672,
      "Inf": 7673,
      "financial": 7674,
      "learnMoreUrl": 7675,
      "Ver": 7676,
      "StatementOpenTmp": 7677,
      "ĠparmIs": 7678,
      "depreciationDate": 7679,
      "ModifyContract": 7680,
      "budgetPlanLineActiveView": 7681,
      "WY": 7682,
      "sort": 7683,
      "Ġoc": 7684,
      "LineOn": 7685,
      "ModelType": 7686,
      "ĠAssetDocumentType": 7687,
      "ĠBudgetPlanHeader": 7688,
      "ĠLedgerVoucherTransObject": 7689,
      "ĠinventItemPriceCompare": 7690,
      "CBARPTVendAgingReportTmp": 7691,
      "Ib": 7692,
      "Pen": 7693,
      "Vo": 7694,
      "Track": 7695,
      "Ġslip": 7696,
      "conPeek": 7697,
      "Editable": 7698,
      "ERExpressionNumericLesser": 7699,
      "LayoutRecId": 7700,
      "Ġinstead": 7701,
      "fw": 7702,
      "VendInvoiceInfoTable": 7703,
      "Postal": 7704,
      "ProductType": 7705,
      "ĠBen": 7706,
      "wQU": 7707,
      "PackingSlipId": 7708,
      "DAFBLAwQU": 7709,
      ")\">": 7710,
      "Rl": 7711,
      "pds": 7712,
      "emory": 7713,
      "Ġremove": 7714,
      "SumTmp": 7715,
      "FeatureReference": 7716,
      "InstrumentationHelper": 7717,
      "Provision": 7718,
      "GN": 7719,
      "Ġ);": 7720,
      "CustInvoiceLine": 7721,
      "AxSecurityDuty": 7722,
      "Dependency": 7723,
      "Ġframework": 7724,
      "140": 7725,
      "Comission": 7726,
      "JournalizingDefinition": 7727,
      "Ġtypes": 7728,
      "Ð°Ð½": 7729,
      "Ġneeds": 7730,
      "Sit": 7731,
      "bes": 7732,
      "ĠPurchLine": 7733,
      "ĠĠĠĠĠĠĠĠĠĠĠĠĠĠĠĠĠĠĠĠĠĠĠĠĠĠĠĠĠĠĠĠĠĠĠĠĠĠĠĠĠĠ": 7734,
      "Town": 7735,
      "Ġgenerated": 7736,
      "SettleAmountCur": 7737,
      "AuditFile": 7738,
      "NG": 7739,
      "ren": 7740,
      "Ġ6": 7741,
      "abs": 7742,
      "Ġbr": 7743,
      "Ġwms": 7744,
      "Ġmember": 7745,
      "ERExpressionNumericNotEquals": 7746,
      "payments": 7747,
      "CatchWeight": 7748,
      "uY": 7749,
      "ĠTable": 7750,
      "ĠBase": 7751,
      "skipDataMethods": 7752,
      "matching": 7753,
      "CY": 7754,
      "Ġ'.'": 7755,
      "Ġconfirm": 7756,
      "ĠfieldName": 7757,
      "CAL": 7758,
      "PrimaryKey": 7759,
      "cancel": 7760,
      "hing": 7761,
      "revaluation": 7762,
      "Ġpmf": 7763,
      "CustConfirm": 7764,
      "BatchJournal": 7765,
      "Ġexternal": 7766,
      "Ġsecond": 7767,
      "ChartOf": 7768,
      "ĠGlobalizationInstrumentationHelper": 7769,
      "Kk": 7770,
      "iate": 7771,
      "ĠĠĠĠĠĠĠĠĠĠĠĠĠĠĠĠĠĠĠĠĠĠĠĠĠĠĠĠĠĠĠĠĠĠĠĠĠĠĠĠĠĠĠĠĠĠĠĠĠĠĠĠĠĠĠĠĠĠĠĠĠĠĠĠĠĠĠĠĠ": 7772,
      "à¸¢": 7773,
      "fieldObject": 7774,
      "FormControlEventHandler": 7775,
      "SessionId": 7776,
      "ĠassetCorpTaxActAppendedTable": 7777,
      "TaxExemptNumber": 7778,
      "ĠNo": 7779,
      "qual": 7780,
      "parentRecord": 7781,
      "PurchBookVAT": 7782,
      "BasedOn": 7783,
      "InclTax": 7784,
      "precated": 7785,
      "dictField": 7786,
      "state": 7787,
      "lies": 7788,
      "PostDelegateTypeId": 7789,
      "Modern": 7790,
      "FileComponent": 7791,
      "ĠpurchReqLine": 7792,
      "ĠfbBookingPeriod": 7793,
      "Gg": 7794,
      "Hy": 7795,
      "ĠinventClosing": 7796,
      "CacheLookup": 7797,
      "MultiLn": 7798,
      "aved": 7799,
      "sped": 7800,
      "xy": 7801,
      "ĠDefaultDimension": 7802,
      "ĠWHERE": 7803,
      "ssrsReport": 7804,
      "()\"": 7805,
      "Ġmaint": 7806,
      "Ġ01": 7807,
      "markupTrans": 7808,
      "Supported": 7809,
      "ReleasedProduct": 7810,
      "Ġfunctionality": 7811,
      "ĠAgreement": 7812,
      "Selector": 7813,
      "ĠsalesQuotation": 7814,
      "accountNum": 7815,
      "OutletIncentive": 7816,
      "Detials": 7817,
      "IJ": 7818,
      "Nb": 7819,
      "la": 7820,
      "Ã¨": 7821,
      "ptim": 7822,
      "ĉĉĉĉĉĉĉĉĉĉĉĉĉĉĉ": 7823,
      "NoYesId": 7824,
      "ĠtaxTable": 7825,
      "ledgerVoucherObject": 7826,
      "portionment": 7827,
      "flatAddress": 7828,
      "Pt": 7829,
      "case": 7830,
      "ĠDebug": 7831,
      "enot": 7832,
      "Quantities": 7833,
      "Customers": 7834,
      "isoRU": 7835,
      "SalesTaxDeclaration": 7836,
      "365": 7837,
      "oz": 7838,
      "ely": 7839,
      "arehouse": 7840,
      "Contabil": 7841,
      "Ġdevel": 7842,
      "FileUpload": 7843,
      "ĠdeprInterval": 7844,
      "UU": 7845,
      "txt": 7846,
      "TypeTable": 7847,
      "ItemLedgerDimension": 7848,
      "Ġmode": 7849,
      "à¸§": 7850,
      "AddressLine": 7851,
      "newParameters": 7852,
      "ĠlineNum": 7853,
      "Ġreversed": 7854,
      "ĠLedgerJournalType": 7855,
      "ĠwrkCtr": 7856,
      "OD": 7857,
      "fQ": 7858,
      "ĠAccount": 7859,
      "InYear": 7860,
      "LedgerReconciliation": 7861,
      "Validated": 7862,
      "ounding": 7863,
      "STP": 7864,
      "AgingReport": 7865,
      "ĠassetTableInterval": 7866,
      "methodStr": 7867,
      "menuItemName": 7868,
      "SizeToAvailable": 7869,
      "vy": 7870,
      "ared": 7871,
      "LineCost": 7872,
      "Cancellation": 7873,
      "formletter": 7874,
      "Ã©t": 7875,
      "Space": 7876,
      "Ġindirect": 7877,
      "Destinations": 7878,
      "RootDataSource": 7879,
      "Ġemploy": 7880,
      "ĠfreeTextInvoice": 7881,
      "yZWx": 7882,
      "Bg": 7883,
      "Ġstaging": 7884,
      "Ġcalling": 7885,
      "Ġcommission": 7886,
      "ProjectForecast": 7887,
      "Ġbalances": 7888,
      "Ġreserve": 7889,
      "CPF": 7890,
      "VendInvoiceDocumentTmp": 7891,
      "Dri": 7892,
      "lap": 7893,
      "budgetSource": 7894,
      "BillingCode": 7895,
      "Accept": 7896,
      "Ġcreation": 7897,
      "LastDepreciationDate": 7898,
      "Qz": 7899,
      "ItemGroupId": 7900,
      "ToPrint": 7901,
      "Transferred": 7902,
      "Writ": 7903,
      "ĠSetEnumerator": 7904,
      "Complementary": 7905,
      "ĠSysOperationGroupMemberAttribute": 7906,
      "my": 7907,
      "wz": 7908,
      "ular": 7909,
      "ĠtmpDateSum": 7910,
      "FormattingParameters": 7911,
      "ProcessingType": 7912,
      "FCP": 7913,
      "Needed": 7914,
      "serviceCreate": 7915,
      "razil": 7916,
      "SalesTaxDeclarationInfo": 7917,
      "+/": 7918,
      "CK": 7919,
      "Wait": 7920,
      "rec": 7921,
      "LineRevenue": 7922,
      "))));": 7923,
      "ĠassetSum": 7924,
      "CustomerName": 7925,
      "Acq": 7926,
      "Ġarray": 7927,
      "ĠinitFrom": 7928,
      "caption": 7929,
      "RecurrenceInvoice": 7930,
      "Ġbox": 7931,
      "erials": 7932,
      "Ġunder": 7933,
      "TDIM": 7934,
      "OprNum": 7935,
      "Ġautom": 7936,
      "featureRun": 7937,
      "NK": 7938,
      "TypeCode": 7939,
      "Ġback": 7940,
      "ĠsetPrefix": 7941,
      "FBTaxAssessment": 7942,
      "Ġindex": 7943,
      "CBATaxExciseDutyAdvPaym": 7944,
      "FieldGroup": 7945,
      "BankAutomation": 7946,
      "Dg": 7947,
      "bk": 7948,
      "Ġli": 7949,
      "ases": 7950,
      "ViewEditMode": 7951,
      "JobBundle": 7952,
      "Ġranges": 7953,
      "ĠbankLG": 7954,
      "companyInfo": 7955,
      "ĠmapEnumerator": 7956,
      "ĠFBTaxAssessment": 7957,
      "GroupedRecords": 7958,
      "Ġzero": 7959,
      "WebService": 7960,
      "split": 7961,
      "ese": 7962,
      "ByType": 7963,
      "ErrorMessage": 7964,
      "InterestNote": 7965,
      "ĠApplication": 7966,
      "ZZ": 7967,
      "InventTest": 7968,
      "Age": 7969,
      "created": 7970,
      "nodeIdx": 7971,
      "Ġsuccessful": 7972,
      "ssrsReportStr": 7973,
      "Dt": 7974,
      "mand": 7975,
      "ĠDefault": 7976,
      "intrastat": 7977,
      "custInterestJour": 7978,
      "numRef": 7979,
      "wMAUEsDBBQABgAIAAAAIQ": 7980,
      "Sn": 7981,
      "qq": 7982,
      "Ġside": 7983,
      "BudgetAccount": 7984,
      "RuleType": 7985,
      "Identifies": 7986,
      "Ġchanges": 7987,
      "ĠactualsAndBudgetBalances": 7988,
      "serviceCreateLedgerDimension": 7989,
      "getNext": 7990,
      "Ġabout": 7991,
      "formatTxt": 7992,
      "RptTmp": 7993,
      "Ġutcdatetime": 7994,
      "Az": 7995,
      "Pp": 7996,
      "Rounding": 7997,
      "pmf": 7998,
      "ering": 7999,
      "FormEventHandler": 8000,
      "ĠdictTable": 8001,
      "Ġinfolog": 8002,
      "formLetter": 8003,
      "Ġformletter": 8004,
      "150": 8005,
      "IndirectTrans": 8006,
      "ĠinstrumentationLogger": 8007,
      "Qbds": 8008,
      "nz": 8009,
      "InventSizeId": 8010,
      "UserConnection": 8011,
      "Ġinserted": 8012,
      "ĠlegalEntity": 8013,
      "ĠcustBillOfExchangeTrans": 8014,
      "Semi": 8015,
      "AxSecurityFormControl": 8016,
      "TransactionsBy": 8017,
      "PromptString": 8018,
      "statementLine": 8019,
      "Board": 8020,
      "AxSecurityFormControlReference": 8021,
      "Parts": 8022,
      "CustCollectionLetter": 8023,
      "AccountStructure": 8024,
      "ĠnumberSequence": 8025,
      "Ġprocessor": 8026,
      "DeliveryPostalAddress": 8027,
      "Reduc": 8028,
      "ĠprocessLogTransOper": 8029,
      "ModernReconciliation": 8030,
      "Ki": 8031,
      "ROR": 8032,
      "Ġzh": 8033,
      "ĠbankDocument": 8034,
      "cmVs": 8035,
      "IfEmpty": 8036,
      "Ih": 8037,
      "Mh": 8038,
      "VU": 8039,
      "ĠAddress": 8040,
      "entry": 8041,
      "ĠLabels": 8042,
      "InventColorId": 8043,
      "igns": 8044,
      "VersionTable": 8045,
      "ProjTable": 8046,
      "Ġsingle": 8047,
      "TaxWithholdTrans": 8048,
      "Ġzhao": 8049,
      "qd": 8050,
      "vv": 8051,
      "ĠĠĠĠĠĠĠĠĠĠĠĠĠĠĠĠĠĠĠĠĠĠĠĠĠĠĠĠĠĠĠĠĠĠĠĠĠĠĠĠĠĠĠĠĠĠĠĠĠĠĠĠĠĠĠĠ": 8052,
      "InventOwnerId": 8053,
      "NumÃ©ro": 8054,
      "formStr": 8055,
      "OnModified": 8056,
      "Functional": 8057,
      "Ġdisable": 8058,
      "CountrySpecificData": 8059,
      "347": 8060,
      "OCC": 8061,
      "PH": 8062,
      "ctrl": 8063,
      "oday": 8064,
      "TrialBalance": 8065,
      "CustSettlement": 8066,
      "ĠMCR": 8067,
      "UnknownNoYes": 8068,
      "GR": 8069,
      "IB": 8070,
      "va": 8071,
      "index": 8072,
      "Subst": 8073,
      "selection": 8074,
      "Dl": 8075,
      "ording": 8076,
      "parmTarget": 8077,
      "BOMCalcItem": 8078,
      "MassUpdate": 8079,
      "bind": 8080,
      "Ġals": 8081,
      "oose": 8082,
      "ToRelieve": 8083,
      "Ġtop": 8084,
      "BOMVersion": 8085,
      "Identific": 8086,
      "Eg": 8087,
      "urance": 8088,
      "Ġ'%": 8089,
      "ĠBankLCImport": 8090,
      "EUSalesListReporting": 8091,
      "EXT": 8092,
      ",#": 8093,
      "determine": 8094,
      "nh": 8095,
      "qT": 8096,
      "DataPerCompany": 8097,
      "fiscalDocumentTaxTrans": 8098,
      "dimensionAttribute": 8099,
      "PurchRFQCaseLine": 8100,
      "getLast": 8101,
      "QueryBuilder": 8102,
      "à¸¸": 8103,
      "InventTransOriginId": 8104,
      "umulative": 8105,
      "AccountStatementIntTmp": 8106,
      "Ġfill": 8107,
      "FiscalDocuments": 8108,
      "MonetaryAmount": 8109,
      "RemainPhysical": 8110,
      "443": 8111,
      "ki": 8112,
      "ĠĠĠĠĠĠĠĠĠĠĠĠĠĠĠĠĠĠĠĠĠĠĠĠĠĠĠĠĠĠĠĠĠĠĠĠĠĠĠĠĠĠĠĠĠĠĠĠĠĠĠĠĠĠĠĠĠĠĠĠĠĠĠĠĠĠĠĠĠĠĠĠĠĠĠĠĠĠĠ": 8113,
      "BankTransType": 8114,
      "ElementEventArgs": 8115,
      "à¸³": 8116,
      "ForecastScenario": 8117,
      "Ð¾Ð²": 8118,
      "MonthDateDetials": 8119,
      "Xd": 8120,
      "uce": 8121,
      "çļ": 8122,
      "erv": 8123,
      "olds": 8124,
      "AsAssignedBy": 8125,
      "ĠBankCurrencyReval": 8126,
      "ĠtmpProcessLogTrans": 8127,
      "SysObsolete": 8128,
      "TestResult": 8129,
      "ĠFeatureLabelId": 8130,
      "Ãºm": 8131,
      "bindInfo": 8132,
      "çļĦ": 8133,
      "Ġtemplate": 8134,
      "ĠInventLocationId": 8135,
      "TransferId": 8136,
      "ExternalCatalog": 8137,
      "ElectronicReporting": 8138,
      "Ġdestination": 8139,
      "sure": 8140,
      "Formatted": 8141,
      "Ġconnection": 8142,
      "CustomerInvoice": 8143,
      "ProfileType": 8144,
      "budgetPlanHeaderRecId": 8145,
      "wrkCtr": 8146,
      "Ġbilling": 8147,
      "IL": 8148,
      "Ġschem": 8149,
      "Ġcannot": 8150,
      "Guarantee": 8151,
      "bWx": 8152,
      "CostGroupRollup": 8153,
      "Ġnecessary": 8154,
      "..": 8155,
      "Ã½": 8156,
      "DataEventHandler": 8157,
      "import": 8158,
      "ciÃ³n": 8159,
      "ĠPds": 8160,
      "CalcTransData": 8161,
      "BankReconciliationMatching": 8162,
      "physical": 8163,
      "Tutorial": 8164,
      "gi": 8165,
      "SourceLink": 8166,
      "isValid": 8167,
      "ationType": 8168,
      "emption": 8169,
      "getDialogField": 8170,
      "BankStmtISOReportEntry": 8171,
      "ActivityNumber": 8172,
      "Institution": 8173,
      "LMIntegration": 8174,
      "ChgCase": 8175,
      "ĠBE": 8176,
      "element": 8177,
      "InventNonConformance": 8178,
      "Union": 8179,
      "ExchangeRateType": 8180,
      "XmlDoc": 8181,
      "Ġconsolid": 8182,
      "Contribution": 8183,
      "SaveDataPerCompany": 8184,
      "PARTITION": 8185,
      "ĠVAT": 8186,
      "ama": 8187,
      "Workspace": 8188,
      "FBSped": 8189,
      "GZ": 8190,
      "SYP": 8191,
      "PrintCopyOriginal": 8192,
      "budgetAnalysis": 8193,
      "Ġresults": 8194,
      "AssetBookTransaction": 8195,
      "ĠCFMPaymentRequest": 8196,
      "ĠdimAttrValue": 8197,
      "SmallVATAmounts": 8198,
      "ĠMenuItemType": 8199,
      "Qi": 8200,
      "SM": 8201,
      "nÃŃ": 8202,
      "uu": 8203,
      "Ġincluded": 8204,
      "Ġval": 8205,
      "ĠBankLG": 8206,
      "ĠttsCommit": 8207,
      "ĠlogTrans": 8208,
      "Ġbeginning": 8209,
      "OB": 8210,
      "Pd": 8211,
      "send": 8212,
      "upd": 8213,
      "OperationType": 8214,
      "RouteVersion": 8215,
      "NodeId": 8216,
      "AxQuerySimpleRootDataSource": 8217,
      "LedgerAccountAgingTmp": 8218,
      "Cf": 8219,
      "Jh": 8220,
      "Kq": 8221,
      "agement": 8222,
      "101": 8223,
      "MenuFunction": 8224,
      "ĠexchAdj": 8225,
      "à¸£à¸°": 8226,
      "375": 8227,
      "NB": 8228,
      "bre": 8229,
      "Ġcard": 8230,
      "conci": 8231,
      "AxTableFieldInt": 8232,
      "Subbrand": 8233,
      "FDF": 8234,
      "MarkupCode": 8235,
      "Stocked": 8236,
      "UOM": 8237,
      "zd": 8238,
      "UpdateType": 8239,
      "ifik": 8240,
      "107": 8241,
      "Ġorders": 8242,
      "reserve": 8243,
      "YV": 8244,
      "Increase": 8245,
      "Proposed": 8246,
      "DepreciationValue": 8247,
      "VendorName": 8248,
      "ĠFeatureReference": 8249,
      "InventListSumTmp": 8250,
      "OCCRetryCount": 8251,
      "QIt": 8252,
      "kl": 8253,
      "InventStyleId": 8254,
      "ĠMetadata": 8255,
      "Utils": 8256,
      "journalNum": 8257,
      "CFMPaymentRequest": 8258,
      "BPUpgradeCode": 8259,
      "Bt": 8260,
      "FG": 8261,
      "ProjProposal": 8262,
      "ished": 8263,
      "logError": 8264,
      "Ġrules": 8265,
      "ĠdirPartyTable": 8266,
      "Switch": 8267,
      "Take": 8268,
      "bV": 8269,
      "enson": 8270,
      "ado": 8271,
      "ViewDimension": 8272,
      "ABQABgAIAAAAIQ": 8273,
      "ĠDialogButton": 8274,
      "Ġplanned": 8275,
      "QItABQABgAIAAAAIQ": 8276,
      "DIF": 8277,
      "LN": 8278,
      "YJ": 8279,
      "clean": 8280,
      "previous": 8281,
      "TimeSeries": 8282,
      "Ġcompte": 8283,
      "Ġinvoices": 8284,
      "ĠJenson": 8285,
      "ĠlogisticsPostalAddress": 8286,
      "GoodsIn": 8287,
      "ClaimJourEntries": 8288,
      "ĠChen": 8289,
      "Cmd": 8290,
      "dlv": 8291,
      "mx": 8292,
      "Å¾": 8293,
      "ÅĻ": 8294,
      "ĠĠĠĠĠĠĠĠĠĠĠĠĠĠĠĠĠĠĠĠĠĠĠĠĠĠĠĠĠĠĠĠĠĠĠĠĠĠĠĠĠĠĠĠ": 8295,
      "CompanyCode": 8296,
      "Week": 8297,
      "Analyt": 8298,
      "LifeTime": 8299,
      "GS": 8300,
      "HS": 8301,
      "TransSummarization": 8302,
      "ivid": 8303,
      "VendInvoiceInfoLine": 8304,
      "ĠresultDoc": 8305,
      "doUpdate": 8306,
      "ajor": 8307,
      "Ġouter": 8308,
      "FreeText": 8309,
      "SysInstrumentationActivity": 8310,
      "AdvancedLedgerEntryHeader": 8311,
      "Ãºmero": 8312,
      "IK": 8313,
      "ĠcountryRegion": 8314,
      "à¸Ħ": 8315,
      "ĠCase": 8316,
      "ĠtableName": 8317,
      "ColumnRule": 8318,
      "ChangeProposal": 8319,
      "CashDiscAmount": 8320,
      "ConsInvoice": 8321,
      "customer": 8322,
      "ĠSpecTrans": 8323,
      "Ġstructure": 8324,
      "Sender": 8325,
      "holder": 8326,
      "Suppress": 8327,
      "Way": 8328,
      "cJ": 8329,
      "lw": 8330,
      "Qual": 8331,
      "Ġconfig": 8332,
      "Ġtransport": 8333,
      "dataset": 8334,
      "SeqNum": 8335,
      "NT": 8336,
      "Zx": 8337,
      "ĠInitialize": 8338,
      "ĠĠĠĠĠĠĠĠĠĠĠĠĠĠĠĠĠĠĠĠĠĠĠĠĠĠĠĠĠĠĠĠĠĠĠĠĠĠĠĠĠĠĠĠĠĠ": 8339,
      "eph": 8340,
      "Subtotal": 8341,
      "PreEncumbrance": 8342,
      "Deal": 8343,
      "InventPosting": 8344,
      "InventSerialId": 8345,
      "viron": 8346,
      "ĠSysCountryRegionCode": 8347,
      "Than": 8348,
      "Ġintercompany": 8349,
      "vironment": 8350,
      "Two": 8351,
      "ĠAlways": 8352,
      "oded": 8353,
      "InventMov": 8354,
      "TaxRe": 8355,
      "ReportName": 8356,
      "Already": 8357,
      "BalanceList": 8358,
      "Endpoint": 8359,
      "Ġcompare": 8360,
      "Ġalways": 8361,
      "ĠperiodEnd": 8362,
      "Activation": 8363,
      "oredVAT": 8364,
      "Reconcile": 8365,
      "Ġcorresponding": 8366,
      "ĠPaym": 8367,
      "Recurr": 8368,
      "QueryDataSource": 8369,
      "Ġstored": 8370,
      "TopPicking": 8371,
      "Files": 8372,
      "CountryRegionISOCode": 8373,
      "ĠbudgetPlanningProcess": 8374,
      "Ð¾Ð´": 8375,
      "Simulation": 8376,
      "ĠBusinessEvent": 8377,
      "owerAI": 8378,
      "ĠXmlElement": 8379,
      "GAR": 8380,
      "ĠWeb": 8381,
      "Ġfds": 8382,
      "Procedure": 8383,
      "FlightEnabled": 8384,
      "LifecycleStage": 8385,
      "EnterpriseNumber": 8386,
      "Extensibility": 8387,
      "Resolver": 8388,
      "Yi": 8389,
      "cz": 8390,
      "cheque": 8391,
      "åĲ": 8392,
      "LedgerBalance": 8393,
      "ĠAcc": 8394,
      "ĠtransactionTxt": 8395,
      "ModuleType": 8396,
      "BomCalc": 8397,
      "CostingVersion": 8398,
      "à¸µà¹Ī": 8399,
      "Åĳ": 8400,
      "uta": 8401,
      "LedgerAccountType": 8402,
      "ĠInventItem": 8403,
      "UserName": 8404,
      "ĠSysTableLookup": 8405,
      "AmountCurDebit": 8406,
      "Picked": 8407,
      "Ġtasks": 8408,
      "FiscalEstablishmentId": 8409,
      "ChartOfAccounts": 8410,
      "GF": 8411,
      "inventTransId": 8412,
      "ĠttsBegin": 8413,
      "ĠbudgetPlanLineActiveView": 8414,
      "GeographyCode": 8415,
      "Consolidation": 8416,
      "Duration": 8417,
      "ĠØ": 8418,
      "Infolog": 8419,
      "NotEmpty": 8420,
      "ĠCustAccount": 8421,
      "ABS": 8422,
      "ExportAttribute": 8423,
      "SourceDocumentEnumExtensionAttribute": 8424,
      "ReducingBalance": 8425,
      "Average": 8426,
      "UH": 8427,
      "UK": 8428,
      "LineProperty": 8429,
      "apan": 8430,
      "ByCurrency": 8431,
      "loadTable": 8432,
      "AxAggregateDataEntityField": 8433,
      "ephone": 8434,
      "Ġneg": 8435,
      "Ġrevaluation": 8436,
      "ReferenceType": 8437,
      "Ġprepayment": 8438,
      "Ġyou": 8439,
      "HeadingAgingBucketDescription": 8440,
      "NumberSequenceGroup": 8441,
      "Ġlength": 8442,
      "NX": 8443,
      "RT": 8444,
      "ValueMap": 8445,
      "getFormDataSource": 8446,
      "LedgerAccounts": 8447,
      "addTrans": 8448,
      "InventTransArchive": 8449,
      "ERExpressionListCount": 8450,
      "Through": 8451,
      "SheetNodeTable": 8452,
      "Ġpercentage": 8453,
      "Json": 8454,
      "rÃ©": 8455,
      "Ġu": 8456,
      "stor": 8457,
      "AAAAAAAAAAAAAAAAA": 8458,
      "ĠTaxAmount": 8459,
      "AdvanceInvoice": 8460,
      "PersonnelNumber": 8461,
      "\\'": 8462,
      "ĠdocuRef": 8463,
[...]
