{
  "version": "1.0",
  "truncation": null,
  "padding": null,
  "added_tokens": [
    {
      "id": 0,
      "content": "[UNK]",
      "single_word": false,
      "lstrip": false,
      "rstrip": false,
      "normalized": false,
      "special": true
    },
    {
      "id": 1,
      "content": "[PAD]",
      "single_word": false,
      "lstrip": false,
      "rstrip": false,
      "normalized": false,
      "special": true
    },
    {
      "id": 2,
      "content": "<|endoftext|>",
      "single_word": false,
      "lstrip": false,
      "rstrip": false,
      "normalized": false,
      "special": true
    },
    {
      "id": 3,
      "content": "<|file_separator|>",
      "single_word": false,
      "lstrip": false,
      "rstrip": false,
      "normalized": false,
      "special": true
    },
    {
      "id": 4,
      "content": "<|fim_prefix|>",
      "single_word": false,
      "lstrip": false,
      "rstrip": false,
      "normalized": false,
      "special": true
    },
    {
      "id": 5,
      "content": "<|fim_middle|>",
      "single_word": false,
      "lstrip": false,
      "rstrip": false,
      "normalized": false,
      "special": true
    },
    {
      "id": 6,
      "content": "<|fim_suffix|>",
      "single_word": false,
      "lstrip": false,
      "rstrip": false,
      "normalized": false,
      "special": true
    }
  ],
  "normalizer": null,
  "pre_tokenizer": {
    "type": "ByteLevel",
    "add_prefix_space": false,
    "trim_offsets": true,
    "use_regex": true
  },
  "post_processor": null,
  "decoder": {
    "type": "ByteLevel",
    "add_prefix_space": true,
    "trim_offsets": true,
    "use_regex": true
  },
  "model": {
    "type": "BPE",
    "dropout": null,
    "unk_token": "[UNK]",
    "continuing_subword_prefix": null,
    "end_of_word_suffix": null,
    "fuse_unk": false,
    "byte_fallback": false,
    "ignore_merges": false,
    "vocab": {
      "[UNK]": 0,
      "[PAD]": 1,
      "<|endoftext|>": 2,
      "<|file_separator|>": 3,
      "<|fim_prefix|>": 4,
      "<|fim_middle|>": 5,
      "<|fim_suffix|>": 6,
      "!": 7,
      "\"": 8,
      "#": 9,
      "$": 10,
      "%": 11,
      "&": 12,
      "'": 13,
      "(": 14,
      ")": 15,
      "*": 16,
      "+": 17,
      ",": 18,
      "-": 19,
      ".": 20,
      "/": 21,
      "0": 22,
      "1": 23,
      "2": 24,
      "3": 25,
      "4": 26,
      "5": 27,
      "6": 28,
      "7": 29,
      "8": 30,
      "9": 31,
      ":": 32,
      ";": 33,
      "<": 34,
      "=": 35,
      ">": 36,
      "?": 37,
      "@": 38,
      "A": 39,
      "B": 40,
      "C": 41,
      "D": 42,
      "E": 43,
      "F": 44,
      "G": 45,
      "H": 46,
      "I": 47,
      "J": 48,
      "K": 49,
      "L": 50,
      "M": 51,
      "N": 52,
      "O": 53,
      "P": 54,
      "Q": 55,
      "R": 56,
      "S": 57,
      "T": 58,
      "U": 59,
      "V": 60,
      "W": 61,
      "X": 62,
      "Y": 63,
      "Z": 64,
      "[": 65,
      "\\": 66,
      "]": 67,
      "^": 68,
      "_": 69,
      "`": 70,
      "a": 71,
      "b": 72,
      "c": 73,
      "d": 74,
      "e": 75,
      "f": 76,
      "g": 77,
      "h": 78,
      "i": 79,
      "j": 80,
      "k": 81,
      "l": 82,
      "m": 83,
      "n": 84,
      "o": 85,
      "p": 86,
      "q": 87,
      "r": 88,
      "s": 89,
      "t": 90,
      "u": 91,
      "v": 92,
      "w": 93,
      "x": 94,
      "y": 95,
      "z": 96,
      "{": 97,
      "|": 98,
      "}": 99,
      "~": 100,
      "¡": 101,
      "¢": 102,
      "£": 103,
      "¤": 104,
      "¥": 105,
      "¦": 106,
      "§": 107,
      "¨": 108,
      "©": 109,
      "ª": 110,
      "«": 111,
      "¬": 112,
      "®": 113,
      "¯": 114,
      "°": 115,
      "±": 116,
      "²": 117,
      "³": 118,
      "´": 119,
      "µ": 120,
      "¶": 121,
      "·": 122,
      "¸": 123,
      "¹": 124,
      "º": 125,
      "»": 126,
      "¼": 127,
      "½": 128,
      "¾": 129,
      "¿": 130,
      "Â": 131,
      "Ã": 132,
      "Ë": 133,
      "Ð": 134,
      "Ñ": 135,
      "á": 136,
      "â": 137,
      "ã": 138,
      "ä": 139,
      "å": 140,
      "æ": 141,
      "ç": 142,
      "è": 143,
      "é": 144,
      "ï": 145,
      "ĉ": 146,
      "Ċ": 147,
      "Ġ": 148,
      "ġ": 149,
      "Ģ": 150,
      "ģ": 151,
      "Ĥ": 152,
      "ĥ": 153,
      "Ħ": 154,
      "ħ": 155,
      "Ĩ": 156,
      "ĩ": 157,
      "Ī": 158,
      "ī": 159,
      "Ĭ": 160,
      "ĭ": 161,
      "Į": 162,
      "į": 163,
      "İ": 164,
      "ı": 165,
      "Ĳ": 166,
      "ĳ": 167,
      "Ĵ": 168,
      "ĵ": 169,
      "Ķ": 170,
      "ķ": 171,
      "ĸ": 172,
      "Ĺ": 173,
      "ĺ": 174,
      "Ļ": 175,
      "ļ": 176,
      "Ľ": 177,
      "ľ": 178,
      "Ŀ": 179,
      "ŀ": 180,
      "Ł": 181,
      "ł": 182,
      "Ń": 183,
      "ĠĠ": 184,
      "ĠĠĠĠ": 185,
      "ĠĠĠĠĠĠĠĠ": 186,
      "ĠĠĠĠĠĠĠĠĠĠĠĠĠĠĠĠ": 187,
      "ĉĉ": 188,
      "lt": 189,
      "ĠĠĠ": 190,
      "gt": 191,
      "Ġ&": 192,
      "at": 193,
      "on": 194,
      "er": 195,
      "me": 196,
      "el": 197,
      "</": 198,
      ";/": 199,
      "le": 200,
      "in": 201,
      "ĠĠĠĠĠĠĠ": 202,
      "et": 203,
      "ame": 204,
      "ou": 205,
      "or": 206,
      "nt": 207,
      "Name": 208,
      "ce": 209,
      "ĠĠĠĠĠĠĠĠĠĠĠĠĠĠĠĠĠĠĠĠĠĠĠĠ": 210,
      "ar": 211,
      "al": 212,
      "ion": 213,
      "eld": 214,
      "ield": 215,
      "an": 216,
      "Field": 217,
      "//": 218,
      "Dat": 219,
      "ĉĉĉĉ": 220,
      "ab": 221,
      "ty": 222,
      "st": 223,
      "ro": 224,
      "Data": 225,
      "xt": 226,
      "re": 227,
      "ing": 228,
      "our": 229,
      "ĠĠĠĠĠĠĠĠĠĠĠĠĠĠĠĠĠĠĠĠĠĠĠĠĠĠĠĠĠĠĠĠ": 230,
      "ĉĉĉ": 231,
      "Tab": 232,
      "pe": 233,
      "Re": 234,
      "Ax": 235,
      "ont": 236,
      "od": 237,
      "ue": 238,
      "ns": 239,
      "li": 240,
      "ext": 241,
      "ource": 242,
      "ed": 243,
      "ss": 244,
      "ĠĠĠĠĠ": 245,
      "Source": 246,
      "Text": 247,
      "In": 248,
      "ype": 249,
      "Type": 250,
      "th": 251,
      "ct": 252,
      "ur": 253,
      "um": 254,
      "ad": 255,
      "ation": 256,
      "Table": 257,
      "en": 258,
      "tr": 259,
      "=\"": 260,
      "Ġ//": 261,
      "is": 262,
      "eth": 263,
      "Ġ=": 264,
      "tyle": 265,
      "Style": 266,
      "Id": 267,
      "Ġ///": 268,
      "ĠĠĠĠĠĠĠĠĠĠĠĠĠĠĠĠĠĠĠĠĠĠĠĠĠĠĠ": 269,
      "ĠĠĠĠĠĠĠĠĠĠĠ": 270,
      "Par": 271,
      "mp": 272,
      "alue": 273,
      "De": 274,
      "ra": 275,
      ");": 276,
      "ate": 277,
      "Cont": 278,
      "ount": 279,
      "Value": 280,
      "ch": 281,
      "orm": 282,
      "ethod": 283,
      "Method": 284,
      "ag": 285,
      "ĠĠĠĠĠĠĠĠĠĠĠĠĠĠĠĠĠĠĠĠĠĠĠĠĠ": 286,
      "ans": 287,
      "id": 288,
      "Inv": 289,
      "ent": 290,
      "DataField": 291,
      "Ru": 292,
      "ĠĠĠĠĠĠĠĠĠĠĠĠĠĠĠĠĠĠĠĠĠĠĠĠĠĠĠĠĠ": 293,
      "Tr": 294,
      "em": 295,
      "Pro": 296,
      "om": 297,
      "CB": 298,
      "ment": 299,
      "Trans": 300,
      "it": 301,
      "Ġ{": 302,
      "Ġ}": 303,
      "pt": 304,
      "Form": 305,
      "To": 306,
      "ice": 307,
      "get": 308,
      "add": 309,
      "Ġp": 310,
      "CBA": 311,
      "ĠĠĠĠĠĠĠĠĠĠĠĠĠĠĠ": 312,
      "Di": 313,
      "nsion": 314,
      "Ġth": 315,
      "ut": 316,
      "rd": 317,
      "sset": 318,
      "Ġc": 319,
      "ig": 320,
      "am": 321,
      "bo": 322,
      "Ġ<": 323,
      "ell": 324,
      "ust": 325,
      "es": 326,
      "Cell": 327,
      "il": 328,
      "Co": 329,
      "ĠĠĠĠĠĠĠĠĠĠĠĠĠĠĠĠĠĠĠ": 330,
      "adding": 331,
      "Padding": 332,
      "oc": 333,
      "se": 334,
      "Font": 335,
      "rap": 336,
      "Ġ/": 337,
      "rol": 338,
      "mar": 339,
      "raph": 340,
      "ht": 341,
      "par": 342,
      "Tabli": 343,
      "Tablix": 344,
      "Ġf": 345,
      "oice": 346,
      "ud": 347,
      "TextRu": 348,
      "Parag": 349,
      "Paragraph": 350,
      "ter": 351,
      "Invoice": 352,
      "AxTable": 353,
      "rou": 354,
      "Ġ_": 355,
      "la": 356,
      "ity": 357,
      "ine": 358,
      "ord": 359,
      "udget": 360,
      "ort": 361,
      "Control": 362,
      "if": 363,
      "ĠĠĠĠĠĠĠĠĠĠĠĠĠĠĠĠĠĠĠĠĠĠĠĠĠĠĠĠĠĠĠ": 364,
      "true": 365,
      "Cust": 366,
      "roup": 367,
      "::": 368,
      "Ġb": 369,
      "ret": 370,
      "DataSource": 371,
      "Date": 372,
      "per": 373,
      "Tmp": 374,
      "ale": 375,
      "Group": 376,
      "mension": 377,
      "box": 378,
      "ĠĠĠĠĠĠĠĠĠ": 379,
      "Ent": 380,
      "ight": 381,
      "port": 382,
      "ow": 383,
      "Ac": 384,
      "end": 385,
      "()": 386,
      "mary": 387,
      "Ġd": 388,
      "Line": 389,
      "\">": 390,
      "Bo": 391,
      "AxTableField": 392,
      "ri": 393,
      "Rec": 394,
      "ales": 395,
      "iz": 396,
      "Dimension": 397,
      "AT": 398,
      "Str": 399,
      "sum": 400,
      "Def": 401,
      "Ke": 402,
      "retur": 403,
      "ic": 404,
      "ml": 405,
      "Textbox": 406,
      "ect": 407,
      "xml": 408,
      "Le": 409,
      "ew": 410,
      "Rel": 411,
      "Ext": 412,
      "count": 413,
      "ult": 414,
      "AxForm": 415,
      "Sy": 416,
      "Asset": 417,
      "\"&": 418,
      "ode": 419,
      "summary": 420,
      "Am": 421,
      "St": 422,
      "ep": 423,
      "ft": 424,
      "DAT": 425,
      "Ġ(": 426,
      "nal": 427,
      "Sales": 428,
      "DATA": 429,
      "ec": 430,
      "]]": 431,
      "![": 432,
      "CDATA": 433,
      "></": 434,
      "Ġs": 435,
      "><": 436,
      "ĠName": 437,
      "order": 438,
      "Report": 439,
      "ank": 440,
      "><![": 441,
      "]]></": 442,
      "Ġ</": 443,
      "ĠĠĠĠĠĠĠĠĠĠĠĠĠĠĠĠĠĠĠĠĠĠĠ": 444,
      "Amount": 445,
      "Num": 446,
      "ger": 447,
      "Ġv": 448,
      "ery": 449,
      "ĉĉĉĉĉĉĉĉ": 450,
      "int": 451,
      "ameter": 452,
      "idth": 453,
      "Width": 454,
      "Border": 455,
      "Ali": 456,
      "ll": 457,
      "Ġa": 458,
      "Jour": 459,
      "Ġn": 460,
      "He": 461,
      "ated": 462,
      "Budget": 463,
      "Col": 464,
      "ĠĠĠĠĠĠĠĠĠĠĠĠĠĠĠĠĠ": 465,
      "Custom": 466,
      "TablixCell": 467,
      "Ġthe": 468,
      "Account": 469,
      "Left": 470,
      "TypeName": 471,
      "Ġif": 472,
      "Ġxml": 473,
      "able": 474,
      "Ġxmlns": 475,
      "Parameter": 476,
      "Can": 477,
      "ĠĠĠĠĠĠĠĠĠĠĠĠĠĠĠĠĠĠĠĠĠ": 478,
      "uery": 479,
      "row": 480,
      "ction": 481,
      "ance": 482,
      "Ġt": 483,
      "Keep": 484,
      "ault": 485,
      "Proper": 486,
      "fer": 487,
      "Ġ/>": 488,
      "ub": 489,
      "gn": 490,
      "ether": 491,
      "as": 492,
      "stem": 493,
      "String": 494,
      "System": 495,
      "ĠĠĠĠĠĠĠĠĠĠĠĠĠĠĠĠĠĠĠĠĠĠĠĠĠĠĠĠĠĠĠĠĠ": 496,
      "Tog": 497,
      "KeepTog": 498,
      "KeepTogether": 499,
      "ile": 500,
      "ize": 501,
      "();": 502,
      "RecId": 503,
      "ĠĠĠĠĠĠĠĠĠĠĠĠĠĠĠĠĠĠĠĠĠĠĠĠĠĠĠĠĠĠĠĠĠĠĠĠĠĠĠ": 504,
      "abel": 505,
      "ry": 506,
      "Set": 507,
      "Label": 508,
      "ex": 509,
      "Code": 510,
      "TextRun": 511,
      "Relation": 512,
      "TextRuns": 513,
      "Grow": 514,
      "Paragraphs": 515,
      "CanGrow": 516,
      "CustomProper": 517,
      "lic": 518,
      "ax": 519,
      "nd": 520,
      "ocu": 521,
      "rec": 522,
      "DataType": 523,
      "Default": 524,
      "ist": 525,
      "param": 526,
      "ĠĠĠĠĠĠĠĠĠĠĠĠĠĠĠĠĠĠĠĠĠĠĠĠĠĠĠĠĠĠĠĠĠĠĠĠĠĠĠĠĠ": 527,
      "Fields": 528,
      "Size": 529,
      "Ex": 530,
      "ĠĠĠĠĠĠĠĠĠĠĠĠĠĠĠĠĠĠĠĠĠĠĠĠĠĠĠĠĠĠĠĠĠĠĠĠĠĠĠĠĠĠĠ": 531,
      "All": 532,
      "Con": 533,
      "ck": 534,
      "Po": 535,
      "ber": 536,
      "urre": 537,
      "ok": 538,
      "ĠĠĠĠĠĠĠĠĠĠĠĠĠĠĠĠĠĠĠĠĠĠĠĠĠĠĠĠĠĠĠĠĠĠĠ": 539,
      "lass": 540,
      "Ġthis": 541,
      "Journal": 542,
      "No": 543,
      "Ġ/&": 544,
      "ge": 545,
      "Content": 546,
      "ĉĉĉĉĉ": 547,
      "Yes": 548,
      "ib": 549,
      "Ġretur": 550,
      "ser": 551,
      "Ġreturn": 552,
      "ĠĠĠĠĠĠĠĠĠĠĠĠĠĠĠĠĠĠĠĠĠĠĠĠĠĠĠĠĠĠĠĠĠĠĠĠĠĠĠĠĠĠĠĠĠĠĠ": 553,
      "Dis": 554,
      "Invent": 555,
      "iew": 556,
      "It": 557,
      "ocument": 558,
      "Contents": 559,
      "up": 560,
      "Query": 561,
      "ily": 562,
      "CellContents": 563,
      "Item": 564,
      "Head": 565,
      "Ġin": 566,
      "ence": 567,
      "FontSize": 568,
      "ublic": 569,
      "Fam": 570,
      "Family": 571,
      "FontFamily": 572,
      "tt": 573,
      "Ġ==": 574,
      "ference": 575,
      "Align": 576,
      "ption": 577,
      "urch": 578,
      "Top": 579,
      "type": 580,
      "Bott": 581,
      "Reference": 582,
      "Bottom": 583,
      "Ġw": 584,
      "CustomProperty": 585,
      "PaddingLeft": 586,
      "Right": 587,
      "Led": 588,
      "Ledger": 589,
      "cess": 590,
      "Entity": 591,
      "View": 592,
      "Bank": 593,
      "Header": 594,
      "AxTableFieldGroup": 595,
      "Document": 596,
      "Ma": 597,
      "iv": 598,
      "Tax": 599,
      "nc": 600,
      "ers": 601,
      "Allow": 602,
      "Ġpublic": 603,
      "og": 604,
      "ay": 605,
      "parm": 606,
      "Dep": 607,
      "=\"\"": 608,
      "Ind": 609,
      "DataSourceField": 610,
      "ject": 611,
      "))": 612,
      "str": 613,
      "alc": 614,
      "Entry": 615,
      "Exte": 616,
      "Loc": 617,
      "ator": 618,
      "Pl": 619,
      "Ad": 620,
      "eg": 621,
      "Sec": 622,
      "AxFormDataSourceField": 623,
      "Extension": 624,
      "20": 625,
      "Index": 626,
      "us": 627,
      "En": 628,
      "AX": 629,
      "Curre": 630,
      "DefaultName": 631,
      "Ġfor": 632,
      "he": 633,
      "Purch": 634,
      "Is": 635,
      "TextAlign": 636,
      "ĠĠĠĠĠĠĠĠĠĠĠĠĠĠĠĠĠĠĠĠĠĠĠĠĠĠĠĠĠĠĠĠĠĠĠĠĠĠĠĠĠĠĠĠĠĠĠĠĠ": 637,
      "urity": 638,
      "SalesInvoice": 639,
      "Plan": 640,
      "rom": 641,
      "Security": 642,
      "ĠCBA": 643,
      "ure": 644,
      "ener": 645,
      "returns": 646,
      "ncy": 647,
      "AxSecurity": 648,
      "Cre": 649,
      "Color": 650,
      "ED": 651,
      "Ġo": 652,
      "ended": 653,
      "ail": 654,
      "ree": 655,
      "date": 656,
      "Ġ&&": 657,
      "Ġasset": 658,
      "Vend": 659,
      "Pr": 660,
      "At": 661,
      "Per": 662,
      "pla": 663,
      "one": 664,
      "Int": 665,
      "Extended": 666,
      "ute": 667,
      "Ġ\"": 668,
      "///": 669,
      "Attr": 670,
      "(_": 671,
      "age": 672,
      "ase": 673,
      "EDT": 674,
      "bject": 675,
      "atch": 676,
      "any": 677,
      "ExtendedDataType": 678,
      "Book": 679,
      "Ġpro": 680,
      "reci": 681,
      ">@": 682,
      "action": 683,
      "ĠAsset": 684,
      "RP": 685,
      "ersion": 686,
      "ww": 687,
      "Attrib": 688,
      "Ġwh": 689,
      "alse": 690,
      "Comp": 691,
      "riv": 692,
      "RPT": 693,
      "ole": 694,
      "Currency": 695,
      "Ch": 696,
      "play": 697,
      "vel": 698,
      "and": 699,
      "User": 700,
      "ĠĠĠĠĠĠĠĠĠĠĠĠĠĠĠĠĠĠĠĠĠĠĠĠĠĠĠĠĠĠĠĠĠĠĠĠĠĠĠĠĠĠĠĠĠ": 701,
      "Rule": 702,
      "Defin": 703,
      "Up": 704,
      "Ġname": 705,
      "Aut": 706,
      ";=": 707,
      "Attribute": 708,
      "DataSet": 709,
      "Gener": 710,
      "cl": 711,
      "AxReport": 712,
      "ition": 713,
      "led": 714,
      "Display": 715,
      "Class": 716,
      "Object": 717,
      "vent": 718,
      "Ca": 719,
      "None": 720,
      "ir": 721,
      "PaddingRight": 722,
      "Auto": 723,
      "Ġis": 724,
      "reciation": 725,
      "ange": 726,
      "25": 727,
      "CBARPT": 728,
      "Of": 729,
      "01": 730,
      "ack": 731,
      "AxTableFieldGroupField": 732,
      "Ġto": 733,
      "Ġbudget": 734,
      "ili": 735,
      "set": 736,
      "Ġre": 737,
      "oid": 738,
      "Ġl": 739,
      "AxDimension": 740,
      "DataEntity": 741,
      "Calc": 742,
      "AxFormControl": 743,
      "Sh": 744,
      "Colum": 745,
      "ĉĉĉĉĉĉĉ": 746,
      "dit": 747,
      "Ġvoid": 748,
      "PaddingBottom": 749,
      "PaddingTop": 750,
      "ial": 751,
      "etail": 752,
      "ks": 753,
      "The": 754,
      "stance": 755,
      "ĠĠĠĠĠĠĠĠĠĠĠĠĠĠĠĠĠĠĠĠĠĠĠĠĠĠĠĠĠĠĠĠĠĠĠĠĠ": 756,
      "ime": 757,
      "atement": 758,
      "olean": 759,
      "Process": 760,
      "Map": 761,
      "For": 762,
      "Parameters": 763,
      "));": 764,
      "ress": 765,
      "AxReportDataSet": 766,
      "Alias": 767,
      "SY": 768,
      "iod": 769,
      "file": 770,
      "ract": 771,
      "),": 772,
      "atus": 773,
      "alance": 774,
      "ledger": 775,
      "Company": 776,
      "SYS": 777,
      "ĉĉĉĉĉĉ": 778,
      "elect": 779,
      "Ord": 780,
      "Transaction": 781,
      "boolean": 782,
      "List": 783,
      "alid": 784,
      "Methods": 785,
      "ory": 786,
      "ĠĠĠĠĠĠĠĠĠĠĠĠĠĠĠĠĠĠĠĠĠĠĠĠĠĠĠĠĠĠĠĠĠĠĠĠĠĠĠĠĠĠĠĠĠĠĠĠĠĠĠ": 787,
      "Mod": 788,
      "Mem": 789,
      "Ġst": 790,
      "We": 791,
      "Ġq": 792,
      "Column": 793,
      "ization": 794,
      "Height": 795,
      "lement": 796,
      "ul": 797,
      "Member": 798,
      "Pay": 799,
      "Ġof": 800,
      "Time": 801,
      "ld": 802,
      "ker": 803,
      "Row": 804,
      "Lo": 805,
      "ĠU": 806,
      "Key": 807,
      "ind": 808,
      "Ag": 809,
      "Balance": 810,
      "aration": 811,
      "Weight": 812,
      "ert": 813,
      "Ġm": 814,
      "Const": 815,
      "Order": 816,
      "Local": 817,
      "ain": 818,
      "ies": 819,
      "Status": 820,
      "By": 821,
      "Decl": 822,
      "Sum": 823,
      "Post": 824,
      "os": 825,
      "BudgetPlan": 826,
      "ped": 827,
      "Declaration": 828,
      "ore": 829,
      "Seg": 830,
      "Number": 831,
      "Detail": 832,
      "Ġen": 833,
      "Ġboolean": 834,
      "ear": 835,
      "Enum": 836,
      "ly": 837,
      "ere": 838,
      "FontWeight": 839,
      "ual": 840,
      "Ġpar": 841,
      "On": 842,
      "uct": 843,
      "ata": 844,
      "ip": 845,
      "FormControl": 846,
      "Free": 847,
      "Related": 848,
      "Ġnew": 849,
      "Prod": 850,
      "sc": 851,
      "Del": 852,
      "ĠUI": 853,
      "Defined": 854,
      "oe": 855,
      "ĠĠĠĠĠĠĠĠĠĠĠĠĠ": 856,
      "Segoe": 857,
      "ive": 858,
      "field": 859,
      "marks": 860,
      "UserDefined": 861,
      "Pre": 862,
      "AxReportDataSetField": 863,
      "SourceCode": 864,
      "DisplayWidth": 865,
      "Ġclass": 866,
      "ĠThe": 867,
      "Ġby": 868,
      "asset": 869,
      "ver": 870,
      "Mon": 871,
      "raint": 872,
      "Caption": 873,
      "Constraint": 874,
      "Depreciation": 875,
      "NoYes": 876,
      "Sch": 877,
      "Statement": 878,
      "inal": 879,
      "Ġ1": 880,
      "Priv": 881,
      "eck": 882,
      "TablixMember": 883,
      "Ġ0": 884,
      "remarks": 885,
      "Create": 886,
      "Qty": 887,
      "Add": 888,
      "DataEntityView": 889,
      "Privile": 890,
      "Log": 891,
      "record": 892,
      "act": 893,
      "AxDataEntityView": 894,
      "ork": 895,
      "Ġcont": 896,
      "00": 897,
      "ror": 898,
      ")&": 899,
      "Period": 900,
      "Point": 901,
      "instance": 902,
      "EntryPoint": 903,
      "OM": 904,
      "velo": 905,
      "Ġwhere": 906,
      "Ref": 907,
      "Update": 908,
      "Run": 909,
      "ĉĉĉĉĉĉĉĉĉ": 910,
      "iker": 911,
      "Moniker": 912,
      "Me": 913,
      "rea": 914,
      "ds": 915,
      "FreeText": 916,
      "Ġbank": 917,
      "Bu": 918,
      "ML": 919,
      "Edit": 920,
      "ouch": 921,
      "Un": 922,
      "Privilege": 923,
      "find": 924,
      "Ġversion": 925,
      "this": 926,
      "Ġfield": 927,
      "FreeTextInvoice": 928,
      "Price": 929,
      "tp": 930,
      "XML": 931,
      "im": 932,
      "AxSecurityPrivilege": 933,
      "From": 934,
      "Year": 935,
      "Develo": 936,
      "://": 937,
      "http": 938,
      "false": 939,
      "ST": 940,
      "Sys": 941,
      "Conf": 942,
      "Read": 943,
      "que": 944,
      "oucher": 945,
      "ific": 946,
      "Ġenc": 947,
      "ith": 948,
      "fo": 949,
      "org": 950,
      "IN": 951,
      "Ġ+": 952,
      "Format": 953,
      "parator": 954,
      "AXEDT": 955,
      "utf": 956,
      "ties": 957,
      "Ġencod": 958,
      "ical": 959,
      "Ġencoding": 960,
      "Relations": 961,
      "\"?": 962,
      "DS": 963,
      "Hel": 964,
      "Ign": 965,
      "EDTRelation": 966,
      "Localization": 967,
      "Ignore": 968,
      "Print": 969,
      "ĠBank": 970,
      "separator": 971,
      "ema": 972,
      "Schema": 973,
      "www": 974,
      "2001": 975,
      "<?": 976,
      "\"?>": 977,
      "<|": 978,
      "|>": 979,
      "XMLSchema": 980,
      "IgnoreEDTRelation": 981,
      "scri": 982,
      "JP": 983,
      "Ġfrom": 984,
      "irst": 985,
      "oo": 986,
      "Ġel": 987,
      "Ġg": 988,
      "Reg": 989,
      "Ġj": 990,
      "pro": 991,
      "Dim": 992,
      "onc": 993,
      "Generated": 994,
      "Res": 995,
      "ics": 996,
      "Or": 997,
      "ull": 998,
      "ĠC": 999,
      "tal": 1000,
      "trans": 1001,
      "ete": 1002,
      "Cost": 1003,
      "oin": 1004,
      "Men": 1005,
      "Menu": 1006,
      "ard": 1007,
      "Mode": 1008,
      "ild": 1009,
      "IsSystem": 1010,
      "qu": 1011,
      "ification": 1012,
      "IsSystemGenerated": 1013,
      "isib": 1014,
      "BOM": 1015,
      "art": 1016,
      "un": 1017,
      "Ġret": 1018,
      "ve": 1019,
      "Contract": 1020,
      "Ġtrue": 1021,
      "Ġledger": 1022,
      "ution": 1023,
      "AxClass": 1024,
      "omm": 1025,
      "Ġ'": 1026,
      "Out": 1027,
      "Inter": 1028,
      "ĠDevelo": 1029,
      "Ġ(!": 1030,
      "JournalTrans": 1031,
      "BottomBorder": 1032,
      "text": 1033,
      "DateTime": 1034,
      "LocalizationTmp": 1035,
      "().": 1036,
      "Count": 1037,
      "Ġelse": 1038,
      "form": 1039,
      "Man": 1040,
      "ĠDeveloped": 1041,
      "lo": 1042,
      "ility": 1043,
      "Ġ\"_": 1044,
      "Info": 1045,
      "ID": 1046,
      "Act": 1047,
      "ef": 1048,
      "Voucher": 1049,
      "QueryParameter": 1050,
      "Address": 1051,
      "abled": 1052,
      "all": 1053,
      "Bla": 1054,
      "Black": 1055,
      "co": 1056,
      "=\"_": 1057,
      "TransDate": 1058,
      "ected": 1059,
      "Ġ[": 1060,
      "textbox": 1061,
      "rid": 1062,
      "Ġstr": 1063,
      "out": 1064,
      "ier": 1065,
      "TablixColumn": 1066,
      "val": 1067,
      "AxSecurityEntryPoint": 1068,
      "AxSecurityEntryPointReference": 1069,
      "tected": 1070,
      "Ġparm": 1071,
      "Foo": 1072,
      "Ġrecord": 1073,
      "Footer": 1074,
      "RU": 1075,
      "Element": 1076,
      "Ġprotected": 1077,
      "FormControlExtension": 1078,
      "idd": 1079,
      "Ġdated": 1080,
      "Exp": 1081,
      "ertical": 1082,
      "Vertical": 1083,
      "ning": 1084,
      "SalesInvoiceTmp": 1085,
      "Record": 1086,
      "Unit": 1087,
      "oncili": 1088,
      "onciliation": 1089,
      "Controls": 1090,
      "urrent": 1091,
      "Ġset": 1092,
      "update": 1093,
      "Dist": 1094,
      "rib": 1095,
      "fieldNum": 1096,
      "())": 1097,
      "okup": 1098,
      "AllowEdit": 1099,
      "HeaderFooter": 1100,
      "Visib": 1101,
      "Ġcon": 1102,
      "ĠĠĠĠĠĠ": 1103,
      "CustomProperties": 1104,
      "ang": 1105,
      "ign": 1106,
      "Ġfalse": 1107,
      "gs": 1108,
      "amount": 1109,
      "Disc": 1110,
      "Lin": 1111,
      "ĠA": 1112,
      "Valid": 1113,
      "nil": 1114,
      "Tra": 1115,
      "atic": 1116,
      "Work": 1117,
      "Ġinvent": 1118,
      "ant": 1119,
      "ĠF": 1120,
      "arch": 1121,
      "idden": 1122,
      "Location": 1123,
      "Gra": 1124,
      "Ġme": 1125,
      "rivate": 1126,
      "Er": 1127,
      "Show": 1128,
      "Grant": 1129,
      "Ġprivate": 1130,
      "Error": 1131,
      "Hidden": 1132,
      "ateg": 1133,
      "Descri": 1134,
      "(\"": 1135,
      "RelationConstraint": 1136,
      "Level": 1137,
      "\",": 1138,
      "Description": 1139,
      "Ġex": 1140,
      "Ġselect": 1141,
      "Accounting": 1142,
      "Ġvalue": 1143,
      "With": 1144,
      "Delete": 1145,
      "Ġ!": 1146,
      "Version": 1147,
      "Acc": 1148,
      "Qu": 1149,
      "mt": 1150,
      "Ret": 1151,
      "Match": 1152,
      "Track": 1153,
      "AxSecurityPrivilegeReference": 1154,
      "rect": 1155,
      "DE": 1156,
      "reement": 1157,
      "Ġquery": 1158,
      "ssion": 1159,
      "Ġch": 1160,
      "Pri": 1161,
      "emp": 1162,
      "Tracking": 1163,
      "Fi": 1164,
      "Sp": 1165,
      "ol": 1166,
      "ĠBudget": 1167,
      "06": 1168,
      "Ġstatic": 1169,
      "Cur": 1170,
      "budget": 1171,
      "End": 1172,
      "ot": 1173,
      "TablixRow": 1174,
      "ite": 1175,
      "Mar": 1176,
      "ategory": 1177,
      "Pack": 1178,
      "imp": 1179,
      "VerticalAlign": 1180,
      "LedgerDimension": 1181,
      "Load": 1182,
      "Rate": 1183,
      "pos": 1184,
      "ast": 1185,
      "con": 1186,
      "ZIndex": 1187,
      "Reconciliation": 1188,
      "ule": 1189,
      "Ap": 1190,
      "lter": 1191,
      "Proj": 1192,
      "Oper": 1193,
      "Ġtable": 1194,
      "Ġr": 1195,
      "Enabled": 1196,
      "RelatedField": 1197,
      "cm": 1198,
      "TransType": 1199,
      "ĠĠĠĠĠĠĠĠĠĠĠĠĠĠĠĠĠĠĠĠĠĠĠĠĠĠĠĠĠĠĠĠĠĠĠĠĠĠĠĠĠĠĠĠĠĠĠĠĠĠĠĠĠ": 1200,
      "ĠN": 1201,
      "Sub": 1202,
      "ble": 1203,
      "yn": 1204,
      "Paym": 1205,
      "Distrib": 1206,
      "pr": 1207,
      "ler": 1208,
      "table": 1209,
      "ItemId": 1210,
      "ccount": 1211,
      "Total": 1212,
      "Ġtrans": 1213,
      "isc": 1214,
      "Definition": 1215,
      "ĠSys": 1216,
      "oli": 1217,
      "Action": 1218,
      "2025": 1219,
      "ise": 1220,
      "asure": 1221,
      "MST": 1222,
      "ynam": 1223,
      "ound": 1224,
      "Measure": 1225,
      "Transfer": 1226,
      "MenuItem": 1227,
      "olid": 1228,
      "ouble": 1229,
      "Integ": 1230,
      "ierarch": 1231,
      "TopBorder": 1232,
      "Double": 1233,
      "Range": 1234,
      "SalesInvoiceLocalizationTmp": 1235,
      "());": 1236,
      "Category": 1237,
      "Dynam": 1238,
      "Check": 1239,
      "ĠĠĠĠĠĠĠĠĠĠĠĠĠĠĠĠĠĠĠĠĠĠĠĠĠĠĠĠĠĠĠĠĠĠĠĠĠĠĠĠĠĠĠĠĠĠĠĠĠĠĠĠĠĠĠ": 1240,
      "Select": 1241,
      "ifi": 1242,
      "imension": 1243,
      "Ġcase": 1244,
      "Batch": 1245,
      "AxDataEntityViewField": 1246,
      "ObjectType": 1247,
      "DEV": 1248,
      "SourceDocument": 1249,
      "26": 1250,
      "ost": 1251,
      "aging": 1252,
      "Not": 1253,
      "DataSources": 1254,
      "ified": 1255,
      "cent": 1256,
      "ierarchy": 1257,
      "Over": 1258,
      "Cor": 1259,
      "DD": 1260,
      "sert": 1261,
      "Details": 1262,
      "Sett": 1263,
      "Se": 1264,
      "Base": 1265,
      "ature": 1266,
      "reak": 1267,
      "Helper": 1268,
      "mi": 1269,
      "posal": 1270,
      "(),": 1271,
      "ton": 1272,
      "ys": 1273,
      "Bl": 1274,
      "iscal": 1275,
      "ba": 1276,
      "Orig": 1277,
      "ping": 1278,
      "ĠQuery": 1279,
      "(\"@": 1280,
      "AxTableFieldString": 1281,
      "Ġcust": 1282,
      "ill": 1283,
      "Ġdep": 1284,
      "Imp": 1285,
      "FieldReference": 1286,
      "ssage": 1287,
      "HeaderFooterTmp": 1288,
      "Build": 1289,
      "pec": 1290,
      "=\"\">": 1291,
      "Null": 1292,
      "Customer": 1293,
      "Aging": 1294,
      "Solid": 1295,
      "cont": 1296,
      "Ġbe": 1297,
      "Get": 1298,
      "ObjectName": 1299,
      "struct": 1300,
      "Bold": 1301,
      "eature": 1302,
      "bds": 1303,
      "Ġjoin": 1304,
      "BP": 1305,
      "Hierarchy": 1306,
      "Ġamount": 1307,
      "thod": 1308,
      "Visibility": 1309,
      "Context": 1310,
      "Posting": 1311,
      "DimensionField": 1312,
      "Mark": 1313,
      "Use": 1314,
      "ulate": 1315,
      "Distribution": 1316,
      "Ġdate": 1317,
      "atory": 1318,
      "ĉĉĉĉĉĉĉĉĉĉĉ": 1319,
      "mpt": 1320,
      "0625": 1321,
      "Ġvend": 1322,
      "ĠĠĠĠĠĠĠĠĠĠĠĠĠĠĠĠĠĠĠĠĠĠĠĠĠĠĠĠĠĠĠĠĠĠĠĠĠĠĠĠĠĠĠĠĠĠĠĠĠĠĠĠĠĠĠĠĠ": 1323,
      "old": 1324,
      "Lookup": 1325,
      "Req": 1326,
      "Payment": 1327,
      "efault": 1328,
      "AxDimensionFieldReference": 1329,
      "Ġ!=": 1330,
      "TablixCells": 1331,
      "And": 1332,
      "Ġbreak": 1333,
      "Ġ|": 1334,
      "Config": 1335,
      "mission": 1336,
      "Card": 1337,
      "ĠLedger": 1338,
      "Ġh": 1339,
      "vice": 1340,
      "alend": 1341,
      "Ġsales": 1342,
      "Ġ||": 1343,
      "CurrencyCode": 1344,
      "reate": 1345,
      "alendar": 1346,
      "Rev": 1347,
      "Th": 1348,
      "Ġint": 1349,
      "Ġ-": 1350,
      "Access": 1351,
      "ĠInvent": 1352,
      "Alloc": 1353,
      ".</": 1354,
      "low": 1355,
      "Ar": 1356,
      "alJournal": 1357,
      "Model": 1358,
      "RightBorder": 1359,
      "utton": 1360,
      "Labels": 1361,
      "istics": 1362,
      "Vendor": 1363,
      "Ser": 1364,
      "Area": 1365,
      "ries": 1366,
      "Prompt": 1367,
      "10": 1368,
      "Product": 1369,
      "Ġext": 1370,
      "Ġmethod": 1371,
      "ception": 1372,
      "Processing": 1373,
      "cel": 1374,
      "Exch": 1375,
      "Ġtmp": 1376,
      "Simp": 1377,
      "Permission": 1378,
      "Agreement": 1379,
      "Simple": 1380,
      "Met": 1381,
      "Ġand": 1382,
      "Staging": 1383,
      "so": 1384,
      "LeftBorder": 1385,
      "Emp": 1386,
      "value": 1387,
      "!@": 1388,
      "Credit": 1389,
      "ression": 1390,
      "Start": 1391,
      "Lines": 1392,
      "Ġor": 1393,
      "Blank": 1394,
      "SalesInvoiceHeaderFooterTmp": 1395,
      "Exec": 1396,
      "Ġdimension": 1397,
      "Adj": 1398,
      "andatory": 1399,
      "Reporting": 1400,
      "RelatedTable": 1401,
      "che": 1402,
      "invent": 1403,
      "Eu": 1404,
      "Ġget": 1405,
      "pen": 1406,
      "Ġ(_": 1407,
      "Euro": 1408,
      "inality": 1409,
      "Cardinality": 1410,
      "Region": 1411,
      "AM": 1412,
      "rection": 1413,
      "soft": 1414,
      "ĠbudgetPlan": 1415,
      "WH": 1416,
      "FDD": 1417,
      "Ġqbds": 1418,
      "DimensionAttribute": 1419,
      "bank": 1420,
      "Profile": 1421,
      "AccountStatement": 1422,
      "Expression": 1423,
      "Button": 1424,
      "rosoft": 1425,
      "icrosoft": 1426,
      "ade": 1427,
      "put": 1428,
      "EL": 1429,
      "ournal": 1430,
      "rual": 1431,
      "Mandatory": 1432,
      "AxQuery": 1433,
      "Ġcalc": 1434,
      "AxTableRelationConstraint": 1435,
      "AllowBlank": 1436,
      "adata": 1437,
      "Calendar": 1438,
      "alidate": 1439,
      "Comm": 1440,
      "item": 1441,
      "First": 1442,
      "erator": 1443,
      "Operation": 1444,
      "Metadata": 1445,
      "AxDimensionAttribute": 1446,
      "num": 1447,
      "Mapping": 1448,
      "Back": 1449,
      "KeyFields": 1450,
      "Ġcontrol": 1451,
      "Off": 1452,
      "flow": 1453,
      "Constraints": 1454,
      "11": 1455,
      "quis": 1456,
      "ap": 1457,
      "itle": 1458,
      "Maint": 1459,
      "erm": 1460,
      "Ġ#": 1461,
      "quisition": 1462,
      "uration": 1463,
      "TableId": 1464,
      "AmountMST": 1465,
      "DataArea": 1466,
      "AxQuerySimple": 1467,
      "new": 1468,
      "ary": 1469,
      "Classification": 1470,
      "Feature": 1471,
      "Ins": 1472,
      "ivity": 1473,
      "Filter": 1474,
      "Title": 1475,
      "ternal": 1476,
      "Ġdata": 1477,
      "quest": 1478,
      "ists": 1479,
      "Ġform": 1480,
      "init": 1481,
      "AxTableIndex": 1482,
      "ainer": 1483,
      "Markup": 1484,
      "Dynamics": 1485,
      "vid": 1486,
      "lip": 1487,
      "ĠĠĠĠĊ": 1488,
      "PO": 1489,
      "ĠBudgetPlan": 1490,
      "Ġaccount": 1491,
      "ac": 1492,
      "sh": 1493,
      "ReportParameter": 1494,
      "Help": 1495,
      "Result": 1496,
      "CellDefinition": 1497,
      "Microsoft": 1498,
      "Accrual": 1499,
      "are": 1500,
      "Change": 1501,
      "Ġprocess": 1502,
      "uction": 1503,
      "mpany": 1504,
      "Entries": 1505,
      "Ġthat": 1506,
      "12": 1507,
      "Ġsource": 1508,
      "Nullable": 1509,
      "Ġnum": 1510,
      "Primary": 1511,
      "Ġ*": 1512,
      "Deliv": 1513,
      "let": 1514,
      "Page": 1515,
      "InvoiceJour": 1516,
      "ration": 1517,
      "VAT": 1518,
      "Ġsu": 1519,
      "Summary": 1520,
      "query": 1521,
      "Ġcurrent": 1522,
      "ĠNoYes": 1523,
      "ParameterName": 1524,
      "Grid": 1525,
      "lig": 1526,
      "Forms": 1527,
      "Du": 1528,
      "Message": 1529,
      "Pat": 1530,
      "Retur": 1531,
      "Slip": 1532,
      "WHS": 1533,
      "Real": 1534,
      "ColumnIndex": 1535,
      "RowIndex": 1536,
      "Span": 1537,
      "args": 1538,
      "Duty": 1539,
      "Open": 1540,
      "Ġdepreciation": 1541,
      "Output": 1542,
      "Ġper": 1543,
      "Current": 1544,
      "AXDataType": 1545,
      "Direction": 1546,
      "Adv": 1547,
      "Packing": 1548,
      "ari": 1549,
      "ends": 1550,
      "New": 1551,
      "AB": 1552,
      "Ġline": 1553,
      "AmountCur": 1554,
      "Part": 1555,
      "insert": 1556,
      "Correct": 1557,
      "Permissions": 1558,
      "alog": 1559,
      "Ġtransaction": 1560,
      "antity": 1561,
      "Ġpurch": 1562,
      "qui": 1563,
      "State": 1564,
      "Enumerator": 1565,
      "ther": 1566,
      "ĠassetBook": 1567,
      "Fact": 1568,
      "error": 1569,
      "current": 1570,
      ")]": 1571,
      "SO": 1572,
      "Ġ''": 1573,
      "Ġwhile": 1574,
      "construct": 1575,
      "Em": 1576,
      "amp": 1577,
      "Ġcheck": 1578,
      "Types": 1579,
      "Rout": 1580,
      "Ġres": 1581,
      "StringControl": 1582,
      "assetBook": 1583,
      "est": 1584,
      "ialog": 1585,
      "ĠfieldNum": 1586,
      "InventDim": 1587,
      "14": 1588,
      "Ġsuper": 1589,
      "Dec": 1590,
      "Setup": 1591,
      "Event": 1592,
      "Import": 1593,
      "Confir": 1594,
      "LC": 1595,
      "Module": 1596,
      "Main": 1597,
      "Ġextends": 1598,
      "data": 1599,
      "light": 1600,
      "RefRecId": 1601,
      "Delivery": 1602,
      "ev": 1603,
      "DEVInteg": 1604,
      "Ġon": 1605,
      "onth": 1606,
      "Ġupdate": 1607,
      "Property": 1608,
      "Cache": 1609,
      "ĠS": 1610,
      "64": 1611,
      "Ġbom": 1612,
      "NAM": 1613,
      "Ġfirst": 1614,
      "Parent": 1615,
      "ColSpan": 1616,
      "Route": 1617,
      "ink": 1618,
      "arget": 1619,
      "tern": 1620,
      "Ġtt": 1621,
      "MS": 1622,
      "pend": 1623,
      "DataElement": 1624,
      "Ġinstance": 1625,
      "tableNum": 1626,
      "HelpText": 1627,
      "Exchange": 1628,
      "round": 1629,
      "Dialog": 1630,
      ";=\"": 1631,
      "Allocation": 1632,
      "NAME": 1633,
      "CurrencyAmount": 1634,
      "cle": 1635,
      "13": 1636,
      "Ġ:": 1637,
      "Insert": 1638,
      "PackingSlip": 1639,
      "Ġthrow": 1640,
      "JournalTable": 1641,
      "EInvoice": 1642,
      "prm": 1643,
      "Ġerror": 1644,
      "Configuration": 1645,
      "Ġ>": 1646,
      "('": 1647,
      "Pattern": 1648,
      "ove": 1649,
      "ash": 1650,
      "cba": 1651,
      "DataAreaId": 1652,
      "cust": 1653,
      "Proposal": 1654,
      "SourceDocumentLine": 1655,
      "TH": 1656,
      "2026": 1657,
      "prmis": 1658,
      "SourceTracking": 1659,
      "Pos": 1660,
      "ĉĉĉĉĉĉĉĉĉĉ": 1661,
      "PrePrint": 1662,
      "Party": 1663,
      "AXEDTTextAlign": 1664,
      "AXEDTFormat": 1665,
      "AXEDTDirection": 1666,
      "Quantity": 1667,
      "Service": 1668,
      "Request": 1669,
      "Lay": 1670,
      "Interval": 1671,
      "clud": 1672,
      "ulation": 1673,
      "cise": 1674,
      "create": 1675,
      "Char": 1676,
      "main": 1677,
      "Ġcan": 1678,
      "ĠB": 1679,
      "hip": 1680,
      "iscalCalendar": 1681,
      "Temp": 1682,
      "ĠBOM": 1683,
      "imit": 1684,
      "CR": 1685,
      "SalesTable": 1686,
      "LAB": 1687,
      "Ġent": 1688,
      "LABEL": 1689,
      "Ship": 1690,
      "Settlement": 1691,
      "Join": 1692,
      "source": 1693,
      "Ġ+=": 1694,
      "ask": 1695,
      "pedField": 1696,
      "Rece": 1697,
      "Excise": 1698,
      "Role": 1699,
      "calc": 1700,
      "Ġnot": 1701,
      "ecast": 1702,
      "ero": 1703,
      "Generate": 1704,
      "BankAccount": 1705,
      "VendInvoice": 1706,
      "Ġdocument": 1707,
      "Project": 1708,
      "Country": 1709,
      "16": 1710,
      "centive": 1711,
      "PurchReq": 1712,
      "FreeTextInvoiceTmp": 1713,
      "Com": 1714,
      "class": 1715,
      "budgetPlan": 1716,
      "bound": 1717,
      "ĠledgerJournalTrans": 1718,
      "Reser": 1719,
      "nse": 1720,
      "bate": 1721,
      "ĠRecId": 1722,
      "Controller": 1723,
      "Args": 1724,
      "BudgetControl": 1725,
      "unction": 1726,
      "EnumType": 1727,
      "Heading": 1728,
      "Purchase": 1729,
      "ĠM": 1730,
      "ection": 1731,
      "Workflow": 1732,
      "Active": 1733,
      "ĠGet": 1734,
      "Overrid": 1735,
      "Last": 1736,
      "BookId": 1737,
      "sales": 1738,
      "egin": 1739,
      "Ġreport": 1740,
      "ff": 1741,
      "Ġus": 1742,
      "Zero": 1743,
      "nce": 1744,
      "hou": 1745,
      "Incentive": 1746,
      "Fmt": 1747,
      "setField": 1748,
      "AxTableIndexField": 1749,
      "Ġinit": 1750,
      "red": 1751,
      "vider": 1752,
      "Parm": 1753,
      ")).": 1754,
      "Ass": 1755,
      "Logistics": 1756,
      "ĠĊ": 1757,
      "Relationship": 1758,
      "Cancel": 1759,
      "gal": 1760,
      "Ġall": 1761,
      "FieldGroup": 1762,
      "\");": 1763,
      "Limit": 1764,
      "Ġinternal": 1765,
      "br": 1766,
      "AxReportDataSetParameter": 1767,
      "Ġjournal": 1768,
      ")))": 1769,
      "Ut": 1770,
      "MappedField": 1771,
      "Export": 1772,
      "ĠL": 1773,
      "reg": 1774,
      "ock": 1775,
      "Txt": 1776,
      "iled": 1777,
      "ĠForm": 1778,
      "AssetId": 1779,
      "Decor": 1780,
      "Exception": 1781,
      "rev": 1782,
      "public": 1783,
      "ĠI": 1784,
      "TextDecor": 1785,
      "TextDecoration": 1786,
      "15": 1787,
      "Wor": 1788,
      "ysis": 1789,
      "Ġco": 1790,
      "Ġu": 1791,
      "Amounts": 1792,
      "Ġlo": 1793,
      "ron": 1794,
      "Ġdefault": 1795,
      "Cash": 1796,
      "ave": 1797,
      "Ġperiod": 1798,
      "Idx": 1799,
      "17": 1800,
      "iev": 1801,
      "Ġli": 1802,
      "Ġact": 1803,
      "Flight": 1804,
      "ormal": 1805,
      "EntryPoints": 1806,
      "Ġdialog": 1807,
      "ExciseDuty": 1808,
      "ines": 1809,
      "MenuItemDisplay": 1810,
      "Ġas": 1811,
      "GeneralJournal": 1812,
      "AxFormStringControl": 1813,
      "AxDataEntityViewMappedField": 1814,
      "FontStyle": 1815,
      "to": 1816,
      "anced": 1817,
      "ob": 1818,
      "Return": 1819,
      "load": 1820,
      "Ġnumber": 1821,
      "RF": 1822,
      "Manual": 1823,
      "CountryRegion": 1824,
      "One": 1825,
      "LocationId": 1826,
      ").": 1827,
      "Term": 1828,
      "AxTableRelation": 1829,
      "purch": 1830,
      "ĠassetTrans": 1831,
      "Balances": 1832,
      "AssetClassification": 1833,
      "Values": 1834,
      "File": 1835,
      "AxDimensionRelationConstraint": 1836,
      "ĠĠĠĠĠĠĠĠĠĠĠĠ": 1837,
      "Charge": 1838,
      "Regist": 1839,
      "ground": 1840,
      "Ġparameter": 1841,
      "Background": 1842,
      "Spec": 1843,
      "Totals": 1844,
      "Ġ12": 1845,
      "Us": 1846,
      "ER": 1847,
      "Month": 1848,
      "ĠCE": 1849,
      "Email": 1850,
      "unc": 1851,
      "uted": 1852,
      "This": 1853,
      "Ġgener": 1854,
      "iness": 1855,
      "late": 1856,
      "BackgroundColor": 1857,
      "Ġ,": 1858,
      "Day": 1859,
      "validate": 1860,
      "Matching": 1861,
      "Provider": 1862,
      "ayment": 1863,
      "Confirm": 1864,
      "FreeTextInvoiceLocalizationTmp": 1865,
      "ater": 1866,
      "Forecast": 1867,
      "ĠĠĠĠĠĠĠĠĊ": 1868,
      "pack": 1869,
      "xed": 1870,
      "Position": 1871,
      "RFQ": 1872,
      "Upd": 1873,
      "Normal": 1874,
      "usiness": 1875,
      "Ġcontract": 1876,
      "Function": 1877,
      "AxReportParameter": 1878,
      "ased": 1879,
      "ulated": 1880,
      "ination": 1881,
      "py": 1882,
      "ason": 1883,
      "pulate": 1884,
      "Rebate": 1885,
      "AccountTrans": 1886,
      "quence": 1887,
      "Car": 1888,
      "ograph": 1889,
      "Init": 1890,
      "Ġstatement": 1891,
      "rite": 1892,
      "Direct": 1893,
      "name": 1894,
      "Hist": 1895,
      "Created": 1896,
      "MainAccount": 1897,
      "bom": 1898,
      "vend": 1899,
      "rink": 1900,
      "Shrink": 1901,
      "Ġother": 1902,
      "CanShrink": 1903,
      "Ġtype": 1904,
      "nder": 1905,
      "ĠCS": 1906,
      "pa": 1907,
      "StartDate": 1908,
      "ĠSet": 1909,
      "\")": 1910,
      "cen": 1911,
      "Acquisition": 1912,
      "Ho": 1913,
      "TypeId": 1914,
      "PurchLine": 1915,
      "22": 1916,
      "IDD": 1917,
      "AccountingDistribution": 1918,
      "LogTrans": 1919,
      "ReportingCurrency": 1920,
      "BuildDataSource": 1921,
      "TablixMembers": 1922,
      "cenari": 1923,
      "GroupId": 1924,
      "anges": 1925,
      "ume": 1926,
      "Appro": 1927,
      "App": 1928,
      "Ġmatch": 1929,
      "nalysis": 1930,
      "osit": 1931,
      "Ge": 1932,
      "Sup": 1933,
      "dep": 1934,
      "ography": 1935,
      "Ġpost": 1936,
      "ReportTmp": 1937,
      "Selection": 1938,
      "okable": 1939,
      "Hookable": 1940,
      "kip": 1941,
      "Ġcontainer": 1942,
      "DimensionName": 1943,
      "sign": 1944,
      "Fin": 1945,
      "lection": 1946,
      "only": 1947,
      "75": 1948,
      "Site": 1949,
      "Ġsum": 1950,
      "Layout": 1951,
      "lag": 1952,
      "cenario": 1953,
      "ernal": 1954,
      "FieldGroups": 1955,
      "EntAsset": 1956,
      "func": 1957,
      "from": 1958,
      "heque": 1959,
      "LineNum": 1960,
      "clude": 1961,
      "AR": 1962,
      "Analysis": 1963,
      "rame": 1964,
      "AxSecurityEntryPointReferenceForm": 1965,
      "ument": 1966,
      "ĠSysOperation": 1967,
      "Ġadd": 1968,
      "ived": 1969,
      "vation": 1970,
      "urrency": 1971,
      "Ġ@": 1972,
      "AssetBook": 1973,
      "agreement": 1974,
      "heet": 1975,
      "greg": 1976,
      "Only": 1977,
      "ha": 1978,
      "Der": 1979,
      "ĠĠĠĠĠĠĠĠĠĠ": 1980,
      "Link": 1981,
      "ĠCust": 1982,
      "ulti": 1983,
      "default": 1984,
      "Ġexists": 1985,
      "SalesLine": 1986,
      "account": 1987,
      "Indexes": 1988,
      "Cheque": 1989,
      "Docu": 1990,
      "Ġspec": 1991,
      "Adjust": 1992,
      "Ġi": 1993,
      "ĠBudgetControl": 1994,
      "book": 1995,
      "Ġwith": 1996,
      "Ġcba": 1997,
      "Ġaccounting": 1998,
      "Maintain": 1999,
      "process": 2000,
      "Visible": 2001,
      "True": 2002,
      "Ph": 2003,
      "AccountEntry": 2004,
      "RelationshipType": 2005,
      "23": 2006,
      "Collection": 2007,
      "FIN": 2008,
      "ee": 2009,
      "Job": 2010,
      "wise": 2011,
      "Util": 2012,
      "hao": 2013,
      "Modification": 2014,
      "Instr": 2015,
      "BankReconciliation": 2016,
      "gr": 2017,
      "Ġan": 2018,
      "Ġproj": 2019,
      "ailed": 2020,
      "work": 2021,
      "ISO": 2022,
      "verse": 2023,
      "company": 2024,
      "etter": 2025,
      "Percent": 2026,
      "Modified": 2027,
      "IT": 2028,
      "SalesInvoiceDS": 2029,
      "History": 2030,
      "galEntity": 2031,
      "DM": 2032,
      "Ġlog": 2033,
      "move": 2034,
      "Updated": 2035,
      "Stmt": 2036,
      "ĠBankReconciliation": 2037,
      "contract": 2038,
      "utor": 2039,
      "JourEntries": 2040,
      "Ġfirstonly": 2041,
      "hold": 2042,
      "mark": 2043,
      "Geography": 2044,
      "Sequence": 2045,
      "control": 2046,
      "alAddress": 2047,
      "IF": 2048,
      "ĠĠĠĠĠĠĠĠĠĠĠĠĠĠ": 2049,
      "Wh": 2050,
      "RelatedTableCardinality": 2051,
      "External": 2052,
      "Ġbu": 2053,
      "58": 2054,
      "18": 2055,
      "Original": 2056,
      "Aggreg": 2057,
      "Template": 2058,
      "prmisDefault": 2059,
      "head": 2060,
      "ĠGets": 2061,
      "Box": 2062,
      "Ġused": 2063,
      "AccessLevel": 2064,
      "Reval": 2065,
      "CalcTrans": 2066,
      "otation": 2067,
      "Ġotherwise": 2068,
      "mf": 2069,
      "ĠList": 2070,
      "ommon": 2071,
      "ĠĠĠĠĠĠĠĠĠĠĠĠĠĠĠĠĠĠ": 2072,
      "WithGroup": 2073,
      "Bill": 2074,
      "KeepWithGroup": 2075,
      "Manag": 2076,
      "Subscri": 2077,
      "aterial": 2078,
      "Cent": 2079,
      "Task": 2080,
      "Doc": 2081,
      "Frame": 2082,
      "Columns": 2083,
      "Aggregate": 2084,
      "Ġtax": 2085,
      "Scenario": 2086,
      "enance": 2087,
      "Design": 2088,
      "Ġrel": 2089,
      "DataElementOutput": 2090,
      "Flag": 2091,
      "HeaderFooterDS": 2092,
      "Letter": 2093,
      "grade": 2094,
      "Ġe": 2095,
      "Reason": 2096,
      "iter": 2097,
      "Ġac": 2098,
      "DefaultDimension": 2099,
      "TitleField": 2100,
      "Ident": 2101,
      "Br": 2102,
      "Ġtotal": 2103,
      "ick": 2104,
      "Ġdel": 2105,
      "ExchangeRate": 2106,
      "Ġitem": 2107,
      "Ġ<=": 2108,
      "strFmt": 2109,
      "ToDate": 2110,
      "Activity": 2111,
      "umentation": 2112,
      "02": 2113,
      "Ġinsert": 2114,
      "reight": 2115,
      "Transport": 2116,
      "Manager": 2117,
      "DimensionRelations": 2118,
      "Execution": 2119,
      "Deb": 2120,
      "Ġfinal": 2121,
      "Inventory": 2122,
      "Deposit": 2123,
      "Rpt": 2124,
      "ĠTransDate": 2125,
      "ĠG": 2126,
      "InvoiceTrans": 2127,
      "Subscriber": 2128,
      "cial": 2129,
      "SubscriberAccessLevel": 2130,
      "Upgrade": 2131,
      "Sched": 2132,
      "ward": 2133,
      "Quotation": 2134,
      "Fixed": 2135,
      "DMF": 2136,
      "Ġ?": 2137,
      "Expe": 2138,
      "19": 2139,
      "ocal": 2140,
      "olume": 2141,
      "OfMeasure": 2142,
      "Ġpr": 2143,
      "Business": 2144,
      "Ġmod": 2145,
      "AxDimensionRelation": 2146,
      "vail": 2147,
      "ND": 2148,
      "ous": 2149,
      "PR": 2150,
      "29": 2151,
      "04": 2152,
      "ieving": 2153,
      "Center": 2154,
      "Failed": 2155,
      "ffer": 2156,
      "Reservation": 2157,
      "ĠDimension": 2158,
      "Ġresult": 2159,
      "Cod": 2160,
      "Maintenance": 2161,
      "FromDate": 2162,
      "Ġtts": 2163,
      "';": 2164,
      "Ġgroup": 2165,
      "proj": 2166,
      "Hand": 2167,
      "Dynamic": 2168,
      "agement": 2169,
      "PostalAddress": 2170,
      "ingC": 2171,
      "AccountNum": 2172,
      "LedgerJournalTrans": 2173,
      "ia": 2174,
      "ocus": 2175,
      "Outlet": 2176,
      "Ġsett": 2177,
      "dataSource": 2178,
      "licy": 2179,
      "Instrumentation": 2180,
      "BPError": 2181,
      "arning": 2182,
      "Disable": 2183,
      "Ġrec": 2184,
      "Populate": 2185,
      "InventTable": 2186,
      "ĠAssetTransType": 2187,
      "DataEntityPermissions": 2188,
      "InventTrans": 2189,
      "CBI": 2190,
      "Validate": 2191,
      "Ġtr": 2192,
      "Registration": 2193,
      "ĠCo": 2194,
      "Non": 2195,
      "cing": 2196,
      "Due": 2197,
      "PriceDisc": 2198,
      "ommit": 2199,
      "resh": 2200,
      "ared": 2201,
      "funcName": 2202,
      "for": 2203,
      "ĠCBARPT": 2204,
      "Ġad": 2205,
      "Management": 2206,
      "ĠX": 2207,
      "Cla": 2208,
      "ulture": 2209,
      "Ġprod": 2210,
      "MCR": 2211,
      "36": 2212,
      "ply": 2213,
      "PurchTable": 2214,
      "Retry": 2215,
      "Executed": 2216,
      "Material": 2217,
      "Net": 2218,
      "UseTable": 2219,
      "Adm": 2220,
      "Modifications": 2221,
      "UseTableRelations": 2222,
      "FieldId": 2223,
      "Volume": 2224,
      "Ġcre": 2225,
      "own": 2226,
      "Render": 2227,
      "Offset": 2228,
      "27": 2229,
      "PurchaseOrder": 2230,
      "ipt": 2231,
      "voice": 2232,
      "lit": 2233,
      "Internal": 2234,
      "SiteId": 2235,
      "ingCulture": 2236,
      "RenderingCulture": 2237,
      "PrePrintLevel": 2238,
      "version": 2239,
      "\")&": 2240,
      "view": 2241,
      "ĠMap": 2242,
      "wit": 2243,
      "001": 2244,
      ".[": 2245,
      "Red": 2246,
      "witch": 2247,
      "ĠID": 2248,
      "Prior": 2249,
      "erson": 2250,
      "Manually": 2251,
      "WidthMode": 2252,
      "OrderBy": 2253,
      "Ġnull": 2254,
      "DepAmount": 2255,
      "SumCalc": 2256,
      "vailable": 2257,
      "aller": 2258,
      "Ġy": 2259,
      "Enable": 2260,
      "ON": 2261,
      "InvoiceId": 2262,
      "Items": 2263,
      "AxFormControlExtension": 2264,
      "Derived": 2265,
      "ke": 2266,
      "formation": 2267,
      "Advanced": 2268,
      "Depreci": 2269,
      "AxFormControlExtensionProperty": 2270,
      "fter": 2271,
      "line": 2272,
      "nel": 2273,
      "nection": 2274,
      "Debit": 2275,
      "CompanyName": 2276,
      "Det": 2277,
      "EC": 2278,
      "Transportation": 2279,
      "GL": 2280,
      "alt": 2281,
      "ĠassetTable": 2282,
      "header": 2283,
      "Ġprev": 2284,
      "ningProcess": 2285,
      "**": 2286,
      "BR": 2287,
      "33": 2288,
      "ql": 2289,
      "CustVend": 2290,
      "Ġvalidate": 2291,
      "Ġconst": 2292,
      "BudgetTransaction": 2293,
      "Cred": 2294,
      "ĠgeneralJournal": 2295,
      "ksheet": 2296,
      "PS": 2297,
      "Ġvalid": 2298,
      "CustAccountStatement": 2299,
      "Ġare": 2300,
      "Ġse": 2301,
      "IsManually": 2302,
      "place": 2303,
      "IsManuallyUpdated": 2304,
      "ass": 2305,
      "Ġ2": 2306,
      "NameField": 2307,
      "CustAccountStatementExt": 2308,
      "MethodExecuted": 2309,
      "LedgerEntry": 2310,
      "BudgetPlanLine": 2311,
      "isMethodExecuted": 2312,
      "check": 2313,
      "Ġ/*": 2314,
      "EnumValue": 2315,
      "Dir": 2316,
      "MY": 2317,
      "ĉĉĉĉĉĉĉĉĉĉĉĉĉĉĉĉĉ": 2318,
      "Ġmain": 2319,
      "125": 2320,
      "acture": 2321,
      "ycle": 2322,
      "Ġcreate": 2323,
      "ĠisValid": 2324,
      "CH": 2325,
      "Ġshou": 2326,
      "Ġshould": 2327,
      "yalt": 2328,
      "yalty": 2329,
      "',": 2330,
      "AccessPermissions": 2331,
      "DirectAccessPermissions": 2332,
      "depreciation": 2333,
      "eed": 2334,
      "Overrides": 2335,
      "Inqui": 2336,
      "AxReportParameterBase": 2337,
      "oci": 2338,
      "DocumentTable": 2339,
      "57": 2340,
      "Facture": 2341,
      "Write": 2342,
      "Ġ'')": 2343,
      "24": 2344,
      "Ro": 2345,
      "lv": 2346,
      "Empty": 2347,
      "Ġ*/": 2348,
      "Assets": 2349,
      "Withhold": 2350,
      "CashDisc": 2351,
      "tmp": 2352,
      "Partition": 2353,
      "Policy": 2354,
      "OnCreate": 2355,
      "ĠbankAccountTrans": 2356,
      "Pool": 2357,
      "AccountType": 2358,
      "PurchRFQ": 2359,
      "ized": 2360,
      "Ġ\"@": 2361,
      "Constant": 2362,
      "AxMeasure": 2363,
      "Receipt": 2364,
      "iif": 2365,
      "PA": 2366,
      "AllowEditOnCreate": 2367,
      "AutoPopulate": 2368,
      "Adjustment": 2369,
      "ĠData": 2370,
      "BPUpgrade": 2371,
      "Person": 2372,
      "Target": 2373,
      "LegalEntity": 2374,
      "ĠAx": 2375,
      "ĠE": 2376,
      "po": 2377,
      "Ġla": 2378,
      "Ġdis": 2379,
      "ending": 2380,
      "sumption": 2381,
      "ActiveView": 2382,
      "34": 2383,
      "ĠZ": 2384,
      "recordset": 2385,
      "und": 2386,
      "CustAccountStatementExtTmp": 2387,
      "FormControlOverrides": 2388,
      "CurrencyReval": 2389,
      "ET": 2390,
      "Proc": 2391,
      "Ġimp": 2392,
      "IIF": 2393,
      "Multi": 2394,
      "Ġun": 2395,
      "GroupControl": 2396,
      "AxTableFieldReal": 2397,
      "Ġswitch": 2398,
      "28": 2399,
      "start": 2400,
      "SourceSystem": 2401,
      "AgingReportTmp": 2402,
      "Ġle": 2403,
      "Focus": 2404,
      "ĠĠĠĠĠĠĠĠĠĠĠĠĠĠĠĠĠĠĠĠ": 2405,
      "ersal": 2406,
      "Ġ11": 2407,
      "ĠcheckFailed": 2408,
      "mit": 2409,
      "Calculation": 2410,
      "ĠZhao": 2411,
      "ledgerJournalTrans": 2412,
      "Copy": 2413,
      "Ġcurrency": 2414,
      "begin": 2415,
      "ĠJ": 2416,
      "Da": 2417,
      "Outbound": 2418,
      "riter": 2419,
      "WMS": 2420,
      "ĠCreate": 2421,
      "Contact": 2422,
      "DocumentType": 2423,
      "ProjBudget": 2424,
      "ict": 2425,
      "Remain": 2426,
      "ĠbudgetTransaction": 2427,
      "log": 2428,
      "Ġ%": 2429,
      "AN": 2430,
      "99": 2431,
      "FiscalCalendar": 2432,
      "payment": 2433,
      "Inquiry": 2434,
      "Freight": 2435,
      "AL": 2436,
      "Selected": 2437,
      "DateTimeUtil": 2438,
      "Origin": 2439,
      "Ġcost": 2440,
      "ĠAssetAmount": 2441,
      "StmtISO": 2442,
      "LedgerJournal": 2443,
      "Apt": 2444,
      "Aptos": 2445,
      "Be": 2446,
      "air": 2447,
      "coRes": 2448,
      "ĉĉĉĉĉĉĉĉĉĉĉĉĉ": 2449,
      "Processed": 2450,
      "ialize": 2451,
      "CBASales": 2452,
      "ich": 2453,
      "Ġyear": 2454,
      "clear": 2455,
      "angu": 2456,
      "Posted": 2457,
      "Ġsub": 2458,
      "TaxExciseDuty": 2459,
      "anguage": 2460,
      "PL": 2461,
      "Ġstart": 2462,
      "loat": 2463,
      "Connection": 2464,
      "Pds": 2465,
      "apt": 2466,
      "AssetTable": 2467,
      "Commit": 2468,
      "Identification": 2469,
      "30": 2470,
      "ĠSales": 2471,
      "ĠAssetDepreciation": 2472,
      "Test": 2473,
      "ious": 2474,
      "Worker": 2475,
      "Next": 2476,
      "Ġcontroller": 2477,
      "Ġorder": 2478,
      "ĠThis": 2479,
      "post": 2480,
      "Float": 2481,
      "oper": 2482,
      "Ġwhich": 2483,
      "Ġ>=": 2484,
      "gin": 2485,
      "run": 2486,
      "ved": 2487,
      "54": 2488,
      "cur": 2489,
      "annel": 2490,
      "ĉĉĉĉĉĉĉĉĉĉĉĉ": 2491,
      "journal": 2492,
      "ess": 2493,
      "te": 2494,
      "()));": 2495,
      "Max": 2496,
      "PatternVersion": 2497,
      "Pending": 2498,
      "addRange": 2499,
      "anch": 2500,
      "ĠbudgetPlanLine": 2501,
      "ĠQueryBuildDataSource": 2502,
      "scommit": 2503,
      "Reverse": 2504,
      "Ġpack": 2505,
      "PostingType": 2506,
      "Ġlist": 2507,
      "WHSLoad": 2508,
      "ision": 2509,
      "Inbound": 2510,
      "Ġload": 2511,
      "Ġenum": 2512,
      "Ġttsbegin": 2513,
      "SC": 2514,
      "Ġnext": 2515,
      "Ġwhether": 2516,
      "Ġbatch": 2517,
      "PurchReqLine": 2518,
      "bination": 2519,
      "Ġlocal": 2520,
      "Append": 2521,
      "ĠQueryRun": 2522,
      "res": 2523,
      "esc": 2524,
      "lob": 2525,
      "Special": 2526,
      "Round": 2527,
      "Hcm": 2528,
      "Claim": 2529,
      "DP": 2530,
      "umbr": 2531,
      "VendTrans": 2532,
      "Ġttscommit": 2533,
      "56": 2534,
      "Resource": 2535,
      "Sort": 2536,
      "BudgetPlanHeader": 2537,
      "Used": 2538,
      "GroupBy": 2539,
      "LCImport": 2540,
      "umbrance": 2541,
      "Pan": 2542,
      "Bug": 2543,
      "Seq": 2544,
      "Ctr": 2545,
      "als": 2546,
      "Note": 2547,
      "Disposal": 2548,
      "Struct": 2549,
      "Cl": 2550,
      "AxTableFieldEnum": 2551,
      "tax": 2552,
      "ond": 2553,
      "PrePrinted": 2554,
      "Ġcur": 2555,
      "Integration": 2556,
      ")),": 2557,
      "efore": 2558,
      "Reports": 2559,
      "uctionEntry": 2560,
      "Rele": 2561,
      "report": 2562,
      "GLS": 2563,
      "Processor": 2564,
      "Ġit": 2565,
      "ĠqueryRun": 2566,
      "ĠCooper": 2567,
      "Su": 2568,
      "ĠĠĠĠĠĠĠĠĠĠĠĠĠĠĠĠĠĠĠĠĠĠĠĠĠĠĠĠĠĠĠĠĠĠĠĠĠĠĠĠĠĠĠĠĠĠĠĠĠĠĠĠĠĠĠĠĠĠĠ": 2569,
      "ĠTrue": 2570,
      "Royalty": 2571,
      "AssetTrans": 2572,
      "BudgetSource": 2573,
      "Retail": 2574,
      "ges": 2575,
      "AutoDeclaration": 2576,
      "Split": 2577,
      "Margin": 2578,
      "Available": 2579,
      "EndDate": 2580,
      "ates": 2581,
      "onent": 2582,
      "accounting": 2583,
      "CostAmount": 2584,
      "VendorInvoice": 2585,
      "InfoLine": 2586,
      "CustInvoiceJour": 2587,
      "Production": 2588,
      "AxQuerySimpleDataSource": 2589,
      "Ġhas": 2590,
      "Prev": 2591,
      "ifier": 2592,
      "General": 2593,
      "Corp": 2594,
      "ĠFirst": 2595,
      "AgreementLine": 2596,
      "AxEnumValue": 2597,
      "ProcessLogTrans": 2598,
      "08": 2599,
      "Ġde": 2600,
      "ortization": 2601,
      "Ġwork": 2602,
      "AxTableRelationConstraintField": 2603,
      "enum": 2604,
      "SourceDocumentLineItem": 2605,
      "can": 2606,
      "Ġbook": 2607,
      "ody": 2608,
      "ExtensionControl": 2609,
      "InterCompany": 2610,
      "quired": 2611,
      "ĠtmpTable": 2612,
      "Ġat": 2613,
      "AxSecurityDataEntity": 2614,
      "ModelId": 2615,
      "Full": 2616,
      "TaxAct": 2617,
      "string": 2618,
      "Channel": 2619,
      "Builder": 2620,
      "BudgetSourceTracking": 2621,
      "ement": 2622,
      "skip": 2623,
      "Dlv": 2624,
      "Ġdim": 2625,
      "03": 2626,
      "Lif": 2627,
      "Ġsetting": 2628,
      "RE": 2629,
      "Org": 2630,
      "isible": 2631,
      "SalesId": 2632,
      "Ġcompany": 2633,
      "apter": 2634,
      "Ġsys": 2635,
      "Ġax": 2636,
      "Appended": 2637,
      "ĠTax": 2638,
      "fieldnum": 2639,
      "After": 2640,
      "Trade": 2641,
      "Applic": 2642,
      ")</": 2643,
      "findBy": 2644,
      "Tag": 2645,
      "ĠDEVInteg": 2646,
      "Days": 2647,
      "Replace": 2648,
      "Mappings": 2649,
      "Warning": 2650,
      "74": 2651,
      "inventDim": 2652,
      "PSN": 2653,
      "Ranges": 2654,
      "dimension": 2655,
      "Stage": 2656,
      "riteria": 2657,
      "Ġagreement": 2658,
      "Ġmap": 2659,
      "AC": 2660,
      "TableLookup": 2661,
      "Len": 2662,
      "Sc": 2663,
      "Adapter": 2664,
      "))]": 2665,
      "ĠtableNum": 2666,
      "Ġbuffer": 2667,
      "Expense": 2668,
      "Ġmatching": 2669,
      "Relieving": 2670,
      "Component": 2671,
      "AutoCreate": 2672,
      "Ġargs": 2673,
      "InventLocationId": 2674,
      "Ġobject": 2675,
      "Ġconstruct": 2676,
      "78": 2677,
      "AxMenu": 2678,
      "05": 2679,
      "Body": 2680,
      "IdFlag": 2681,
      "Ġrecords": 2682,
      "Lice": 2683,
      "DataElementName": 2684,
      "Ġds": 2685,
      "Stor": 2686,
      "FreeTextInvoiceHeaderFooterDS": 2687,
      "rator": 2688,
      "Language": 2689,
      "Ab": 2690,
      "OC": 2691,
      "ocation": 2692,
      "ĠinventDim": 2693,
      "CustAccount": 2694,
      "airment": 2695,
      "Handler": 2696,
      "Override": 2697,
      "med": 2698,
      "SourceSystemId": 2699,
      "ĠIn": 2700,
      "ĠSh": 2701,
      "Ġorig": 2702,
      "SalesQuotation": 2703,
      "Constants": 2704,
      "Framework": 2705,
      "ION": 2706,
      "lookup": 2707,
      "Carry": 2708,
      "Branch": 2709,
      "DueDate": 2710,
      "Ġrun": 2711,
      "ĠW": 2712,
      "ĠLedgerDimension": 2713,
      "InData": 2714,
      "FreeTextInvoiceDS": 2715,
      "Rest": 2716,
      "formControl": 2717,
      "If": 2718,
      "assetTrans": 2719,
      "InvoiceAmount": 2720,
      "Consumption": 2721,
      "Expl": 2722,
      "Cle": 2723,
      "PurchBook": 2724,
      "AxQuerySimpleDataSourceField": 2725,
      "MatchRule": 2726,
      "nu": 2727,
      "DisableAutoCreate": 2728,
      "InDataRegion": 2729,
      "DisableAutoCreateInDataRegion": 2730,
      "ted": 2731,
      "inary": 2732,
      "Ġdetail": 2733,
      "Ġwill": 2734,
      "TMS": 2735,
      "mod": 2736,
      "DirParty": 2737,
      "CorpTaxAct": 2738,
      "DynamicFields": 2739,
      "match": 2740,
      "Ġcb": 2741,
      "uation": 2742,
      "ĠĠĠĠĠĠĠĠĠĠĠĠĠĠĠĠĠĠĠĠĠĠ": 2743,
      "Dimensions": 2744,
      "Pick": 2745,
      "TableAdapter": 2746,
      "AxDataEntityViewKey": 2747,
      "++": 2748,
      "HeaderTmp": 2749,
      "ĠinventTrans": 2750,
      "visible": 2751,
      "DetailsTmp": 2752,
      "raft": 2753,
      "BOMCalc": 2754,
      "ĠĠĠĠĠĠĠĠĠĠĠĠĠĠĠĠĠĠĠĠĠĠĠĠĠĠĠĠĠĠĠĠĠĠĠĠĠĠĠĠĠĠĠĠĠĠĠĠĠĠĠĠĠĠĠĠĠĠĠĠĠ": 2755,
      "anization": 2756,
      "Ġlookup": 2757,
      "ItemGroup": 2758,
      "Factor": 2759,
      "pace": 2760,
      "Ġspecified": 2761,
      "statement": 2762,
      "ilter": 2763,
      "use": 2764,
      "Amortization": 2765,
      "Entit": 2766,
      "select": 2767,
      "ĠbudgetSourceTracking": 2768,
      "QL": 2769,
      "DataMethod": 2770,
      "Fiscal": 2771,
      "Section": 2772,
      "ltern": 2773,
      "Ġuser": 2774,
      "CorpTaxActAppended": 2775,
      "Node": 2776,
      "hol": 2777,
      "Dict": 2778,
      "Years": 2779,
      "Actual": 2780,
      "lect": 2781,
      "Ġ10": 2782,
      "Session": 2783,
      "GeneralJournalEntry": 2784,
      "Ġdelete": 2785,
      "MemberAttribute": 2786,
      "ledgerVoucher": 2787,
      "Transactions": 2788,
      "ĠNew": 2789,
      "Combination": 2790,
      "Overview": 2791,
      "ssue": 2792,
      "internal": 2793,
      "ĠTo": 2794,
      "arehou": 2795,
      "Documentation": 2796,
      "DefinitionGroup": 2797,
      "InventList": 2798,
      "OnDelete": 2799,
      "OfPeriod": 2800,
      "BU": 2801,
      "InvoiceLine": 2802,
      "ray": 2803,
      "Ġinventory": 2804,
      "Ġheader": 2805,
      "ĠsalesTable": 2806,
      "AP": 2807,
      "ATP": 2808,
      "79": 2809,
      "Associ": 2810,
      "Zone": 2811,
      "Cycle": 2812,
      "Pmf": 2813,
      "Developer": 2814,
      "DataMaintenance": 2815,
      "UR": 2816,
      "Forward": 2817,
      "ancial": 2818,
      "AttributeValue": 2819,
      "Review": 2820,
      "SelectionField": 2821,
      "ĠShi": 2822,
      "59": 2823,
      "atform": 2824,
      "Discount": 2825,
      "Platform": 2826,
      "Calculated": 2827,
      "Ġfind": 2828,
      "JournalName": 2829,
      "MenuItemName": 2830,
      "FilterExpression": 2831,
      "Case": 2832,
      "Ġmark": 2833,
      "ĠinventTable": 2834,
      "DocumentLine": 2835,
      "ating": 2836,
      "Empl": 2837,
      "Ġuse": 2838,
      "DerivedDataSources": 2839,
      "DeveloperDocumentation": 2840,
      "Enc": 2841,
      "fromDate": 2842,
      "INT": 2843,
      "OR": 2844,
      "ronic": 2845,
      "TaxAmount": 2846,
      ";&": 2847,
      "erated": 2848,
      "etary": 2849,
      "bu": 2850,
      "uplic": 2851,
      "Ġcustom": 2852,
      "Altern": 2853,
      "Accounts": 2854,
      "code": 2855,
      "ible": 2856,
      "acing": 2857,
      "AdvPaym": 2858,
      "PAF": 2859,
      "range": 2860,
      "Spacing": 2861,
      "License": 2862,
      "Rd": 2863,
      "Ġid": 2864,
      "Ġwhen": 2865,
      "ĠtoDate": 2866,
      "Measures": 2867,
      "66": 2868,
      "73": 2869,
      "isEnabled": 2870,
      "rimary": 2871,
      "Billing": 2872,
      "Child": 2873,
      "fieldId": 2874,
      "Impairment": 2875,
      "urement": 2876,
      "Ġoption": 2877,
      "FieldName": 2878,
      "ient": 2879,
      "StringSize": 2880,
      "ipCode": 2881,
      "Exist": 2882,
      "InventDimension": 2883,
      "002": 2884,
      "Association": 2885,
      "Ded": 2886,
      "ingle": 2887,
      "VendTable": 2888,
      "ĠInit": 2889,
      "JournalNum": 2890,
      "Ġab": 2891,
      "ĠAssetDep": 2892,
      "key": 2893,
      "Ġdo": 2894,
      "ription": 2895,
      "Instance": 2896,
      "chron": 2897,
      "CustTable": 2898,
      "Save": 2899,
      "Container": 2900,
      "ĠProj": 2901,
      "ster": 2902,
      "by": 2903,
      "ChangeTracking": 2904,
      "prmisdefault": 2905,
      "Agent": 2906,
      "Public": 2907,
      "ages": 2908,
      "period": 2909,
      "Shared": 2910,
      "Ġcount": 2911,
      "DataSetName": 2912,
      "escription": 2913,
      "SalesVolume": 2914,
      "andard": 2915,
      "Phys": 2916,
      "AgreementHeader": 2917,
      "Pane": 2918,
      "Master": 2919,
      "Ġ,@": 2920,
      "Organization": 2921,
      "Modules": 2922,
      "toDate": 2923,
      "69": 2924,
      "Stre": 2925,
      "arehouse": 2926,
      "Ability": 2927,
      "CorpTaxActAppendedTable": 2928,
      "AccountingDate": 2929,
      "Reversal": 2930,
      "As": 2931,
      "ĠbomCalc": 2932,
      "xD": 2933,
      "Storage": 2934,
      "ish": 2935,
      "Validation": 2936,
      "eek": 2937,
      "yer": 2938,
      "Indic": 2939,
      "lectronic": 2940,
      "Ġz": 2941,
      "DimensionValue": 2942,
      "Ġinvoice": 2943,
      "ide": 2944,
      "UserId": 2945,
      "77": 2946,
      "Ġentity": 2947,
      "packed": 2948,
      "activity": 2949,
      "Ġposting": 2950,
      "Autom": 2951,
      "InventSiteId": 2952,
      "VerticalSpacing": 2953,
      "Electronic": 2954,
      "lan": 2955,
      "Peek": 2956,
      "route": 2957,
      "empty": 2958,
      "88": 2959,
      "60": 2960,
      "ateKey": 2961,
      "addDataSource": 2962,
      "Empties": 2963,
      "bed": 2964,
      "Encumbrance": 2965,
      "del": 2966,
      "ective": 2967,
      "Mg": 2968,
      "parent": 2969,
      "ach": 2970,
      "ilt": 2971,
      "Invoices": 2972,
      "ReportItems": 2973,
      "WorkOrder": 2974,
      "):": 2975,
      "AdmTrans": 2976,
      "More": 2977,
      "ĠR": 2978,
      "CustTrans": 2979,
      "Ġtemp": 2980,
      "Ġ;": 2981,
      "Actions": 2982,
      "Procurement": 2983,
      "InvoiceDate": 2984,
      "Ġass": 2985,
      "Pricing": 2986,
      "Begin": 2987,
      "ĠAssetTable": 2988,
      "ReductionEntry": 2989,
      "55": 2990,
      "ĠĠĠĠĠĠĠĠĠĠĠĠĠĠĠĠĠĠĠĠĠĠĠĠĠĠĠĠĠĠĠĠĠĠĠĠĠĠĠĠĠĠĠĠĠĠĠĠĠĠĠĠĠĠĠĠĠĠĠĠĠĠĠĠ": 2991,
      "itOfMeasure": 2992,
      "Logger": 2993,
      "39": 2994,
      "Duplic": 2995,
      "ItemName": 2996,
      "Intercompany": 2997,
      "Rdp": 2998,
      "Mach": 2999,
      "Approval": 3000,
      "ĠĠĠĠĠĠĠĠĠĠĠĠĠĠĠĠĠĠĠĠĠĠĠĠĠĠĠĠ": 3001,
      "ĠAssetBook": 3002,
      "Coda": 3003,
      "dt": 3004,
      "abase": 3005,
      "AxView": 3006,
      "SQL": 3007,
      "Ġexception": 3008,
      "Issue": 3009,
      "Ġany": 3010,
      "Settle": 3011,
      "ializ": 3012,
      "Mgmt": 3013,
      "rict": 3014,
      "Supp": 3015,
      "Fac": 3016,
      "LedgerAccount": 3017,
      "UserVisibility": 3018,
      "Calculate": 3019,
      "HeightMode": 3020,
      "Distributor": 3021,
      "DeliveryDate": 3022,
      "CW": 3023,
      "RegNum": 3024,
      "Ġvalues": 3025,
      "Ġoptional": 3026,
      "AssetGroup": 3027,
      "DimensionAttributeValue": 3028,
      "LineAmount": 3029,
      "HeaderRecId": 3030,
      "ĠSets": 3031,
      "utes": 3032,
      "Ġap": 3033,
      "RecordId": 3034,
      "pon": 3035,
      "Ġlast": 3036,
      "BudgetPlanScenario": 3037,
      "PreTax": 3038,
      "oot": 3039,
      "Ġmessage": 3040,
      "Ġcommon": 3041,
      "UserContext": 3042,
      "Before": 3043,
      "TR": 3044,
      "Prepayment": 3045,
      "PreTaxDed": 3046,
      "ded": 3047,
      "op": 3048,
      "BPUpgradeMetadata": 3049,
      "TableName": 3050,
      "Ġfields": 3051,
      "Option": 3052,
      "ace": 3053,
      "Ġinter": 3054,
      "Fund": 3055,
      "CBARebate": 3056,
      "qual": 3057,
      "Reserve": 3058,
      "cket": 3059,
      "anged": 3060,
      "AgingTmp": 3061,
      "exists": 3062,
      "TransactionId": 3063,
      "ĠFalse": 3064,
      "Ġsh": 3065,
      "GeographyL": 3066,
      "bedded": 3067,
      "next": 3068,
      "Ġ]": 3069,
      "prod": 3070,
      "21": 3071,
      "ĠParameters": 3072,
      "Stat": 3073,
      "ĠWang": 3074,
      "Ġ3": 3075,
      "vert": 3076,
      "ĠAND": 3077,
      "Root": 3078,
      "SG": 3079,
      "Life": 3080,
      "Physical": 3081,
      "CBACustomer": 3082,
      "WHSWork": 3083,
      "lobal": 3084,
      "ToCancel": 3085,
      "76": 3086,
      "Bom": 3087,
      "ExchRate": 3088,
      "SummaryTmp": 3089,
      "ĠfieldStr": 3090,
      "ner": 3091,
      "AdvancedLedgerEntry": 3092,
      "LineType": 3093,
      "Ġactivity": 3094,
      "Edt": 3095,
      "Monetary": 3096,
      "Ġrange": 3097,
      "Worksheet": 3098,
      "FormLetter": 3099,
      "Ġind": 3100,
      "Information": 3101,
      "ReportContext": 3102,
      "Returns": 3103,
      "Ġstatus": 3104,
      "ActionPane": 3105,
      "NumberSequence": 3106,
      "Ġpayment": 3107,
      "AxFormExtensionControl": 3108,
      "CBATaxExciseDuty": 3109,
      "AccountId": 3110,
      "Replacement": 3111,
      "ify": 3112,
      "AxAggregate": 3113,
      "ĠsalesLine": 3114,
      "dataSourceTable": 3115,
      "aign": 3116,
      "Application": 3117,
      "ĠToby": 3118,
      "lient": 3119,
      "Bucket": 3120,
      "ĠAn": 3121,
      "ĠBOMCalc": 3122,
      "ĠLi": 3123,
      "Conversion": 3124,
      "Criteria": 3125,
      "DataContract": 3126,
      "DefaultValue": 3127,
      "ache": 3128,
      "ĠCh": 3129,
      "InsertList": 3130,
      "EcoRes": 3131,
      "object": 3132,
      "ĠXu": 3133,
      "eco": 3134,
      "LogisticsAddress": 3135,
      "Support": 3136,
      ")));": 3137,
      "formRun": 3138,
      "ĠvendInvoice": 3139,
      "ĠIna": 3140,
      "Cons": 3141,
      "ShowTotals": 3142,
      "ĠdateNull": 3143,
      "ĠgeneralJournalAccountEntry": 3144,
      "orer": 3145,
      "ĠassetDep": 3146,
      "Ġparent": 3147,
      "UnitId": 3148,
      "Al": 3149,
      "sker": 3150,
      "Ġup": 3151,
      "BankDocument": 3152,
      "White": 3153,
      "ĠĠĠĠĠĠĠĠĠĠĠĠĊ": 3154,
      "Ġvoucher": 3155,
      "ECT": 3156,
      "Dest": 3157,
      "ProcessingStatus": 3158,
      "GST": 3159,
      "Hold": 3160,
      "ĠSysDa": 3161,
      "Ġcatch": 3162,
      "CustInvoice": 3163,
      "SR": 3164,
      "sor": 3165,
      "CBARPTVend": 3166,
      "RoundOff": 3167,
      "LG": 3168,
      "ced": 3169,
      "Ġbased": 3170,
      "Generation": 3171,
      "Ġadv": 3172,
      "Explorer": 3173,
      "SourceExplorer": 3174,
      "Financial": 3175,
      "Ġend": 3176,
      "Syn": 3177,
      "Ġparameters": 3178,
      "AxViewField": 3179,
      "AmountTo": 3180,
      "Ġlines": 3181,
      "cohol": 3182,
      "itemId": 3183,
      "Synchron": 3184,
      "Ġser": 3185,
      "budgetPlanLine": 3186,
      "Ġactive": 3187,
      "Structure": 3188,
      "Qual": 3189,
      "Ġdict": 3190,
      "ĠpurchLine": 3191,
      "esign": 3192,
      "JourSetup": 3193,
      "Ġtarget": 3194,
      "CompanyInfo": 3195,
      "Embedded": 3196,
      "CN": 3197,
      "ReportEntry": 3198,
      "Confirmed": 3199,
      "Ġproject": 3200,
      "DocumentEntry": 3201,
      "Upload": 3202,
      "document": 3203,
      "SalesOrder": 3204,
      "ElementPosition": 3205,
      "ĠIf": 3206,
      "Integrator": 3207,
      "Esker": 3208,
      "PreProcessed": 3209,
      "loy": 3210,
      "Ġprocessing": 3211,
      "PartitionKey": 3212,
      "RdpPreProcessed": 3213,
      "RdpPreProcessedId": 3214,
      "PurchId": 3215,
      "UnitOfMeasure": 3216,
      "Desc": 3217,
      "ByDefault": 3218,
      "ZeroOne": 3219,
      "Usage": 3220,
      "Ġimplement": 3221,
      "itional": 3222,
      "Ġrule": 3223,
      "StateMach": 3224,
      "Depreciate": 3225,
      "AxQuerySimpleDataSourceRelation": 3226,
      "com": 3227,
      "ExecutionId": 3228,
      "TableGroup": 3229,
      "fig": 3230,
      "Rep": 3231,
      "ĠaccountingDistribution": 3232,
      "ĠGu": 3233,
      "pose": 3234,
      "BatchId": 3235,
      "DefaultAggregate": 3236,
      "istrib": 3237,
      "Pur": 3238,
      "ĠDEV": 3239,
      "Database": 3240,
      "AutoReport": 3241,
      "PackSize": 3242,
      "CategoryId": 3243,
      "Combo": 3244,
      "Im": 3245,
      "Ġreference": 3246,
      "VendAccount": 3247,
      "ĠcustTrans": 3248,
      "38": 3249,
      "Go": 3250,
      "just": 3251,
      "ĠĠĠĠĠĠĠĠĠĠĠĠĠĠĠĠĠĠĠĠĠĠĠĠĠĠĠĠĠĠ": 3252,
      "InventDimId": 3253,
      "Scrap": 3254,
      "Ġcontain": 3255,
      "of": 3256,
      "ButtonControl": 3257,
      "transDate": 3258,
      "Ġfacture": 3259,
      "moveNext": 3260,
      "BankStatement": 3261,
      "Command": 3262,
      "salesTable": 3263,
      "ĠinventoryTransaction": 3264,
      "map": 3265,
      "Brow": 3266,
      "ris": 3267,
      "umn": 3268,
      "Standard": 3269,
      "osing": 3270,
      "AxMenuElement": 3271,
      "AgingBucket": 3272,
      "Codes": 3273,
      "TabPage": 3274,
      "Ġprice": 3275,
      "GroupExpression": 3276,
      "Properties": 3277,
      "PurchPurchaseOrder": 3278,
      "exception": 3279,
      "Block": 3280,
      "ĠCB": 3281,
      "ĠContent": 3282,
      "iven": 3283,
      "JoinMode": 3284,
      "bol": 3285,
      "Ġinfo": 3286,
      "Ġmodified": 3287,
      "Boolean": 3288,
      "EndDisc": 3289,
      "rs": 3290,
      "roll": 3291,
      "Ġrev": 3292,
      "Matched": 3293,
      "build": 3294,
      "teral": 3295,
      "ĠIris": 3296,
      "BusinessPlatform": 3297,
      "SharedTypes": 3298,
      "ĠGuo": 3299,
      "mbol": 3300,
      "DocumentTmp": 3301,
      "LocalizationDS": 3302,
      "CredLimit": 3303,
      "Commitment": 3304,
      "Ġ.": 3305,
      "Second": 3306,
      "CompanyId": 3307,
      "empt": 3308,
      "Ġcalculation": 3309,
      "\";": 3310,
      "ĠSystem": 3311,
      "Automation": 3312,
      "ĠUpdate": 3313,
      "read": 3314,
      "rier": 3315,
      "ĠCreates": 3316,
      "CO": 3317,
      "lict": 3318,
      "DepreciationProfile": 3319,
      "CostPrice": 3320,
      "ElectronicAddress": 3321,
      "44": 3322,
      "Ġretry": 3323,
      "lier": 3324,
      "Advice": 3325,
      "BookValue": 3326,
      "Allocate": 3327,
      "Client": 3328,
      "paid": 3329,
      "Ġevent": 3330,
      "AxFormDataSource": 3331,
      "DisplayValue": 3332,
      "Ġentry": 3333,
      "brand": 3334,
      "98": 3335,
      "UseOnly": 3336,
      "Ġacc": 3337,
      "Ġreconciliation": 3338,
      "InternalUseOnly": 3339,
      "Ġplan": 3340,
      "NoOutput": 3341,
      "FullText": 3342,
      "Bar": 3343,
      "cre": 3344,
      "ĠDialog": 3345,
      "LedgerVoucher": 3346,
      "ĠInventDim": 3347,
      "JoinDataSource": 3348,
      "artin": 3349,
      "ĠMartin": 3350,
      "InternalUseOnlyAttribute": 3351,
      "Setting": 3352,
      "Revision": 3353,
      "FullTextIndexes": 3354,
      "ĠDateTimeUtil": 3355,
      "ĠstrFmt": 3356,
      "BoxControl": 3357,
      "ms": 3358,
      "DataGroup": 3359,
      "Buyer": 3360,
      "Operations": 3361,
      "005": 3362,
      "TablixColumns": 3363,
      "TablixBody": 3364,
      "TaxRegistration": 3365,
      "TablixColumnHierarchy": 3366,
      "TablixRows": 3367,
      "TablixRowHierarchy": 3368,
      "AlternateKey": 3369,
      "do": 3370,
      "TaxCode": 3371,
      "AxDataEntityViewKeyField": 3372,
      "ĠvendTrans": 3373,
      "ĠAmount": 3374,
      "ĠAmountMST": 3375,
      "Previous": 3376,
      "av": 3377,
      "Ġmax": 3378,
      "utorial": 3379,
      "gener": 3380,
      "Symbol": 3381,
      "Determ": 3382,
      "--": 3383,
      "Camp": 3384,
      "DeleteActions": 3385,
      "Fill": 3386,
      "ĠĠĠĠĠĠĠĠĠĠĠĠĠĠĠĠĠĠĠĠĠĠĠĠĠĠ": 3387,
      "Amt": 3388,
      "Other": 3389,
      "over": 3390,
      "ĠfiscalCalendar": 3391,
      "ĠfromDate": 3392,
      "Ġtransactions": 3393,
      "CreatedDateTime": 3394,
      "Ġfile": 3395,
      "AccountingCurrencyAmount": 3396,
      "AutoSummary": 3397,
      ">.": 3398,
      "Stock": 3399,
      "ĠXue": 3400,
      "ĠAmountCur": 3401,
      "isField": 3402,
      "InventTransId": 3403,
      "ina": 3404,
      "getEnumerator": 3405,
      "Records": 3406,
      "Prepaid": 3407,
      "FreeTextInvoiceLocalizationDS": 3408,
      "ref": 3409,
      "FormRun": 3410,
      "Eff": 3411,
      "Light": 3412,
      "****": 3413,
      "Reply": 3414,
      "Extensions": 3415,
      "angle": 3416,
      "ZeroMore": 3417,
      "07": 3418,
      "AxEdt": 3419,
      "ĠAssetTrans": 3420,
      "32": 3421,
      "AxFormGroupControl": 3422,
      "parmIs": 3423,
      "ander": 3424,
      "acking": 3425,
      "003": 3426,
      "ridg": 3427,
      "SumTax": 3428,
      "Ġexist": 3429,
      "PrimaryIndex": 3430,
      "eign": 3431,
      "ĠbudgetControl": 3432,
      "LanguageId": 3433,
      "DG": 3434,
      "ercial": 3435,
      "list": 3436,
      "ZipCode": 3437,
      "EN": 3438,
      "ĠLedgerJournal": 3439,
      "dialog": 3440,
      "ReplacementKey": 3441,
      "Browse": 3442,
      "Campaign": 3443,
      "CustPaym": 3444,
      "ĠprojBudget": 3445,
      "MonetaryAmount": 3446,
      "RDD": 3447,
      "Include": 3448,
      "AccountTable": 3449,
      "Ġtask": 3450,
      "Built": 3451,
      "DEVIntegMessage": 3452,
      "AI": 3453,
      "ked": 3454,
      "AutoBrowse": 3455,
      "ĠUn": 3456,
      "InMethods": 3457,
      "Attributes": 3458,
      "InquiryStaging": 3459,
      "BuiltInMethods": 3460,
      "show": 3461,
      "AutoLookup": 3462,
      "RealControl": 3463,
      "AutoIdentification": 3464,
      "CBARPTSalesVolume": 3465,
      "Conflict": 3466,
      "change": 3467,
      "ChequeTable": 3468,
      "TransactionCurrencyAmount": 3469,
      "Ġselected": 3470,
      "InventTransfer": 3471,
      "OrderLine": 3472,
      "PRO": 3473,
      "DepreciationAmount": 3474,
      "arter": 3475,
      "SalesPrice": 3476,
      "inventTable": 3477,
      "Carrier": 3478,
      "eger": 3479,
      "Incl": 3480,
      "FeatureEnabled": 3481,
      "sTmp": 3482,
      "Segment": 3483,
      "active": 3484,
      "ula": 3485,
      "MenuItemAction": 3486,
      "CreditLimit": 3487,
      "StateMachines": 3488,
      "Tree": 3489,
      "ĠReturns": 3490,
      "ĠLander": 3491,
      "OpenTmp": 3492,
      "allow": 3493,
      "Ġsets": 3494,
      "DGET": 3495,
      "09": 3496,
      "TypeTable": 3497,
      "Warehouse": 3498,
      "Rect": 3499,
      "Rectangle": 3500,
      "Vari": 3501,
      "DataProvider": 3502,
      "Purpose": 3503,
      ";@": 3504,
      "ling": 3505,
      "ELECT": 3506,
      "ĠMina": 3507,
      "CBAF": 3508,
      "ProdTable": 3509,
      "ignment": 3510,
      "HL": 3511,
      "SalesInvoiceHeaderFooterDS": 3512,
      "FrameType": 3513,
      "ProjId": 3514,
      "PaymAdvice": 3515,
      "target": 3516,
      "Reconc": 3517,
      "Brand": 3518,
      "char": 3519,
      "addSelectionField": 3520,
      "projBudget": 3521,
      "inter": 3522,
      "ĠAssetTransDate": 3523,
      "cost": 3524,
      "Notes": 3525,
      "Approved": 3526,
      "WHSLoadTable": 3527,
      "TaxAmountMST": 3528,
      "InfoTable": 3529,
      "Schedule": 3530,
      "CustPrepayment": 3531,
      "Ġ)": 3532,
      "Accruals": 3533,
      "Layer": 3534,
      "Ġ4": 3535,
      "CBAS": 3536,
      "Privileges": 3537,
      "dis": 3538,
      "ĠDeterm": 3539,
      "Commercial": 3540,
      "InvoiceAccount": 3541,
      "CustAgingReportTmp": 3542,
      "OrCreate": 3543,
      "final": 3544,
      "ExtendedDataTypeFormat": 3545,
      "TimeZone": 3546,
      "assetTable": 3547,
      "GetExtendedDataTypeFormat": 3548,
      "CBARPTSalesVolumeTmp": 3549,
      "Ġenabled": 3550,
      "lock": 3551,
      "enue": 3552,
      "Ġsingle": 3553,
      "Ġ'';": 3554,
      "Assess": 3555,
      "Equal": 3556,
      "ĠconPeek": 3557,
      "CheckResult": 3558,
      "ĠgeneralJournalEntry": 3559,
      "ĠsysTableLookup": 3560,
      "UP": 3561,
      "rel": 3562,
      "Ġbalance": 3563,
      "TaxTrans": 3564,
      "Move": 3565,
      "Exists": 3566,
      "68": 3567,
      "MenuFunction": 3568,
      "Ġpacked": 3569,
      "dition": 3570,
      "LineDisc": 3571,
      "Phone": 3572,
      "Image": 3573,
      "Enter": 3574,
      "Integer": 3575,
      "IncentiveAccruals": 3576,
      "Min": 3577,
      "gine": 3578,
      "TaxGroup": 3579,
      "TaxFree": 3580,
      "umulated": 3581,
      "PriceDiscAdmTrans": 3582,
      "Skip": 3583,
      "CBAPO": 3584,
      "MarkupTrans": 3585,
      "];": 3586,
      "Requisition": 3587,
      "ProcessLogTransOper": 3588,
      "enc": 3589,
      "LineNumber": 3590,
      "Foreign": 3591,
      "SumMarkup": 3592,
      "BudgetPlanningProcess": 3593,
      "Employ": 3594,
      "Release": 3595,
      "EmbeddedDataSource": 3596,
      "Shipping": 3597,
      "MonthDate": 3598,
      "AxFormRealControl": 3599,
      "0000": 3600,
      "ĠAr": 3601,
      "Common": 3602,
      "Need": 3603,
      "AssetDep": 3604,
      "PrintMgmt": 3605,
      "rsReport": 3606,
      "Effective": 3607,
      "orksheet": 3608,
      "FormRef": 3609,
      "DocumentTitle": 3610,
      "Payroll": 3611,
      "Retryable": 3612,
      "Depreciable": 3613,
      "')": 3614,
      "sub": 3615,
      "Ġpo": 3616,
      "STP": 3617,
      "ĠbudgetTransactionLine": 3618,
      "TaxFreeBalance": 3619,
      "ĠledgerVoucher": 3620,
      "Ġreporting": 3621,
      "number": 3622,
      "ieved": 3623,
      "alled": 3624,
      "PropertyModifications": 3625,
      "Ġworkflow": 3626,
      "delete": 3627,
      "mm": 3628,
      "ĠId": 3629,
      "Ġdistrib": 3630,
      "exec": 3631,
      "AxSecurityDataEntityPermission": 3632,
      "DataManagement": 3633,
      "AxQuerySimpleEmbeddedDataSource": 3634,
      "InventoryTransaction": 3635,
      "Ġcol": 3636,
      "Accel": 3637,
      "Exempt": 3638,
      "price": 3639,
      "ĠPurch": 3640,
      "Accelerated": 3641,
      "ials": 3642,
      "ular": 3643,
      "BudgetPlanGenerate": 3644,
      "Ġpre": 3645,
      "ĠAdd": 3646,
      "earch": 3647,
      "Ġexec": 3648,
      "caller": 3649,
      "orig": 3650,
      "cope": 3651,
      "Good": 3652,
      "invoice": 3653,
      "ListPage": 3654,
      "Summar": 3655,
      "StmtISOReportEntry": 3656,
      "AbilityTo": 3657,
      "pons": 3658,
      "ered": 3659,
      "Loss": 3660,
      "006": 3661,
      "Finish": 3662,
      "BI": 3663,
      "Ġimplements": 3664,
      "GE": 3665,
      "ĠTypes": 3666,
      "etch": 3667,
      "AE": 3668,
      "CostCenter": 3669,
      "ExchangeHelper": 3670,
      "Li": 3671,
      "NumberOf": 3672,
      "Array": 3673,
      "Indicator": 3674,
      "cr": 3675,
      "ForUpdate": 3676,
      "Package": 3677,
      "Engine": 3678,
      "RefTableId": 3679,
      "CountryRegionId": 3680,
      "ross": 3681,
      "References": 3682,
      "Ġgiven": 3683,
      "ĠException": 3684,
      "gth": 3685,
      "Ctrl": 3686,
      "CarryForward": 3687,
      "Ġprint": 3688,
      "ĠItemId": 3689,
      "94": 3690,
      "Search": 3691,
      "BudgetBalances": 3692,
      "aym": 3693,
      "SysQuery": 3694,
      "total": 3695,
      "Entitlement": 3696,
      "'),": 3697,
      "ultip": 3698,
      "Picking": 3699,
      "BudgetPlanning": 3700,
      "face": 3701,
      "SalesBalance": 3702,
      "ĠCommon": 3703,
      "accountingDistribution": 3704,
      "Arrange": 3705,
      "Duplicate": 3706,
      "Ġindic": 3707,
      "Based": 3708,
      "ix": 3709,
      "FormView": 3710,
      "ExtensionOf": 3711,
      "Opr": 3712,
      "eve": 3713,
      "ĠLedgerJournalTrans": 3714,
      "ĠĠĠĠĠĠĠĠĠĠĠĠĠĠĠĠĠĠĠĠĠĠĠĠĠĠĠĠĠĠĠĠĠĠĠĠĠĠĠĠĠĠĠĠĠĠĠĠĠĠĠĠĠĠĠĠĠĠĠĠĠĠĠ": 3715,
      "Ġvendor": 3716,
      "Ġlogistics": 3717,
      "cell": 3718,
      "gress": 3719,
      "irParty": 3720,
      "formControlStr": 3721,
      "ĠDetermines": 3722,
      "Gu": 3723,
      "Ġneed": 3724,
      "Extens": 3725,
      "Enterpr": 3726,
      "ĠassetCorpTaxActAppendedTable": 3727,
      "Complet": 3728,
      "AccrualJourEntries": 3729,
      "Ġcustomer": 3730,
      "rimaryLedger": 3731,
      "65": 3732,
      "ĠledgerJournalTable": 3733,
      "&#": 3734,
      "FR": 3735,
      "ĠDict": 3736,
      "ĠRefRecId": 3737,
      "BudgetModelId": 3738,
      "valuation": 3739,
      "Rows": 3740,
      "([": 3741,
      "Bul": 3742,
      "Bridg": 3743,
      "Formula": 3744,
      "UpdateConflict": 3745,
      "Revenue": 3746,
      "pending": 3747,
      "ArrangeMethod": 3748,
      "currency": 3749,
      "TransRecId": 3750,
      "LedgerJournalTable": 3751,
      "ĠmethodStr": 3752,
      "ssing": 3753,
      "ThisYear": 3754,
      "design": 3755,
      "PackingSlipTrans": 3756,
      "ĠDataMemberAttribute": 3757,
      "ĠmainAccount": 3758,
      "Statistics": 3759,
      "InvoiceRoundOff": 3760,
      "CBARPTVendAgingReportTmp": 3761,
      "Draft": 3762,
      "Names": 3763,
      "Quarter": 3764,
      "Ġcancel": 3765,
      "Ġtracking": 3766,
      "Ġcreated": 3767,
      "ATPInventList": 3768,
      "ould": 3769,
      "DocumentNumber": 3770,
      "Changes": 3771,
      "Ġdisplay": 3772,
      "ializes": 3773,
      "FreeTextInvoiceHeaderFooterTmp": 3774,
      "qbds": 3775,
      "SizeTo": 3776,
      "AxSecurityDuty": 3777,
      "PerCompany": 3778,
      "Gen": 3779,
      "fmt": 3780,
      "classStr": 3781,
      "Sign": 3782,
      "UI": 3783,
      "Reli": 3784,
      "Creation": 3785,
      "BookMap": 3786,
      "DayOf": 3787,
      "BankLC": 3788,
      "description": 3789,
      "ĠMicrosoft": 3790,
      "enabled": 3791,
      "Ġfilter": 3792,
      "GeneralJournalAccountEntry": 3793,
      "def": 3794,
      "004": 3795,
      "35": 3796,
      "Now": 3797,
      "yout": 3798,
      "QueryRun": 3799,
      "Cap": 3800,
      "ĠbudgetPlanHeader": 3801,
      "queryRun": 3802,
      "VATNum": 3803,
      "Stream": 3804,
      "IB": 3805,
      "Ġmenu": 3806,
      "Ġchange": 3807,
      "SourceDocumentHeader": 3808,
      "OutletIncentive": 3809,
      "Ġadjust": 3810,
      "Detials": 3811,
      "ReverseCharge": 3812,
      "ĉĉĉĉĉĉĉĉĉĉĉĉĉĉĉ": 3813,
      "Ġoriginal": 3814,
      "Do": 3815,
      "Ġelement": 3816,
      "Quick": 3817,
      "vided": 3818,
      "EventHandler": 3819,
      "ĠFormRun": 3820,
      "ReqLine": 3821,
      "Receiv": 3822,
      "rl": 3823,
      "Ġcache": 3824,
      "TaxWithhold": 3825,
      "Ġusing": 3826,
      "ingTax": 3827,
      "Ġsql": 3828,
      "calculate": 3829,
      "VendInvoiceDocumentTmp": 3830,
      "AgingBucketDescription": 3831,
      "ays": 3832,
      "Requested": 3833,
      "GIN": 3834,
      "Ġroute": 3835,
      "ĠassetSumCalc": 3836,
      "Ending": 3837,
      "reshold": 3838,
      "ĠBook": 3839,
      "ĉĉĉĉĉĉĉĉĉĉĉĉĉĉĉĉ": 3840,
      "TD": 3841,
      "prev": 3842,
      "ĠValidate": 3843,
      "ĠbudgetSource": 3844,
      "ĠBen": 3845,
      "Shipment": 3846,
      "');": 3847,
      "Settled": 3848,
      "Ġfiscal": 3849,
      "oic": 3850,
      "ĠInventTable": 3851,
      "Ġdevelo": 3852,
      "isFieldSet": 3853,
      "Ġcode": 3854,
      "TaxInvoice": 3855,
      "Ġdetails": 3856,
      "Elements": 3857,
      "Ġcomp": 3858,
      "APP": 3859,
      "OT": 3860,
      "group": 3861,
      "element": 3862,
      "BudgetReservation": 3863,
      "ssages": 3864,
      "LogisticsPostalAddress": 3865,
      "modified": 3866,
      "AccountStatementLines": 3867,
      "Ġcalculate": 3868,
      "initialize": 3869,
      "selectForUpdate": 3870,
      "(#": 3871,
      "Ġcor": 3872,
      "DocumentDate": 3873,
      "Subbrand": 3874,
      "ĠtransDate": 3875,
      "Ġactual": 3876,
      "CurrencyRevalTmp": 3877,
      "Ġmarkup": 3878,
      "RootDataSource": 3879,
      "CBACust": 3880,
      "CoBy": 3881,
      "Refresh": 3882,
      "Activ": 3883,
      "LoadTable": 3884,
      "Settings": 3885,
      "AxSecurityFormControl": 3886,
      "PromptString": 3887,
      "Factory": 3888,
      "ĠassetTableMethod": 3889,
      "AxSecurityFormControlReference": 3890,
      "InvoiceTable": 3891,
      "Tutorial": 3892,
      "ored": 3893,
      "Ġentries": 3894,
      "search": 3895,
      "Ġallow": 3896,
      "Ġzhao": 3897,
      "IntercompanyTransfer": 3898,
      "Bas": 3899,
      "Ġqu": 3900,
      "ĠbankDocumentTable": 3901,
      "EditMode": 3902,
      "Register": 3903,
      "Destination": 3904,
      "SizeToAvailable": 3905,
      "37": 3906,
      "ĠCurrency": 3907,
      "UnitPrice": 3908,
      "ancedLedgerEntry": 3909,
      "literal": 3910,
      "Ġchild": 3911,
      "ĠLabels": 3912,
      "SalesQuotationTable": 3913,
      "ViewEditMode": 3914,
      "trib": 3915,
      "rior": 3916,
      "Assignment": 3917,
      "Ġover": 3918,
      "assetId": 3919,
      "eterm": 3920,
      "RetryCount": 3921,
      "FiscalCalendarPeriod": 3922,
      "ens": 3923,
      "ĠIs": 3924,
      "Ġinteg": 3925,
      "queryValue": 3926,
      "MonthDateDetials": 3927,
      "].[": 3928,
      "Ġ((": 3929,
      "MultiSelect": 3930,
      "ĠInitializes": 3931,
      "ReportFormat": 3932,
      "ferred": 3933,
      "JournalLine": 3934,
      "VersionId": 3935,
      "When": 3936,
      "TaxBranch": 3937,
      "SourceRecId": 3938,
      "Goods": 3939,
      "ModifiedDateTime": 3940,
      "Break": 3941,
      "rk": 3942,
      "initFrom": 3943,
      "Ġsingleton": 3944,
      "Att": 3945,
      "SalesPackingSlip": 3946,
      "assetDep": 3947,
      "Parts": 3948,
      "Ġonly": 3949,
      "Enterprise": 3950,
      "Condition": 3951,
      "findOrCreate": 3952,
      "tablenum": 3953,
      "Functional": 3954,
      "fit": 3955,
      "TransferStatus": 3956,
      "purchLine": 3957,
      "DataPerCompany": 3958,
      "DepreciableAssets": 3959,
      "SumTmp": 3960,
      "AxQuerySimpleRootDataSource": 3961,
      "LedgerAccountAgingTmp": 3962,
      "Ġadded": 3963,
      "ĠVoucher": 3964,
      "ĠVend": 3965,
      "Additional": 3966,
      "BuildRange": 3967,
      "UM": 3968,
      "AxTableFieldInt": 3969,
      "ableTo": 3970,
      "EntAssetWorkOrder": 3971,
      "Remaining": 3972,
      "Released": 3973,
      "SaveDataPerCompany": 3974,
      "not": 3975,
      "message": 3976,
      "Ġ(!_": 3977,
      "021": 3978,
      "Priority": 3979,
      "CustPrepaymentInvoice": 3980,
      "50": 3981,
      "Sql": 3982,
      "Ġal": 3983,
      "ordinary": 3984,
      "ibility": 3985,
      "ContactPerson": 3986,
      "Required": 3987,
      "MenuItemType": 3988,
      "Ġrelated": 3989,
      "PoolId": 3990,
      "ĠJens": 3991,
      "ClaimJourEntries": 3992,
      "ĠChen": 3993,
      "ĠJenson": 3994,
      "Changed": 3995,
      "iddle": 3996,
      "salesLine": 3997,
      "31": 3998,
      "ĠT": 3999,
      "ActionType": 4000,
      "GeographyCode": 4001,
      "IfEmpty": 4002,
      "BUDGET": 4003,
      "CreatedBy": 4004,
      "Counting": 4005,
      "ponsible": 4006,
      "89": 4007,
      "Ġro": 4008,
      "recId": 4009,
      "Delet": 4010,
      "rkCtr": 4011,
      "ift": 4012,
      "JournalId": 4013,
      "Comment": 4014,
      "PriorYears": 4015,
      "Clear": 4016,
      "Ob": 4017,
      "DataGeneration": 4018,
      "SourceDoc": 4019,
      "FixedAssets": 4020,
      "DatabaseLog": 4021,
      "DataGenerationTmp": 4022,
      "Bal": 4023,
      "aid": 4024,
      "Invoic": 4025,
      "ĠBankStatement": 4026,
      "Quality": 4027,
      "Scope": 4028,
      "ogatory": 4029,
      "Ġallocation": 4030,
      "forward": 4031,
      "72": 4032,
      "Found": 4033,
      "addEnd": 4034,
      "Conform": 4035,
      "++;": 4036,
      "IC": 4037,
      "rop": 4038,
      "Convert": 4039,
      "sTo": 4040,
      "Ġempty": 4041,
      "pening": 4042,
      "SalesQty": 4043,
      "ĠformRun": 4044,
      "ĠMetadata": 4045,
      "SourceIntegrator": 4046,
      "entifier": 4047,
      "ulator": 4048,
      "kn": 4049,
      "Ġremain": 4050,
      "Ġmust": 4051,
      "49": 4052,
      "dim": 4053,
      "ĠledgerDimension": 4054,
      "Closing": 4055,
      "sAnd": 4056,
      "ĠCalculate": 4057,
      "SalesUnit": 4058,
      "Ġtry": 4059,
      "Ġshow": 4060,
      "entity": 4061,
      "BPErrorTable": 4062,
      "stract": 4063,
      "Remarks": 4064,
      "ToDepreciate": 4065,
      "LoadId": 4066,
      "Throw": 4067,
      "ĠBankReconciliationMatching": 4068,
      "FixedAsset": 4069,
      "NetBookValue": 4070,
      "Funding": 4071,
      "ĠBudgetTransaction": 4072,
      "City": 4073,
      "gar": 4074,
      "Ġ01": 4075,
      "ump": 4076,
      "Threshold": 4077,
      "ĠFormDataSource": 4078,
      "SortExpression": 4079,
      "Invoicing": 4080,
      "user": 4081,
      "Computed": 4082,
      "container": 4083,
      "Conformance": 4084,
      "arry": 4085,
      "Secondary": 4086,
      "Ġhave": 4087,
      "cluded": 4088,
      "ĠprevDepAmount": 4089,
      "Global": 4090,
      "Exclude": 4091,
      "ĠAssetDocument": 4092,
      "ities": 4093,
      "AccountStatementInt": 4094,
      "Sold": 4095,
      "TransObject": 4096,
      "loadTable": 4097,
      "CredMan": 4098,
      "ĠDate": 4099,
      "LineItem": 4100,
      "NetAmount": 4101,
      "Cat": 4102,
      "AxTableExtension": 4103,
      "Ġ'',": 4104,
      "Down": 4105,
      "antom": 4106,
      "SalesQuotationLine": 4107,
      "ROM": 4108,
      "Ġkey": 4109,
      "Recip": 4110,
      "NumberSeq": 4111,
      "ĠFROM": 4112,
      "controlName": 4113,
      "stat": 4114,
      "TransId": 4115,
      "DimensionHierarchy": 4116,
      "PurchRFQCase": 4117,
      "PdsCW": 4118,
      "Ġdeveloped": 4119,
      "CompanyCode": 4120,
      "BPUpgradeCode": 4121,
      "reporting": 4122,
      "UIBuilder": 4123,
      "Recipient": 4124,
      "eny": 4125,
      "ender": 4126,
      "TaxBase": 4127,
      "vention": 4128,
      "CountryRegionCodes": 4129,
      "375": 4130,
      "bl": 4131,
      "128": 4132,
      "RelationshipRole": 4133,
      "cursor": 4134,
      "DistributorIncentiveAccruals": 4135,
      "ĠArgs": 4136,
      "izard": 4137,
      "ocate": 4138,
      "StagingIdx": 4139,
      "col": 4140,
      "InsertIfEmpty": 4141,
      "BudgetTransactionLine": 4142,
      "AxMenuItemDisplay": 4143,
      "Mandate": 4144,
      "48": 4145,
      "ĠMainAccount": 4146,
      "Ġno": 4147,
      "BudgetModel": 4148,
      "ĠSysQuery": 4149,
      "ReportingCurrencyAmount": 4150,
      "FieldValue": 4151,
      "Sale": 4152,
      "Sim": 4153,
      "menu": 4154,
      "IsSelected": 4155,
      "ĠbudgetAnalysis": 4156,
      "PreTaxDedProcess": 4157,
      "Gi": 4158,
      "CacheLookup": 4159,
      "ĠbudgetTransactionHeader": 4160,
      "ACType": 4161,
      "Synchronize": 4162,
      "rement": 4163,
      "Submit": 4164,
      "join": 4165,
      "ative": 4166,
      "()))": 4167,
      "ĠassetGroup": 4168,
      "CurrencySelection": 4169,
      "Restrict": 4170,
      "OfPeriods": 4171,
      "DimensionFocus": 4172,
      "Ġtime": 4173,
      "ersed": 4174,
      "Perform": 4175,
      "HeadingAgingBucketDescription": 4176,
      "vendInvoice": 4177,
      "NonConformance": 4178,
      ">%": 4179,
      "TransSettlement": 4180,
      "CBAInvent": 4181,
      "pare": 4182,
      "ĠFeature": 4183,
      "ISC": 4184,
      "Ġservice": 4185,
      "Movement": 4186,
      "ixed": 4187,
      "voucher": 4188,
      "ledgerDimension": 4189,
      "Periods": 4190,
      "ĠcustTable": 4191,
      "Payer": 4192,
      "tableStr": 4193,
      "CurrentVersion": 4194,
      "GEE": 4195,
      "Ġ100": 4196,
      "ĠpurchTable": 4197,
      "ĠEcoRes": 4198,
      "Sugar": 4199,
      "ĠactivityContext": 4200,
      "base": 4201,
      "FormType": 4202,
      "CBAExtension": 4203,
      "ĠBudgetPlanning": 4204,
      "ĠprocessLogTrans": 4205,
      "Ġbuild": 4206,
      "wo": 4207,
      "CBAPAF": 4208,
      "ĠvendTable": 4209,
      "Ġdoes": 4210,
      "ecoRes": 4211,
      ">-": 4212,
      "classDeclaration": 4213,
      "RptTmp": 4214,
      "RelievingDetail": 4215,
      "Find": 4216,
      "Ġdec": 4217,
      "Taxable": 4218,
      "sourceDocumentLine": 4219,
      "CreatedTransactionId": 4220,
      "OperationsTax": 4221,
      "Final": 4222,
      "Flow": 4223,
      "onus": 4224,
      "Intra": 4225,
      "ĠFields": 4226,
      "Ġfieldnum": 4227,
      "ĠAl": 4228,
      "pp": 4229,
      "ĠbankReconciliation": 4230,
      "Accumulated": 4231,
      "AccDist": 4232,
      "GenerateContract": 4233,
      "LogisticsLocation": 4234,
      "Middle": 4235,
      "FormDataSource": 4236,
      "Ġstring": 4237,
      "local": 4238,
      "FormatMapping": 4239,
      "ĠfactureJour": 4240,
      "An": 4241,
      "Cour": 4242,
      "Formatted": 4243,
      "WithEsker": 4244,
      "Ġchar": 4245,
      "EInvoiceIntegration": 4246,
      "EInvoiceIntegrationWithEsker": 4247,
      "Pct": 4248,
      "ĠP": 4249,
      "ĠRecord": 4250,
      "MeasureGroup": 4251,
      "AgingPeriod": 4252,
      "figuration": 4253,
      "Ġdistribution": 4254,
      "ised": 4255,
      "Ġcaller": 4256,
      "RunBase": 4257,
      "ChangeProposal": 4258,
      "Ġacquisition": 4259,
      "IBAN": 4260,
      "node": 4261,
      "iso": 4262,
      "ĠdirParty": 4263,
      "Ġinformation": 4264,
      "ReportingDimension": 4265,
      "++)": 4266,
      "tribute": 4267,
      "Coll": 4268,
      "addLink": 4269,
      "Ġamounts": 4270,
      "Ġhel": 4271,
      "Length": 4272,
      "Courier": 4273,
      "rule": 4274,
      "PrimaryKey": 4275,
      "\")=\"": 4276,
      "method": 4277,
      "ĠdimensionAttributeValue": 4278,
      "edit": 4279,
      "Ġtransfer": 4280,
      "BankAccountTable": 4281,
      "AbilityToPrint": 4282,
      "DefaultAccount": 4283,
      "EntityName": 4284,
      "Receive": 4285,
      "EffectiveDate": 4286,
      "UOM": 4287,
      "LedgerJour": 4288,
      "ledgerJournalTable": 4289,
      "ModifiedBy": 4290,
      "Ġrelieving": 4291,
      "GroupByField": 4292,
      "RoyaltyAmount": 4293,
      "Supplier": 4294,
      "CommercialHierarchy": 4295,
      "Ġoper": 4296,
      "SugarTax": 4297,
      "Ġref": 4298,
      "PendingReview": 4299,
      "Restricted": 4300,
      "SST": 4301,
      "ĠMonetaryAmount": 4302,
      "atas": 4303,
      "real": 4304,
      "Remove": 4305,
      "Recover": 4306,
      "Referenced": 4307,
      "ExtensionProperties": 4308,
      "InstrumentationConstants": 4309,
      "write": 4310,
      "sett": 4311,
      "Orders": 4312,
      "transaction": 4313,
      "\")=": 4314,
      "Gre": 4315,
      "Ln": 4316,
      "CompanyAddress": 4317,
      "imum": 4318,
      "letter": 4319,
      "Ow": 4320,
      "pre": 4321,
      "Enh": 4322,
      "Logic": 4323,
      "PrimaryLedger": 4324,
      "BankAccountTrans": 4325,
      "ĠAssetDepreciationMethod": 4326,
      "CBACustomerIncentive": 4327,
      "45": 4328,
      "licked": 4329,
      "ĠAssetProposal": 4330,
      "Costing": 4331,
      "enumStr": 4332,
      "ĠTransaction": 4333,
      "AssetTransType": 4334,
      "SalesConfirm": 4335,
      "Ġworksheet": 4336,
      "EventArgs": 4337,
      "ĠFieldId": 4338,
      "QueryObject": 4339,
      "ĠlCBA": 4340,
      "DepreciationDate": 4341,
      "PrintOn": 4342,
      "Facility": 4343,
      "EAM": 4344,
      "Dem": 4345,
      "lap": 4346,
      "llow": 4347,
      "Ġreal": 4348,
      "False": 4349,
      "Ok": 4350,
      "adv": 4351,
      "46": 4352,
      "ItemType": 4353,
      "Giro": 4354,
      "\")),": 4355,
      "Ġreser": 4356,
      "Execute": 4357,
      "PurchOrder": 4358,
      "ĠprodCalcTrans": 4359,
      "TypeTableOutbound": 4360,
      "lose": 4361,
      "ValidTo": 4362,
      "Ġmodel": 4363,
      "ĠbudgetSourceTrackingDetail": 4364,
      "io": 4365,
      "label": 4366,
      "Mass": 4367,
      "ĠisEnabled": 4368,
      "Ġmonth": 4369,
      "Ġlogger": 4370,
      "Designer": 4371,
      "Hour": 4372,
      "uced": 4373,
      "ĠĠĠĠĠĠĠĠĠĠĠĠĠĠĠĠĠĠĠĠĠĠĠĠĠĠĠĠĠĠĠĠĠĠĠĠĠĠĠĠĠĠĠĠĠĠĠĠĠĠĠĠĠĠĠĠĠĠĠĠĠĠĠĠĠĠĠ": 4374,
      "ĠLedgerPostingType": 4375,
      "HcmWorker": 4376,
      "LiableTo": 4377,
      "LiableToVAT": 4378,
      "ension": 4379,
      "Products": 4380,
      "coholDeclaration": 4381,
      "RS": 4382,
      "asks": 4383,
      "StagingTable": 4384,
      "assed": 4385,
      "ĠvendInvoiceInfoLine": 4386,
      "Ġcontains": 4387,
      "FA": 4388,
      "LOC": 4389,
      "last": 4390,
      "Ġaction": 4391,
      "Intere": 4392,
      "ĠBankDocument": 4393,
      "Percentage": 4394,
      "PurchBookData": 4395,
      "ledgerVoucherGeneralJournalEntry": 4396,
      "CodaAccountStatementLines": 4397,
      "Facade": 4398,
      "Blocked": 4399,
      "CredLimitAssess": 4400,
      "Interest": 4401,
      "Bound": 4402,
      "CS": 4403,
      "emi": 4404,
      "ĠvendInvoiceJour": 4405,
      "Office": 4406,
      "Ġlice": 4407,
      "Admin": 4408,
      "ForeignKey": 4409,
      "has": 4410,
      "ollow": 4411,
      "Ġnode": 4412,
      "DocuHeader": 4413,
      "ReplyLine": 4414,
      "ĠAssetSumCalc": 4415,
      "ĠsourceDocumentLine": 4416,
      "BUG": 4417,
      "CBATaxExciseDutyAdvPaym": 4418,
      "link": 4419,
      "ĠBatch": 4420,
      "IsTaxAmountMST": 4421,
      "budgetControl": 4422,
      "CurrentList": 4423,
      "Charges": 4424,
      "RepYear": 4425,
      "Paid": 4426,
      "ĠINT": 4427,
      "SalesTax": 4428,
      "Ġwarning": 4429,
      "Ġbeen": 4430,
      "etchMode": 4431,
      "AccountStatementIntTmp": 4432,
      "BC": 4433,
      "orary": 4434,
      "Messages": 4435,
      "newFrom": 4436,
      "Ġ,[": 4437,
      "BusinessEvent": 4438,
      "Reconciled": 4439,
      "Semi": 4440,
      "ĠFind": 4441,
      "Ġvalidation": 4442,
      "CP": 4443,
      "IO": 4444,
      "Ġbeing": 4445,
      "ApprovalStatus": 4446,
      "ĠdictField": 4447,
      "SemiPrePrinted": 4448,
      "dict": 4449,
      "extended": 4450,
      "Loop": 4451,
      "DataProcessingStatus": 4452,
      "InventSize": 4453,
      "using": 4454,
      "StmtISOAccountStatement": 4455,
      "InventColor": 4456,
      "Purchas": 4457,
      "Correction": 4458,
      "exist": 4459,
      "NoYesId": 4460,
      "Serial": 4461,
      "LogisticsElectronicAddress": 4462,
      "ReasonCode": 4463,
      "FiscalYear": 4464,
      "Call": 4465,
      "ov": 4466,
      "ValidFrom": 4467,
      "AxAggregateDataEntity": 4468,
      "ComputedField": 4469,
      "JournalEntry": 4470,
      "Ġrest": 4471,
      "Ġexchange": 4472,
      "custInvoiceJour": 4473,
      "Wizard": 4474,
      "Ġar": 4475,
      "PeriodEnd": 4476,
      "ĠUnitOfMeasure": 4477,
      "Intrastat": 4478,
      "Inst": 4479,
      "InvoiceType": 4480,
      "DateStr": 4481,
      "CollectionLetter": 4482,
      "startDate": 4483,
      "ĠstartDate": 4484,
      "column": 4485,
      ";#": 4486,
      "BCR": 4487,
      "TaxBalances": 4488,
      "strfmt": 4489,
      "Ġcopy": 4490,
      "rong": 4491,
      "Ġprevious": 4492,
      "ShowTotalsTaxBalances": 4493,
      "\"))": 4494,
      "CM": 4495,
      "primaryLedger": 4496,
      "Customs": 4497,
      "MarkupCode": 4498,
      "Fax": 4499,
      "Ġdepr": 4500,
      "ofAgingPeriod": 4501,
      "Ġcle": 4502,
      "ProjBudgetBalances": 4503,
      "67": 4504,
      "ission": 4505,
      "Divided": 4506,
      "Excel": 4507,
      "actor": 4508,
      "AccountingSourceExplorer": 4509,
      "CustPaymSched": 4510,
      "Ġ04": 4511,
      "ĠDialogField": 4512,
      "GroupMember": 4513,
      "Ġ--": 4514,
      "bankAccountTrans": 4515,
      "Ġsearch": 4516,
      "umpRef": 4517,
      "Ġwe": 4518,
      "Filt": 4519,
      "Server": 4520,
      "ĠfiscalCalendarPeriod": 4521,
      "ReportSection": 4522,
      "BudgetCycle": 4523,
      "ShowPrepaid": 4524,
      "ShowCustPaymSched": 4525,
      "Ġextension": 4526,
      "ProcessingId": 4527,
      "BudgetControlConfiguration": 4528,
      "Ġinitialize": 4529,
      "Filters": 4530,
      "ShowPrepaidTotals": 4531,
      "roug": 4532,
      "OriginalInvoice": 4533,
      "Revaluation": 4534,
      "BudgetSourceTrackingDetail": 4535,
      "sAndBudgetBalances": 4536,
      "Administ": 4537,
      "den": 4538,
      "Ġfeature": 4539,
      "Exact": 4540,
      "Suppress": 4541,
      "Under": 4542,
      "allowEdit": 4543,
      "joinMode": 4544,
      "Liter": 4545,
      "udit": 4546,
      "AxTableRelationForeignKey": 4547,
      "CustInvoiceTrans": 4548,
      "DataSourceName": 4549,
      "SpecialFormatted": 4550,
      "QuickFilter": 4551,
      "Ġremaining": 4552,
      "Times": 4553,
      "(!": 4554,
      "ĠecoRes": 4555,
      "Dead": 4556,
      "Depend": 4557,
      "Ġcall": 4558,
      "DateRange": 4559,
      "Plate": 4560,
      "currentRecord": 4561,
      "Entities": 4562,
      "bar": 4563,
      "ViewMetadata": 4564,
      "Ġdatacontract": 4565,
      "ĠSRS": 4566,
      "ITION": 4567,
      "ability": 4568,
      "Ġfds": 4569,
      "Journals": 4570,
      "RowVersion": 4571,
      "ĠFiscalCalendar": 4572,
      "CurrentOperationsTax": 4573,
      "Clust": 4574,
      "Multip": 4575,
      "Ġwhs": 4576,
      "CHB": 4577,
      "Extensibility": 4578,
      "issing": 4579,
      "Ġ2026": 4580,
      "ĠBudgetPlanLine": 4581,
      "DlvMode": 4582,
      "CBARebateSettlement": 4583,
      "InventQty": 4584,
      "IsComputedField": 4585,
      "ĠinventoryTransactionMonthDateDetials": 4586,
      "ystem": 4587,
      "status": 4588,
      "Ġspace": 4589,
      "Ġwas": 4590,
      "DisplayOrder": 4591,
      "posed": 4592,
      "PaymMode": 4593,
      "ShippingDate": 4594,
      "etermine": 4595,
      "Caller": 4596,
      "Ġpending": 4597,
      "AssetProposal": 4598,
      "SourceDocumentEnum": 4599,
      "funcname": 4600,
      "Ġhelper": 4601,
      "portion": 4602,
      "Ġabstract": 4603,
      "ComboBoxControl": 4604,
      "InventStyle": 4605,
      "Preferred": 4606,
      "ProfileChange": 4607,
      "laration": 4608,
      "ĠAccountingDistribution": 4609,
      "Ġbase": 4610,
      "012": 4611,
      "lyOne": 4612,
      "ProdId": 4613,
      "ĠInventTransType": 4614,
      "ĠSysOperationLabel": 4615,
      "ExactlyOne": 4616,
      "CBAVend": 4617,
      "DateSum": 4618,
      "Ġsup": 4619,
      "DB": 4620,
      "ĠCompanyInfo": 4621,
      "recated": 4622,
      "Owner": 4623,
      "Misc": 4624,
      "Ġ09": 4625,
      "bookId": 4626,
      "TaxableBalance": 4627,
      "DataTmp": 4628,
      "Ġcarry": 4629,
      "Ġred": 4630,
      "ĠbomCalcTrans": 4631,
      "ZeroDelete": 4632,
      "OnZeroDelete": 4633,
      "Interface": 4634,
      "Marked": 4635,
      "ServiceLife": 4636,
      "PurchReqTable": 4637,
      "ExceptionOnZeroDelete": 4638,
      "OutletId": 4639,
      "InstrumentationActivity": 4640,
      "Ġlayout": 4641,
      "ChannelCode": 4642,
      "ThrowExceptionOnZeroDelete": 4643,
      "400": 4644,
      "Ġ2025": 4645,
      "ĠCurrencyCode": 4646,
      "ccess": 4647,
      "Ġhand": 4648,
      "packedClass": 4649,
      "eredIndex": 4650,
      "ClusteredIndex": 4651,
      "Ġso": 4652,
      "Buffer": 4653,
      "ĠqueryBuildDataSource": 4654,
      "ĠLedgerVoucher": 4655,
      "agreementLine": 4656,
      "Ġdelet": 4657,
      "ĠĠĠĠĠĠĠĠĠĠĠĠĠĠĠĠĊ": 4658,
      "ital": 4659,
      "ReportSR": 4660,
      "ister": 4661,
      "ĠbankDeposit": 4662,
      "Links": 4663,
      "define": 4664,
      "Enhance": 4665,
      "Recon": 4666,
      "AllowRowVersion": 4667,
      "ĠAssetId": 4668,
      "assetTransDate": 4669,
      "ĠagreementLine": 4670,
      "AllowRowVersionChangeTracking": 4671,
      "parmReport": 4672,
      "UserPreferred": 4673,
      "Ġatp": 4674,
      "UserPreferredTimeZone": 4675,
      "Allowed": 4676,
      "ByVendor": 4677,
      "FieldGroupExtensions": 4678,
      "ĠSysOperationDisplayOrder": 4679,
      "Demand": 4680,
      "les": 4681,
      "ĉĉĉĉĉĉĉĉĉĉĉĉĉĉĉĉĉĉĉ": 4682,
      "GUP": 4683,
      "filter": 4684,
      "ĠQty": 4685,
      "raordinary": 4686,
      "SimpleList": 4687,
      "SRS": 4688,
      "LightGre": 4689,
      "LightGrey": 4690,
      "CBAEmpl": 4691,
      "AssetDocument": 4692,
      "Listing": 4693,
      "007": 4694,
      "Ġcref": 4695,
      "BudgetPlanLineActiveView": 4696,
      "AxSecurityDataEntityFieldReference": 4697,
      "SE": 4698,
      "VI": 4699,
      "hic": 4700,
      "mall": 4701,
      "peat": 4702,
      "cted": 4703,
      "AllowCreate": 4704,
      "lyDivided": 4705,
      "PostingProfile": 4706,
      "Relieve": 4707,
      "ĠItem": 4708,
      "addCustomProperty": 4709,
      "ights": 4710,
      "Ġ\"#": 4711,
      "VendInvoiceInfoLine": 4712,
      "Apply": 4713,
      "Barcode": 4714,
      "AA": 4715,
      "GER": 4716,
      "riev": 4717,
      "Ġattribute": 4718,
      "known": 4719,
      "ReferencedDataSources": 4720,
      "ĠInsert": 4721,
      "ency": 4722,
      "Ġoperation": 4723,
      "90": 4724,
      "Rem": 4725,
      "BOMId": 4726,
      "CustomerIncentive": 4727,
      "Terms": 4728,
      "PositionType": 4729,
      "IntegrationProcessing": 4730,
      "ready": 4731,
      "ĠProcess": 4732,
      "elf": 4733,
      "DataMethods": 4734,
      "ĠcustInvoiceTrans": 4735,
      "SpecialDep": 4736,
      "Repeat": 4737,
      "getUserPreferredTimeZone": 4738,
      "Ġvar": 4739,
      "Ġafter": 4740,
      "Ġrequest": 4741,
      "Ġqr": 4742,
      "ffff": 4743,
      "Confirmation": 4744,
      "ĠRecordInsertList": 4745,
      "Cert": 4746,
      "Est": 4747,
      "END": 4748,
      "FieldsSet": 4749,
      "PackingSlipJour": 4750,
      "EInvoiceIndicator": 4751,
      "ique": 4752,
      "identifier": 4753,
      "Ġreg": 4754,
      "PeriodDate": 4755,
      "RefId": 4756,
      "VendInvoiceTrans": 4757,
      "ĠisEnabledByDefault": 4758,
      "TextValue": 4759,
      "getSystem": 4760,
      "ĠAssetPost": 4761,
      "BalanceAccrual": 4762,
      "VATAmounts": 4763,
      "AxQuerySimpleDataSourceRange": 4764,
      "activityContext": 4765,
      "ĠCalculates": 4766,
      "ehic": 4767,
      "Counter": 4768,
      "ErrorWarning": 4769,
      "Ġcredit": 4770,
      "Daily": 4771,
      "IM": 4772,
      "enable": 4773,
      "BudgetCheck": 4774,
      "ExtensionAttribute": 4775,
      "Ġcons": 4776,
      "ĠlineEntity": 4777,
      "Ġassoci": 4778,
      "Ġflight": 4779,
      "ViewModel": 4780,
      "BankLCImport": 4781,
      "Ġrequired": 4782,
      "Keys": 4783,
      "CreditNote": 4784,
      "inventDimId": 4785,
      "ĠpriceDisc": 4786,
      "Ġenable": 4787,
      "ship": 4788,
      "generate": 4789,
      "ĠSysOperationLabelAttribute": 4790,
      "Missing": 4791,
      "Vehic": 4792,
      "plit": 4793,
      "ĠDebit": 4794,
      "atio": 4795,
      "ern": 4796,
      "TmpTable": 4797,
      "StatementLine": 4798,
      "WMSLocationId": 4799,
      "Neg": 4800,
      "Ġbutton": 4801,
      "DateControl": 4802,
      "CBARPTWHSWork": 4803,
      "Ġupd": 4804,
      "PROJ": 4805,
      "Completed": 4806,
      "Ġdraft": 4807,
      "ReportDataProvider": 4808,
      "Decim": 4809,
      "resent": 4810,
      "execute": 4811,
      "Drop": 4812,
      "ĠWhen": 4813,
      "Ġmin": 4814,
      "GTD": 4815,
      "request": 4816,
      "Ġfound": 4817,
      "VendInvoiceInfoTable": 4818,
      "created": 4819,
      "DataSourceLinks": 4820,
      "UserGroup": 4821,
      "Ġaddress": 4822,
      "PriorYear": 4823,
      "ĠatpInventList": 4824,
      "==": 4825,
      "ĠSalesTable": 4826,
      "part": 4827,
      "Ġdescription": 4828,
      "Ġstaging": 4829,
      "Ġperiods": 4830,
      "BPUpgradeMetadataExtensibility": 4831,
      "Peny": 4832,
      "],": 4833,
      "irect": 4834,
      "PaymId": 4835,
      "bankAccount": 4836,
      "elements": 4837,
      "Penyata": 4838,
      "microsoft": 4839,
      "Profit": 4840,
      "ĉĉĉĉĉĉĉĉĉĉĉĉĉĉ": 4841,
      "OfPayment": 4842,
      "Series": 4843,
      "INTChangeTracking": 4844,
      "agn": 4845,
      "itive": 4846,
      "ĠBudgetSourceTracking": 4847,
      "ĠQueryBuildRange": 4848,
      "bomCalc": 4849,
      "Ġcolumn": 4850,
      "CZ": 4851,
      "ait": 4852,
      "oman": 4853,
      "Compare": 4854,
      "pent": 4855,
      "parmArgs": 4856,
      "Ġchang": 4857,
      "valid": 4858,
      "ĠDimensionAttributeValue": 4859,
      "thing": 4860,
      "EntityView": 4861,
      "019": 4862,
      "PositionForecast": 4863,
      "BudgetTransactionHeader": 4864,
      "ĠSysOperationDisplayOrderAttribute": 4865,
      "facture": 4866,
      "Ġrow": 4867,
      "ĠER": 4868,
      "addLookup": 4869,
      "ibling": 4870,
      "Interactive": 4871,
      "WorkflowApprovalStatus": 4872,
      "priceDisc": 4873,
      "pds": 4874,
      "ĠĠĠĠĠĠĠĠĠĠĠĠĠĠĠĠĠĠĠĠĠĠĠĠĠĠĠĠĠĠĠĠĠĠĠĠĠĠĠĠĠĠĠĠĠĠĠĠĠĠĠĠĠĠĠĠĠĠĠĠĠĠĠĠĠ": 4875,
      "parmQuery": 4876,
      "Compli": 4877,
      "ĠRoman": 4878,
      "95": 4879,
      "Bus": 4880,
      "LE": 4881,
      "ĠReport": 4882,
      "CBARPTInventoryTransaction": 4883,
      "ĠamountCur": 4884,
      "should": 4885,
      "ĠSELECT": 4886,
      "Summarization": 4887,
      "Clearing": 4888,
      "InventBatchId": 4889,
      "BankDocumentTable": 4890,
      "Ġma": 4891,
      "assetTransType": 4892,
      "Ġcontext": 4893,
      "GridControl": 4894,
      "Derogatory": 4895,
      "Guid": 4896,
      "TAX": 4897,
      "Ġsame": 4898,
      "Intent": 4899,
      "UserName": 4900,
      "Ġmethods": 4901,
      "Insights": 4902,
      "forUpdate": 4903,
      "Ġenumerator": 4904,
      "BillingClassification": 4905,
      "Beginning": 4906,
      "OutletIncentiveJourEntries": 4907,
      "pentByVendor": 4908,
      "Sibling": 4909,
      "Ġedit": 4910,
      "Generic": 4911,
      "BankReconciliationMatchRule": 4912,
      "FactureJour": 4913,
      "Actuals": 4914,
      "Street": 4915,
      "currencyCode": 4916,
      "Ġder": 4917,
      "PurchQty": 4918,
      "DetailTmp": 4919,
      "ConfigId": 4920,
      "TermId": 4921,
      "ColumnsMode": 4922,
      "ĠsubledgerVoucherGeneralJournalEntry": 4923,
      "Clean": 4924,
      "ek": 4925,
      "CBACustVend": 4926,
      "ReportParameters": 4927,
      "Convention": 4928,
      "Modify": 4929,
      "ĠbankChequeTable": 4930,
      "Ġexp": 4931,
      "CBARPTWHSWorkTmp": 4932,
      "IntentLetter": 4933,
      "down": 4934,
      "sch": 4935,
      "ĠVendTable": 4936,
      "ĠreportingDimension": 4937,
      "40": 4938,
      "Relieved": 4939,
      "QueryDataSource": 4940,
      "ĠclassStr": 4941,
      "ĠFacture": 4942,
      "ProfileId": 4943,
      "wrong": 4944,
      "Ġcalculated": 4945,
      "ĠCurrencyExchangeHelper": 4946,
      "FG": 4947,
      "Ġcategory": 4948,
      "OfFunction": 4949,
      "osition": 4950,
      "UseOfFunction": 4951,
      "LCExport": 4952,
      "GeneralLedger": 4953,
      "display": 4954,
      "lg": 4955,
      "mcr": 4956,
      "ourcing": 4957,
      "BudgetAnalysis": 4958,
      "ButtonGroup": 4959,
      "ningProcessRecId": 4960,
      "AxAggregateDimension": 4961,
      "wrongUseOfFunction": 4962,
      "ES": 4963,
      "smm": 4964,
      "xSession": 4965,
      "ReportFinish": 4966,
      "EntityKey": 4967,
      "RuleLine": 4968,
      "DEL": 4969,
      "BatchAllocation": 4970,
      "Sequ": 4971,
      "TabPageControl": 4972,
      "SELECT": 4973,
      "wh": 4974,
      "Ġfunction": 4975,
      "TransactionCurrency": 4976,
      "Ġ16": 4977,
      "County": 4978,
      "HierarchyLevel": 4979,
      "Positive": 4980,
      "AxMeasureGroup": 4981,
      "ĠDictField": 4982,
      "rough": 4983,
      "Close": 4984,
      "ĠCon": 4985,
      "CustName": 4986,
      "ecks": 4987,
      "tableId": 4988,
      "ecompany": 4989,
      "Ġchangecompany": 4990,
      "Tel": 4991,
      "son": 4992,
      "Ġone": 4993,
      "FieldModifications": 4994,
      "AxTableFieldDate": 4995,
      "Ġstate": 4996,
      "BalanceReport": 4997,
      "ĠbankLCImport": 4998,
      "AxSecurityEntryPointReferenceFormControl": 4999,
      "ExecutionMode": 5000,
      "lobals": 5001,
      "PreviousSibling": 5002,
      "aving": 5003,
      "QueryDataSourceRelation": 5004,
      "Old": 5005,
      "parmAsset": 5006,
      "CalcId": 5007,
      "DepreciationStartDate": 5008,
      "Ġexport": 5009,
      "ExternalTable": 5010,
      "********": 5011,
      "Hide": 5012,
      "ĠWH": 5013,
      "Ġqbr": 5014,
      "Unreal": 5015,
      "ĠfieldId": 5016,
      "CheckBoxControl": 5017,
      "Ġhierarchy": 5018,
      "Corrective": 5019,
      "FinTag": 5020,
      "BankReconciliationHeader": 5021,
      "REB": 5022,
      "GroupExpressions": 5023,
      "Exemption": 5024,
      "Unrealized": 5025,
      "TP": 5026,
      "alysis": 5027,
      "Ġ02": 5028,
      "olidation": 5029,
      "PostingDate": 5030,
      "ConfigurationRecId": 5031,
      "isEnabledByDefault": 5032,
      "Sequel": 5033,
      "ined": 5034,
      "Legal": 5035,
      "Ġnon": 5036,
      "ItemView": 5037,
      "CBARPTSugarTax": 5038,
      "OrderAccount": 5039,
      "Monthly": 5040,
      "Expens": 5041,
      "InstrumentationLogger": 5042,
      "findOrCreateRange": 5043,
      "QualityOrder": 5044,
      "ĠatpInventListSumTmp": 5045,
      "Send": 5046,
      "include": 5047,
      "ĠassetAmount": 5048,
      "Ġoff": 5049,
      "DSO": 5050,
      "AdjValue": 5051,
      "ĠperiodAmount": 5052,
      "ISOCode": 5053,
      "logistics": 5054,
      "RoyaltyProcessing": 5055,
      "Tags": 5056,
      "CBACustVendAccountStatementIntTmp": 5057,
      ";![": 5058,
      "ĠClass": 5059,
      "uring": 5060,
      "ams": 5061,
      "]]&": 5062,
      "EntityRelationshipRole": 5063,
      "DocuRef": 5064,
      "ĠBookStruct": 5065,
      "Ġok": 5066,
      "TransactionType": 5067,
      "RunIn": 5068,
      "ĠrecordInsertList": 5069,
      "ĠsalesPurchBookData": 5070,
      "acity": 5071,
      "Ġallocate": 5072,
      "ĠrecId": 5073,
      "ĠunitOfMeasure": 5074,
      "SupportTypeId": 5075,
      "ĠendDate": 5076,
      "NT": 5077,
      "ĠOverride": 5078,
      "remove": 5079,
      "Ġ03": 5080,
      "QtyT": 5081,
      "bankCodaAccountStatementLines": 5082,
      "ConfigurationKey": 5083,
      "Has": 5084,
      "ric": 5085,
      "Ġsystem": 5086,
      "BankCurrencyReval": 5087,
      "ivery": 5088,
      "Ġconfiguration": 5089,
      "Ġlevel": 5090,
      "Ġabs": 5091,
      "ĠLedgerJournalACType": 5092,
      "Variance": 5093,
      "PenyataBul": 5094,
      "Sourcing": 5095,
      "ĠBoolean": 5096,
      "Ġprior": 5097,
      "LedgerPostingType": 5098,
      "VendAging": 5099,
      "ProductReceipt": 5100,
      "bomId": 5101,
      "NonPO": 5102,
      "Two": 5103,
      "WrkCtr": 5104,
      "hand": 5105,
      "Ġthere": 5106,
      "Expand": 5107,
      "skipDataMethods": 5108,
      "Vehicle": 5109,
      "'s": 5110,
      "DataControls": 5111,
      "Deal": 5112,
      "\">_": 5113,
      "DocumentOpenTmp": 5114,
      "ĠAS": 5115,
      "Ġformat": 5116,
      "workflow": 5117,
      "ĠValidates": 5118,
      "Estim": 5119,
      "ned": 5120,
      "DimensionHelper": 5121,
      "Ġforecast": 5122,
      "ĠAssetImpairment": 5123,
      "Responsible": 5124,
      "ExpImp": 5125,
      "Ġposted": 5126,
      "ART": 5127,
      "DayOfYear": 5128,
      "FunctionalLocation": 5129,
      "EX": 5130,
      "WF": 5131,
      "sed": 5132,
      "Ġfin": 5133,
      "ĠassetDepreciableAssets": 5134,
      "ProdType": 5135,
      "INV": 5136,
      "ShowBack": 5137,
      "ProcessingParameters": 5138,
      "BackOrderLine": 5139,
      "initValue": 5140,
      "FileName": 5141,
      "ĠListEnumerator": 5142,
      "Ġunit": 5143,
      "module": 5144,
      "ComboBox": 5145,
      "generalJournal": 5146,
      "Same": 5147,
      "Deprecated": 5148,
      "Loaded": 5149,
      "ĠpurchReqLine": 5150,
      "ĠDEVIntegMessage": 5151,
      "ls": 5152,
      "arant": 5153,
      "celerated": 5154,
      "acc": 5155,
      "DataManagementEnabled": 5156,
      "DataManagementStagingTable": 5157,
      "')]": 5158,
      "84": 5159,
      "TimeSpan": 5160,
      "fieldStr": 5161,
      "PostingLayer": 5162,
      "ĠdimensionAttribute": 5163,
      "NewSession": 5164,
      "Ġlogic": 5165,
      "Activities": 5166,
      "common": 5167,
      "lian": 5168,
      "Ġbefore": 5169,
      "Ġvari": 5170,
      "Ġ'%": 5171,
      "ĠBudgetSource": 5172,
      "ProcessingTmp": 5173,
      "Events": 5174,
      "ĠmarkupTrans": 5175,
      "Ġlicense": 5176,
      "Ġassociated": 5177,
      "Ratio": 5178,
      "paym": 5179,
      "ĠSourceDocument": 5180,
      "ingOrganization": 5181,
      "InventTest": 5182,
      "Printout": 5183,
      "TRAN": 5184,
      "BalanceReportColumns": 5185,
      "utc": 5186,
      "Ġlink": 5187,
      "EnumValues": 5188,
      "ĠbankAccountTable": 5189,
      "EmailChangeProposal": 5190,
      "Ġgenerate": 5191,
      "holder": 5192,
      "AxMenuExtension": 5193,
      "Ġtemporary": 5194,
      "RunInNewSession": 5195,
      "86": 5196,
      "FormStringControl": 5197,
      "print": 5198,
      "IdentificationText": 5199,
      "ĠloadTable": 5200,
      "BudgetPlanHeaderRecId": 5201,
      "EquallyDivided": 5202,
      "BER": 5203,
      "DataMemberAttribute": 5204,
      "urden": 5205,
      "Ġview": 5206,
      "PriceUnit": 5207,
      "Packaging": 5208,
      "currentRetryCount": 5209,
      "result": 5210,
      "ĠassetCorpTaxActAppendedTablesTmp": 5211,
      "ĠDimensionAttribute": 5212,
      "DocumentNum": 5213,
      "ĠCOC": 5214,
      "UnitType": 5215,
      "83": 5216,
      "Lbl": 5217,
      "idual": 5218,
      "Ġpassed": 5219,
      "Ġcalled": 5220,
      "ItemPrice": 5221,
      "NewPage": 5222,
      "ĠpurchRFQ": 5223,
      "ĠDescription": 5224,
      "FormExtensionControl": 5225,
      "Ġforupdate": 5226,
      "Ġopen": 5227,
      "osed": 5228,
      "BPCheck": 5229,
      "CountryRegionISOCode": 5230,
      "Supply": 5231,
      "ĠBankReconciliationMatchRule": 5232,
      "CustInvoiceJourCurrencyCode": 5233,
      "ĠdimAttr": 5234,
      "sRecord": 5235,
      "ĠRet": 5236,
      "AxEnum": 5237,
      "Invalid": 5238,
      "Groups": 5239,
      "AutoRefresh": 5240,
      "Lot": 5241,
      "ĠadvancedLedgerEntry": 5242,
      "52": 5243,
      "CBAOrder": 5244,
      "perform": 5245,
      "Ġmem": 5246,
      "ĠbudgetPlanning": 5247,
      "Ġresource": 5248,
      "ChargeTracking": 5249,
      "FocusName": 5250,
      "Ġquantity": 5251,
      "ĠstatementLine": 5252,
      "DocuExpImp": 5253,
      "celling": 5254,
      "eration": 5255,
      "ĠĠĠĠĠĠĠĠĠĠĠĠĠĠĠĠĠĠĠĠĠĠĠĠĠĠĠĠĠĠĠĠĠĠĠĠĠĠĠĠĠĠĠĠĠĠĠĠĠĠĠĠĠĠĠĠĠĠĠĠĠĠ": 5256,
      "ĠAssetIntercompanyTransfer": 5257,
      "ĠBudgetReservation": 5258,
      "Ġretryable": 5259,
      "CT": 5260,
      "LT": 5261,
      "ations": 5262,
      "ĉĉĉĉĉĉĉĉĉĉĉĉĉĉĉĉĉĉ": 5263,
      "Ġreturned": 5264,
      "iration": 5265,
      "ĠbudgetReservation": 5266,
      "Ġ-=": 5267,
      "TaxExciseDutyAdvPaym": 5268,
      "PrepaidAmount": 5269,
      "101": 5270,
      "batch": 5271,
      "Diagn": 5272,
      "AllowDelete": 5273,
      "Ġperform": 5274,
      "ĠAssetTransTypeJournal": 5275,
      "Decimals": 5276,
      "Diagnost": 5277,
      "ĠSourceDocumentLine": 5278,
      "ING": 5279,
      "ContractAmortization": 5280,
      "ĠamountToDepreciate": 5281,
      "budgetPlanHeader": 5282,
      "Attach": 5283,
      "Small": 5284,
      "ifies": 5285,
      "EDU": 5286,
      "Advance": 5287,
      "custInvoiceTrans": 5288,
      "PurchPurchaseOrderHeader": 5289,
      "41": 5290,
      "ledgerJournal": 5291,
      "CurYear": 5292,
      "Ġinto": 5293,
      "RemainAmountTo": 5294,
      "BePaid": 5295,
      "ĠinventoryTransactionInquiryStaging": 5296,
      "Bridged": 5297,
      "atasource": 5298,
      "ĠDebitCredit": 5299,
      "RemainAmountToBePaid": 5300,
      "97": 5301,
      "Mer": 5302,
      "Reset": 5303,
      "VendPaym": 5304,
      "Ġreverse": 5305,
      "ĠBudgetAnalysis": 5306,
      "DEVIntegTutorial": 5307,
      "rieves": 5308,
      "Compliance": 5309,
      "jor": 5310,
      "info": 5311,
      "Ġdef": 5312,
      "AssetImpairment": 5313,
      "QueryParameters": 5314,
      "DataSetInfo": 5315,
      "Web": 5316,
      "GetDataMethod": 5317,
      "UseGeneric": 5318,
      "AccrualJourSetup": 5319,
      "AllocationLine": 5320,
      "TableAdapterName": 5321,
      "TableAdapterFill": 5322,
      "TableAdapterGetDataMethod": 5323,
      "CommandText": 5324,
      "Ġexecution": 5325,
      "UseGenericDesigner": 5326,
      "TableAdapterFillMethod": 5327,
      "HS": 5328,
      "irement": 5329,
      "Ġcalendar": 5330,
      "Carryforward": 5331,
      "Deadlock": 5332,
      "ĠĠĠĠĠĠĠĠĠĠĠĠĠĠĠĠĠĠĠĠĠĠĠĠĠĠĠĠĠĠĠĠĠĠ": 5333,
      "AxMenuItemAction": 5334,
      "InventAgingTmp": 5335,
      "Results": 5336,
      "ALLOC": 5337,
      "Ġreversal": 5338,
      "Bonus": 5339,
      "fir": 5340,
      "ph": 5341,
      "eries": 5342,
      "ssrsReport": 5343,
      "Inner": 5344,
      "emas": 5345,
      "DateTrans": 5346,
      "Ġdlg": 5347,
      "ĠBankAccountTrans": 5348,
      "MenuElement": 5349,
      "ĠtmpProcessLogTransOper": 5350,
      "ĠcalcArgs": 5351,
      "posting": 5352,
      "ĠAssetTableMethod": 5353,
      "SourceDocLineItem": 5354,
      "schemas": 5355,
      "ĠProject": 5356,
      "CBARPTPenyataBul": 5357,
      "StatementOpenTmp": 5358,
      "findRecId": 5359,
      "ReadOnly": 5360,
      "amountMST": 5361,
      "ĠLedgerJournalTable": 5362,
      "Reversed": 5363,
      "depreciationDate": 5364,
      "BudgetPlanScenarioRecId": 5365,
      "budgetPlanLineActiveView": 5366,
      "70": 5367,
      "CBFeature": 5368,
      "Static": 5369,
      "ĠAssetDocumentType": 5370,
      "ĠinventJournalTrans": 5371,
      "ĠBudgetPlanHeader": 5372,
      "validateWrite": 5373,
      "LayoutRecId": 5374,
      "ĠassetTableInterval": 5375,
      "InventTransferLine": 5376,
      "arantee": 5377,
      "fix": 5378,
      "Ġsummary": 5379,
      "Ġpart": 5380,
      "Ġ',": 5381,
      "ĠassetBookTable": 5382,
      "agreementHeader": 5383,
      "Indicates": 5384,
      "InclTax": 5385,
      "SalesPackingSlipHeaderTmp": 5386,
      "Dates": 5387,
      "StatusType": 5388,
      "Ġexisting": 5389,
      "Bridging": 5390,
      "RouteVersion": 5391,
      "ĠCustTable": 5392,
      "coming": 5393,
      "BCRS": 5394,
      "Opening": 5395,
      "ulian": 5396,
      "ĠCBADataProcessingStatus": 5397,
      "VendInvoiceJour": 5398,
      "Modern": 5399,
      "YearName": 5400,
      "----": 5401,
      "ention": 5402,
      "BankPaymAdvice": 5403,
      "clus": 5404,
      "ĠbankDocument": 5405,
      "Approve": 5406,
      "EntAssetBudget": 5407,
      "LicensePlate": 5408,
      "portionment": 5409,
      "Alt": 5410,
      "git": 5411,
      "ĠObject": 5412,
      "DATE": 5413,
      "WorkItem": 5414,
      "acquisition": 5415,
      "Clause": 5416,
      "CBASpentByVendor": 5417,
      "ĠTmp": 5418,
      "legalEntity": 5419,
      "ItemCode": 5420,
      "comp": 5421,
      "VATEnabled": 5422,
      "purchReq": 5423,
      "Funds": 5424,
      "EcoResProduct": 5425,
      "StockBalanceAccrual": 5426,
      "ĠConstruct": 5427,
      "UnrealizedVATEnabled": 5428,
      "ssrsReportStr": 5429,
      "43": 5430,
      "CE": 5431,
      "SL": 5432,
      "ying": 5433,
      "ingGroup": 5434,
      "OrderBatchAllocation": 5435,
      "ĠcustInvoiceJour": 5436,
      "LastDepreciationDate": 5437,
      "ProcurementCategory": 5438,
      "refresh": 5439,
      "ĠSource": 5440,
      "ĠPerform": 5441,
      "Progress": 5442,
      "Ġfreight": 5443,
      "ATE": 5444,
      "Cancelled": 5445,
      "rals": 5446,
      "len": 5447,
      "CBADistributorIncentiveAccruals": 5448,
      "AmountIn": 5449,
      "IsUnrealizedVATEnabled": 5450,
      "Calculator": 5451,
      "Utc": 5452,
      "Identifier": 5453,
      "OffsetLedgerDimension": 5454,
      "ĠdeprInterval": 5455,
      "Payable": 5456,
      "ProjectForecast": 5457,
      "ĠdefaultDimension": 5458,
      "purchTable": 5459,
      "WithholdingTax": 5460,
      "ĠcompanyInfo": 5461,
      "ĠexchangeRate": 5462,
      "Ms": 5463,
      "reconciliation": 5464,
      "IsReadOnly": 5465,
      "EuroCurrencyCode": 5466,
      "ModuleInvent": 5467,
      "CopyOriginal": 5468,
      "Receivable": 5469,
      "GJP": 5470,
      "atp": 5471,
      "ViewDimension": 5472,
      "PrintEuro": 5473,
      "MatchLine": 5474,
      "Ġanalysis": 5475,
      "InvoiceAmountEuro": 5476,
      "Ġindicates": 5477,
      "Ġadjustment": 5478,
      "PrintEuroTotals": 5479,
      "aption": 5480,
      "Ġcom": 5481,
      "Nothing": 5482,
      "BankAutomation": 5483,
      "PrintHeader": 5484,
      "()).": 5485,
      "AccountingCurrency": 5486,
      "Notification": 5487,
      "ĠtmpDateSum": 5488,
      "ĠGlobal": 5489,
      "TransportationVehicle": 5490,
      "matching": 5491,
      "DocumentTitleSequel": 5492,
      "literalstr": 5493,
      "identifierStr": 5494,
      "..": 5495,
      "Sheet": 5496,
      "ai": 5497,
      "isTaxInvoice": 5498,
      "TransTrade": 5499,
      "Members": 5500,
      "RouteId": 5501,
      "DMFDefinitionGroup": 5502,
      "CustInvoiceJourAdjustment": 5503,
      "ĠRetrieves": 5504,
      "ĠAgreement": 5505,
      "CBAProd": 5506,
      "AxFormComboBoxControl": 5507,
      "IsCredit": 5508,
      "copy": 5509,
      "Packed": 5510,
      "MiscText": 5511,
      "CorrectiveReason": 5512,
      "ctrl": 5513,
      "CustConfirm": 5514,
      "AxFormExtension": 5515,
      "Ġproposal": 5516,
      "Ġrebate": 5517,
      "ĠbankLG": 5518,
      "Ġ';": 5519,
      "ĠcalcTmp": 5520,
      "ĠreportTmp": 5521,
      "Parms": 5522,
      "ExchangeRateDate": 5523,
      "FiscalCalendarYear": 5524,
      "CustInvoiceDuplicate": 5525,
      "QuickFilterControl": 5526,
      "getSystemDate": 5527,
      "CustInvoiceJourAdjustmentRecId": 5528,
      "CustInvoiceDuplicateRecId": 5529,
      "isFeatureEnabled": 5530,
      "Ġprimary": 5531,
      "AxFormGridControl": 5532,
      "ExchangeRateType": 5533,
      "ĠEND": 5534,
      "DlvTerm": 5535,
      "Ġappro": 5536,
      "Ct": 5537,
      "Having": 5538,
      "Val": 5539,
      "]);": 5540,
      "izing": 5541,
      "ecycle": 5542,
      "verter": 5543,
      "unpack": 5544,
      "Expiration": 5545,
      "ĠactualsAndBudgetBalances": 5546,
      "CBARPTPenyataBulTmp": 5547,
      "sender": 5548,
      "InYear": 5549,
      "Ġavailable": 5550,
      "PrintCopyOriginal": 5551,
      "ParentBOMCalc": 5552,
      "ĠdimSynchronize": 5553,
      "ĠStatus": 5554,
      "Ġround": 5555,
      "exp": 5556,
      "OnNewPage": 5557,
      "Ġpurchase": 5558,
      "ĠnumberSeq": 5559,
      "TestResult": 5560,
      "dictField": 5561,
      "RepeatOnNewPage": 5562,
      "TRANS": 5563,
      "85": 5564,
      "Fall": 5565,
      "HCM": 5566,
      "InvoiceChargeTracking": 5567,
      "Logo": 5568,
      "ĠBankLCImport": 5569,
      "budgetTransaction": 5570,
      "Ġhist": 5571,
      "statementLine": 5572,
      "Capital": 5573,
      "Ġreservation": 5574,
      "ModernReconciliation": 5575,
      "Vat": 5576,
      "Tables": 5577,
      "TableFields": 5578,
      "Ġnet": 5579,
      "Documents": 5580,
      "ĠassetSum": 5581,
      "ĠInventLocationId": 5582,
      "ĠSrsReport": 5583,
      "MultiLn": 5584,
      "InstanceType": 5585,
      "ActionPaneControl": 5586,
      "JournalEntryDimensionHelper": 5587,
      "DF": 5588,
      "first": 5589,
      "Ġman": 5590,
      "ĠDirParty": 5591,
      "ToRelieve": 5592,
      "CBARoyaltyAmount": 5593,
      "Ġinclude": 5594,
      "Addit": 5595,
      "transType": 5596,
      "DEVSQL": 5597,
      "AcquisitionDate": 5598,
      "Lifecycle": 5599,
      "Ġcountry": 5600,
      "II": 5601,
      "ĠNumberSeq": 5602,
      "endDate": 5603,
      "Retirement": 5604,
      "app": 5605,
      "ĠUpdates": 5606,
      "pdsCW": 5607,
      "Additive": 5608,
      "Duration": 5609,
      "Ġtext": 5610,
      "Planned": 5611,
      "Ġ\"\",": 5612,
      "ĠledgerJournal": 5613,
      "Revised": 5614,
      "ĠmatchRule": 5615,
      "042": 5616,
      "Breakdown": 5617,
      "qty": 5618,
      "ĠJournal": 5619,
      "ĠWHSLoadTable": 5620,
      "IsPublic": 5621,
      "ĠBankCurrencyReval": 5622,
      "CustomerRef": 5623,
      "ĠvendInvoiceTrans": 5624,
      "ĠtmpProcessLogTrans": 5625,
      "ShipTo": 5626,
      "vendInvoiceJour": 5627,
      "balance": 5628,
      "ĠExtension": 5629,
      "ĠAgreementLine": 5630,
      "TypeInbound": 5631,
      "CodeId": 5632,
      "budgetPlanHeaderRecId": 5633,
      "CountryRegionCode": 5634,
      "Ġspecial": 5635,
      "NeedsRecord": 5636,
      "Bulk": 5637,
      "408": 5638,
      "PK": 5639,
      "sql": 5640,
      "ĠSelectionField": 5641,
      "sump": 5642,
      "255": 5643,
      "Prefix": 5644,
      "MessageTypeId": 5645,
      "ĠBusiness": 5646,
      "BankReconciliationMatching": 5647,
      "PublicEntityName": 5648,
      "AmountToDepreciate": 5649,
      "BarCode": 5650,
      "execution": 5651,
      "ceed": 5652,
      "ssory": 5653,
      "Ġdesc": 5654,
      "AxFormTabPageControl": 5655,
      "OnInvoice": 5656,
      "CashDiscOnInvoice": 5657,
      "Panel": 5658,
      "ĠcbLedgerAccountAgingTmp": 5659,
      "we": 5660,
      "tts": 5661,
      "BankStmtISOReportEntry": 5662,
      "ialBalance": 5663,
      "CompanyBankAccount": 5664,
      "budgetAnalysis": 5665,
      "LoadLine": 5666,
      "ĠSysTableLookup": 5667,
      "CheckBox": 5668,
      "AssetBookTransaction": 5669,
      "PurchRFQLine": 5670,
      "populate": 5671,
      "ContactInfo": 5672,
      "'t": 5673,
      "fq": 5674,
      "sSet": 5675,
      "save": 5676,
      "yy": 5677,
      "ĠBankLG": 5678,
      "ShipDate": 5679,
      "vendTrans": 5680,
      "CollectionName": 5681,
      "PublicCollectionName": 5682,
      "TaxBranchName": 5683,
      "TaxBranchCode": 5684,
      "InstrumentationActivityContext": 5685,
      "Ġupdated": 5686,
      "LV": 5687,
      "ease": 5688,
      "ĠProjBudget": 5689,
      "ĠCount": 5690,
      "skipEvents": 5691,
      "PurchBookVAT": 5692,
      "URL": 5693,
      "ProcurementClassification": 5694,
      "literalStr": 5695,
      "CatVendor": 5696,
      "addLookupfield": 5697,
      "Tele": 5698,
      "ssoryNote": 5699,
      "100": 5700,
      "BE": 5701,
      "DC": 5702,
      "ĠPmf": 5703,
      "allet": 5704,
      "edList": 5705,
      "email": 5706,
      "ividual": 5707,
      "kspace": 5708,
      "ColumnRule": 5709,
      "osure": 5710,
      "Fix": 5711,
      "RegionId": 5712,
      "Ġnotexists": 5713,
      "Ġcontaining": 5714,
      "Ġvariable": 5715,
      "Tasks": 5716,
      "ĠCheck": 5717,
      "parameter": 5718,
      "InvoiceInstance": 5719,
      "Ġreturns": 5720,
      "Major": 5721,
      "parmTarget": 5722,
      "Preview": 5723,
      "Exposure": 5724,
      "ĠSpec": 5725,
      "top": 5726,
      "vendTable": 5727,
      "DocuLine": 5728,
      "AgentName": 5729,
      "Capacity": 5730,
      "Ġoffset": 5731,
      "InvoiceInstanceText": 5732,
      "Url": 5733,
      "Ġtest": 5734,
      "DocumentLog": 5735,
      "Operating": 5736,
      "inventTrans": 5737,
      "EInvoiceType": 5738,
      "ERE": 5739,
      "DynamicParameter": 5740,
      "AgentId": 5741,
      "AgentAddress": 5742,
      "nodeIdx": 5743,
      "ALC": 5744,
      "lied": 5745,
      "CustomFilter": 5746,
      "BankName": 5747,
      "Ġprovider": 5748,
      "Ġlocation": 5749,
      "ĠFlight": 5750,
      "Corrected": 5751,
      "ĠresultDoc": 5752,
      "Ctx": 5753,
      "ROR": 5754,
      "Single": 5755,
      "ken": 5756,
      "ese": 5757,
      "DataSets": 5758,
      "acted": 5759,
      "ifiedRate": 5760,
      "AndValue": 5761,
      "apply": 5762,
      "estination": 5763,
      "AdvancedLedgerEntryHeader": 5764,
      "SourceDocumentEnumExtensionAttribute": 5765,
      "generalJournalAccountEntry": 5766,
      "Au": 5767,
      "fiscalCalendar": 5768,
      "elim": 5769,
      "DataProcessingParameters": 5770,
      "RelationType": 5771,
      "CompanyContext": 5772,
      "forma": 5773,
      "DialogField": 5774,
      "EntAssetObject": 5775,
      "LifeTime": 5776,
      "01977": 5777,
      "eliminary": 5778,
      "Mst": 5779,
      "TransSummarization": 5780,
      "Ġthen": 5781,
      "ĠCBAJournalEntryDimensionHelper": 5782,
      "DimValue": 5783,
      "budgetSource": 5784,
      "BaseEntity": 5785,
      "QuantityCommitment": 5786,
      "Employment": 5787,
      "Receiving": 5788,
      "ConvertTo": 5789,
      "GU": 5790,
      "DataSourceStr": 5791,
      "CBARPTCustom": 5792,
      "SYP": 5793,
      "Editable": 5794,
      "Ġlegal": 5795,
      "posted": 5796,
      "skipDatabaseLog": 5797,
      "CBARPTInventoryTransactionInquiryStaging": 5798,
      "CBAAmortization": 5799,
      "Ġfollow": 5800,
      "PreEncumbrance": 5801,
      "PrimaryCompanyContext": 5802,
      "StateProvider": 5803,
      "ĠLance": 5804,
      "Ġpopulate": 5805,
      "Ġconc": 5806,
      "Recid": 5807,
      "RecID": 5808,
      "AxFormActionPaneControl": 5809,
      "ubmit": 5810,
      "custAccount": 5811,
      "Workspace": 5812,
      "Ġsettlement": 5813,
      "ĠbudgetPlanLineActiveView": 5814,
      "ĠprocessLogTransOper": 5815,
      "ĠdimensionAttributeValueCombination": 5816,
      "ĠProd": 5817,
      "Ġpaym": 5818,
      "Acq": 5819,
      "Outer": 5820,
      "StartPeriod": 5821,
      "ĠperiodEnd": 5822,
      "SequenceNumber": 5823,
      "InboundQuantity": 5824,
      "AccountsReceivable": 5825,
      "AxMenuElementMenuItem": 5826,
      "Any": 5827,
      "AxAggregateDataEntityField": 5828,
      ".%": 5829,
      "Side": 5830,
      "Xpp": 5831,
      "ĠSourceDocumentLineItem": 5832,
      "inition": 5833,
      "CustGroup": 5834,
      "Locked": 5835,
      "Ġprofile": 5836,
      "CompanyVATNum": 5837,
      "EndPeriod": 5838,
      "ĠbudgetPlanningProcess": 5839,
      "acro": 5840,
      "Ġproduct": 5841,
      "FactureId": 5842,
      "NO": 5843,
      "ause": 5844,
      "recision": 5845,
      "DocumentStatus": 5846,
      "AttributeHierarchy": 5847,
      "Modifier": 5848,
      "DepreciationOfPayment": 5849,
      "budgetReservation": 5850,
      "BatchJob": 5851,
      "Metric": 5852,
      "Suite": 5853,
      "Basis": 5854,
      "SuppressDepreciationOfPayment": 5855,
      "SuppressDepreciationOfPaymentSection": 5856,
      "Bond": 5857,
      "ged": 5858,
      "lation": 5859,
      "ĠTableId": 5860,
      "JourProcessing": 5861,
      "Converter": 5862,
      "Consump": 5863,
      "Depr": 5864,
      "Ġ\":": 5865,
      "ĠSysDict": 5866,
      "Path": 5867,
      "processing": 5868,
      "RetryNum": 5869,
      "BomCalc": 5870,
      "ĠChecks": 5871,
      "cache": 5872,
      "ĠIndicates": 5873,
      "inue": 5874,
      "Ġwrite": 5875,
      "used": 5876,
      "CheckRequest": 5877,
      "Existing": 5878,
      "AxViewFieldBound": 5879,
      "AttributeHierarchyVisible": 5880,
      "47": 5881,
      "Ġdif": 5882,
      "AssetSumCalc": 5883,
      "oke": 5884,
      "TableIdx": 5885,
      "Instruction": 5886,
      "362": 5887,
      "TransportationLoaded": 5888,
      "OverrideMethod": 5889,
      "ĠAlcoholDeclaration": 5890,
      "ShippingDateRequested": 5891,
      "CBASpentByVendorTmp": 5892,
      "ower": 5893,
      "return": 5894,
      "AxFormDateControl": 5895,
      "ReferenceCategory": 5896,
      "Reconcile": 5897,
      "PurchRFQCaseLine": 5898,
      "uditPolicy": 5899,
      "reverse": 5900,
      "ĠĠĠĠĠĠĠĠĠĠĠĠĠĠĠĠĠĠĠĠĠĠĠĠĠĠĠĠĠĠĠĠĠĠĠĠĠĠĠĠĠĠĠĠĠĠĠĠ": 5901,
      "EntityMaintain": 5902,
      "eff": 5903,
      "ShowCashDiscOnInvoice": 5904,
      "custTable": 5905,
      "ĠaccountingSourceExplorer": 5906,
      "ĠCoc": 5907,
      "Alcohol": 5908,
      "Deleted": 5909,
      "ĠbankReconciliationMatching": 5910,
      "ShowCashDiscOnInvoiceControls": 5911,
      "EM": 5912,
      "Hierarch": 5913,
      "SA": 5914,
      "fe": 5915,
      "gment": 5916,
      "Promi": 5917,
      "addGroupByField": 5918,
      "Invoiced": 5919,
      "InventSum": 5920,
      "BankIBAN": 5921,
      "Prepar": 5922,
      "ouchers": 5923,
      "YearDepreciation": 5924,
      "BillOf": 5925,
      "Ġimport": 5926,
      "LedgerJournalTmp": 5927,
      "FundingLimit": 5928,
      "Ġdeclaration": 5929,
      "BalanceReportColumnsTmp": 5930,
      "PromissoryNote": 5931,
      "QR": 5932,
      "present": 5933,
      "ĠWorkflow": 5934,
      "TableReferences": 5935,
      "ReportEnabled": 5936,
      "JournalRecId": 5937,
      "BOMVersion": 5938,
      "BOMRoute": 5939,
      "AgingReport": 5940,
      "ParmSetup": 5941,
      "ĠBudgetControlConfiguration": 5942,
      "ExternalItemId": 5943,
      "Ġsequence": 5944,
      "journalNum": 5945,
      "CBAInventNonConformance": 5946,
      "ĠPurchLine": 5947,
      "etime": 5948,
      "arcode": 5949,
      "Lock": 5950,
      "OrderConfirmed": 5951,
      "Ġparty": 5952,
      "sourceAssetBookTransaction": 5953,
      "purchReqLine": 5954,
      "Ġmapping": 5955,
      "Wait": 5956,
      "de": 5957,
      "Ġdoc": 5958,
      "RelationExtensions": 5959,
      "PackMaterial": 5960,
      "DialogPurchReqLine": 5961,
      "Ġrelieved": 5962,
      "Ġcharge": 5963,
      "InnerJoin": 5964,
      "ĠBusinessEvent": 5965,
      "80": 5966,
      "RB": 5967,
      "ways": 5968,
      "ĠToDate": 5969,
      "idate": 5970,
      "AxFormCheckBoxControl": 5971,
      "RelationModifications": 5972,
      "Ġread": 5973,
      "Ġche": 5974,
      "PackingSlipId": 5975,
      "InterCompanyBilling": 5976,
      "Ġmarked": 5977,
      "ĠAssetTableInterval": 5978,
      "InvoicingReportEnabled": 5979,
      "AxMenuExtensionElement": 5980,
      "IsCreditInvoicingReportEnabled": 5981,
      "cb": 5982,
      "fill": 5983,
      "ĠSalesLine": 5984,
      "CBAEntitlement": 5985,
      "Editor": 5986,
      "come": 5987,
      "Specific": 5988,
      "Ġspecific": 5989,
      "oredVAT": 5990,
      "Ġroot": 5991,
      "InventSizeId": 5992,
      "PurchasingGroup": 5993,
      "Ġcheque": 5994,
      "Pallet": 5995,
      "oriz": 5996,
      "Ġpmf": 5997,
      "BankTransType": 5998,
      "Ġthrown": 5999,
      "ECID": 6000,
      "projBudgetLine": 6001,
      "vendInvoiceInfoLine": 6002,
      "InventColorId": 6003,
      "Proposed": 6004,
      "Ġfixed": 6005,
      "berg": 6006,
      "Planning": 6007,
      "ColumnName": 6008,
      "Unknown": 6009,
      "RouteOpr": 6010,
      "eginning": 6011,
      "ĠbomCalcItem": 6012,
      "Consolidation": 6013,
      "ĠWHERE": 6014,
      "EA": 6015,
      "Horiz": 6016,
      "spec": 6017,
      "revaluation": 6018,
      "Defer": 6019,
      "Stack": 6020,
      "TaxItemGroup": 6021,
      "RuleType": 6022,
      "Queries": 6023,
      "DeliveryName": 6024,
      "Ġaccelerated": 6025,
      "Success": 6026,
      "FormLetterRecordId": 6027,
      "PurchPurchaseOrderTmp": 6028,
      "OrderConfirmedDeliveryDate": 6029,
      "106": 6030,
      "Just": 6031,
      "etwe": 6032,
      "Ġcomm": 6033,
      "LineProperty": 6034,
      "conPeek": 6035,
      "dataContract": 6036,
      "sourceDocument": 6037,
      "ALEND": 6038,
      "ProductionOrder": 6039,
      "ĠledgerVoucherTransObject": 6040,
      "numberSequence": 6041,
      "ISCALC": 6042,
      "advancedLedgerEntry": 6043,
      "createdTransactionId": 6044,
      "etween": 6045,
      "ISCALCALEND": 6046,
      "due": 6047,
      "macro": 6048,
      "space": 6049,
      "NoRows": 6050,
      "PrePayment": 6051,
      "AccessModifier": 6052,
      "valueMapping": 6053,
      "vendor": 6054,
      "Recoverable": 6055,
      "lsberg": 6056,
      "Fee": 6057,
      "GR": 6058,
      "__": 6059,
      "Ġtree": 6060,
      "CBARPTLedgerAccountAgingTmp": 6061,
      "context": 6062,
      "VendorExchangeRate": 6063,
      "Ġpercent": 6064,
      "Oblig": 6065,
      "Ġsupport": 6066,
      "GUPPricing": 6067,
      "ARTITION": 6068,
      "96": 6069,
      "alf": 6070,
      "SourceEDT": 6071,
      "Dev": 6072,
      "Digit": 6073,
      "UseEnumValue": 6074,
      "ĠlineNum": 6075,
      "Ġinitial": 6076,
      "Closed": 6077,
      "CustPrepaymentInvoiceTmp": 6078,
      "\"))&": 6079,
      "ĠInserts": 6080,
      "BPUpgradeMetadataExtensibilityAdditive": 6081,
      "EW": 6082,
      "TIN": 6083,
      "zure": 6084,
      "ĠLogisticsAddress": 6085,
      "ading": 6086,
      "ControlName": 6087,
      "Unmap": 6088,
      "Yearly": 6089,
      "BatchControl": 6090,
      "ĠformControl": 6091,
      "imiter": 6092,
      "markup": 6093,
      "GEERU": 6094,
      "settlement": 6095,
      "Ġfollowing": 6096,
      "OL": 6097,
      "Ġout": 6098,
      "ĠMenuFunction": 6099,
      "ontal": 6100,
      "CBAEnable": 6101,
      "InventLocation": 6102,
      "ĠAssetGroup": 6103,
      "ClassName": 6104,
      "AutoGen": 6105,
      "Ġstre": 6106,
      "KeyError": 6107,
      "ĠFiscal": 6108,
      "Ġselection": 6109,
      "Ġdisposal": 6110,
      "ĠbudgetPlanLineDataGenerationTmp": 6111,
      "Guarantee": 6112,
      "IsTaxAmountMSTVisible": 6113,
      "Enhancement": 6114,
      "OuterJoin": 6115,
      "Horizontal": 6116,
      "KeyErrorAction": 6117,
      "\"),": 6118,
      "ĠMod": 6119,
      "TextBox": 6120,
      "ĠconLen": 6121,
      "NotCost": 6122,
      "apan": 6123,
      "Ġmodule": 6124,
      "PostalAddressView": 6125,
      "EnterpriseNumber": 6126,
      "314": 6127,
      "ĠFor": 6128,
      "ĠLineNum": 6129,
      "CBACredLimitAssess": 6130,
      "irc": 6131,
      "Ġrepresent": 6132,
      "District": 6133,
      "CheckResultErrorWarning": 6134,
      "Cal": 6135,
      "Incoming": 6136,
      "FormHandler": 6137,
      "CBAParent": 6138,
      "Individual": 6139,
      "Ġhold": 6140,
      "ĠInventSiteId": 6141,
      "cbaInit": 6142,
      "WorkflowStage": 6143,
      "ĠcbATPInventList": 6144,
      "DEVIntegMessageTable": 6145,
      "extendedType": 6146,
      "QualityOrderTable": 6147,
      "AltProfile": 6148,
      "off": 6149,
      "ting": 6150,
      "edBy": 6151,
      "CBAEmpties": 6152,
      "Ġdocu": 6153,
      "country": 6154,
      "service": 6155,
      "ĠCBARebate": 6156,
      "FromDialog": 6157,
      "ĠBankStmtISOReportEntry": 6158,
      "ClaimEntries": 6159,
      "Components": 6160,
      "87": 6161,
      "ĠV": 6162,
      "ValueStr": 6163,
      "1099": 6164,
      "bankLCImport": 6165,
      "ButtonGroupControl": 6166,
      "custTrans": 6167,
      "Ġeach": 6168,
      "matchRule": 6169,
      "cedure": 6170,
      "GenJour": 6171,
      "Ġfunctional": 6172,
      "LicensePlateId": 6173,
      "ĠAccountingDate": 6174,
      "Ġdetermine": 6175,
      "InventVersionId": 6176,
      "RightMargin": 6177,
      "PurchPrice": 6178,
      "PurchAgreement": 6179,
      "Ordinary": 6180,
      "ĠBankAccountTable": 6181,
      "Ġ!_": 6182,
      "Ġtables": 6183,
      "ĠBudgetPlanLayout": 6184,
      "MainAccountId": 6185,
      "RegistrationNumber": 6186,
      "ReceiptDate": 6187,
      "StandardCurrency": 6188,
      "EndDiscEuro": 6189,
      "ĠprojBudgetLine": 6190,
      "SumMarkupEuro": 6191,
      "InventStyleId": 6192,
      "US": 6193,
      "WO": 6194,
      "FieldExpression": 6195,
      "CBB": 6196,
      "InventOwner": 6197,
      "ExtensionComponents": 6198,
      "DiscAmount": 6199,
      "Implement": 6200,
      "CashManagement": 6201,
      "Ġdisable": 6202,
      "Duplicates": 6203,
      "ExistsJoin": 6204,
      "ircular": 6205,
      "pmf": 6206,
      "Proforma": 6207,
      "Ġcriteria": 6208,
      "BudgetFunds": 6209,
      "BookVAT": 6210,
      "TrackingDate": 6211,
      "DEVDocuExpImp": 6212,
      "companyInfo": 6213,
      "Ġapp": 6214,
      "TeleFax": 6215,
      "atVendor": 6216,
      "////": 6217,
      "Transit": 6218,
      "Ġfactor": 6219,
      "BudgetType": 6220,
      "ĠCBAIntegrationProcessing": 6221,
      "RelatedDataEntity": 6222,
      "Operator": 6223,
      "PaymCancel": 6224,
      "ĠcurrentRecord": 6225,
      "BillDetail": 6226,
      "VendorInvoices": 6227,
      "MasterData": 6228,
      "ĠprojectAccountingDistribution": 6229,
      "Ġalready": 6230,
      "Ġmember": 6231,
      "sourceAssetBookTransactionDetailsTmp": 6232,
      "Justification": 6233,
      "OU": 6234,
      "ake": 6235,
      "orker": 6236,
      "igger": 6237,
      "InventGTD": 6238,
      "Private": 6239,
      "ĠBE": 6240,
      "LastPage": 6241,
      "Carlsberg": 6242,
      "ĠspecTrans": 6243,
      "ĠDimensionDefault": 6244,
      "AcceleratedDep": 6245,
      "CBAInventNonConformanceTmp": 6246,
      "42": 6247,
      "_</": 6248,
      "ĠTMS": 6249,
      "AssetAmount": 6250,
      "AssetTransDate": 6251,
      "NumOf": 6252,
      "Printer": 6253,
      "ĠFile": 6254,
      "ĠtableId": 6255,
      "custom": 6256,
      "LedgerJournalTransRecordId": 6257,
      "PositivePay": 6258,
      "UnmappedField": 6259,
      "open": 6260,
      "ĠValue": 6261,
      "ĠLogisticsElectronicAddress": 6262,
      "Ġdepreci": 6263,
      "PaymentId": 6264,
      "Phantom": 6265,
      "InternalBase": 6266,
      "CalculatedMeasure": 6267,
      "ĠBEGIN": 6268,
      "53": 6269,
      "Mov": 6270,
      "fiscal": 6271,
      "mo": 6272,
      "time": 6273,
      "inc": 6274,
      "orical": 6275,
      "IdList": 6276,
      "CBAExciseDuty": 6277,
      "Diff": 6278,
      "Ġfund": 6279,
      "OfDate": 6280,
      "Ġmcr": 6281,
      "DepreciationAdj": 6282,
      "Measurement": 6283,
      "ĠsalesQuotation": 6284,
      "Ġdimensions": 6285,
      "Personnel": 6286,
      "Ġcounter": 6287,
      "Ġaccrual": 6288,
      "assetDepBookMap": 6289,
      "FDS": 6290,
      "PARTITION": 6291,
      "QII": 6292,
      "()),": 6293,
      "01042": 6294,
      "PrintFreeTextInvoice": 6295,
      "Resubmit": 6296,
      "ShowCustTrans": 6297,
      "ĠpurchReq": 6298,
      "BillingCode": 6299,
      "InventTransferTable": 6300,
      "([#": 6301,
      "modifiedField": 6302,
      "PrintOnLastPage": 6303,
      "reset": 6304,
      "GroupOption": 6305,
      "ĠCBASales": 6306,
      "ĠbudgetTmp": 6307,
      "ategy": 6308,
      "Ġhcm": 6309,
      "Ġmatched": 6310,
      "SelectionHelper": 6311,
      "controlConfigurationRecId": 6312,
      "ĠitemId": 6313,
      "PdsCWQty": 6314,
      "TransSettlementView": 6315,
      "Hours": 6316,
      "81": 6317,
      "BD": 6318,
      "FetchMode": 6319,
      "WI": 6320,
      "ntime": 6321,
      "CBAFreight": 6322,
      "ControlPO": 6323,
      "BudgetProposal": 6324,
      "Into": 6325,
      "PeriodStart": 6326,
      "Ġtablenum": 6327,
      "QuantityAndValue": 6328,
      "ĠGlobals": 6329,
      "AbilityControlPO": 6330,
      "ScrapValue": 6331,
      "AbilityControlPOQuantityAndValue": 6332,
      "Âł": 6333,
      "InCountryRegion": 6334,
      "isLegalEntity": 6335,
      "child": 6336,
      "Ġsplit": 6337,
      "Ġold": 6338,
      "assetGroup": 6339,
      "Ġcontinue": 6340,
      "ĠDevelop": 6341,
      "TransferHistory": 6342,
      "Ġmaint": 6343,
      "Ġhistory": 6344,
      "PrintFreeTextInvoiceVATNum": 6345,
      "Spare": 6346,
      "iol": 6347,
      "ĠLine": 6348,
      "erName": 6349,
      "peek": 6350,
      "Translation": 6351,
      "register": 6352,
      "ĠSysOperationExecutionMode": 6353,
      "depreciationProfile": 6354,
      "ĠAssetDepreciationTime": 6355,
      "DisposalTmp": 6356,
      "Finished": 6357,
      "SalesBalanceEuro": 6358,
      "Administration": 6359,
      "HU": 6360,
      "InBatch": 6361,
      "isRetryable": 6362,
      "ptim": 6363,
      "Ġduring": 6364,
      "AccountStructure": 6365,
      "BankCurrencyAmount": 6366,
      "findLast": 6367,
      "ShowTaxTrans": 6368,
      "ButtonEnabled": 6369,
      "114": 6370,
      "Received": 6371,
      "partment": 6372,
      "Attachment": 6373,
      "SmallVATAmounts": 6374,
      "Auth": 6375,
      "cor": 6376,
      "prior": 6377,
      "CBAPurchReq": 6378,
      "Exclus": 6379,
      "JournalType": 6380,
      "InventJournalTrans": 6381,
      "Ġrevaluation": 6382,
      "PrintTaxFreeBalance": 6383,
      "DimMap": 6384,
      "Loads": 6385,
      "ĠsalesInvoice": 6386,
      "cbaGet": 6387,
      "InventTableRecord": 6388,
      "CommercialRegister": 6389,
      "ArrayElements": 6390,
      "OTC": 6391,
      "SSC": 6392,
      "max": 6393,
      "CustPackingSlipTrans": 6394,
      "ript": 6395,
      "AssetBookId": 6396,
      "ĠbudgetModel": 6397,
      "Shift": 6398,
      "ĠjournalTrans": 6399,
      "AssetBookTable": 6400,
      "ĠtaxTrans": 6401,
      "FactureAmounts": 6402,
      "DataMaintenanceRecId": 6403,
      "doUpdate": 6404,
      "gument": 6405,
      "ĠRunBase": 6406,
      "CBADefault": 6407,
      "Ġsave": 6408,
      "Generator": 6409,
      "BalanceOf": 6410,
      "ĠFormStringControl": 6411,
      "CostingVersion": 6412,
      "ShowCustPaymSchedLine": 6413,
      "isLegalEntityInCountryRegion": 6414,
      "625": 6415,
      "Gr": 6416,
      "Cand": 6417,
      "InventParameters": 6418,
      "QueryBuildDataSource": 6419,
      "Ġprovid": 6420,
      "Ġreason": 6421,
      "SysOperation": 6422,
      "transfer": 6423,
      "VersionTable": 6424,
      "ĠdimensionParameters": 6425,
      "PurchRFQTable": 6426,
      "FinancialDimension": 6427,
      "DSOOut": 6428,
      "bit": 6429,
      "Ġutc": 6430,
      "erals": 6431,
      "ToCheck": 6432,
      "CBANonPO": 6433,
      "InvoiceNumber": 6434,
      "Ġbas": 6435,
      "parmSource": 6436,
      "Ġmulti": 6437,
      "uality": 6438,
      "fields": 6439,
      "Ġ[#": 6440,
      "DiscPercent": 6441,
      "Validator": 6442,
      "ProjTable": 6443,
      "Market": 6444,
      "FirstPage": 6445,
      "LastYear": 6446,
      "Adjusted": 6447,
      "InventTransOrigin": 6448,
      "OffsetAccount": 6449,
      "ĠJulian": 6450,
      "PrintOnFirstPage": 6451,
      "Ġclear": 6452,
      "Diagnostic": 6453,
      "IST": 6454,
      "Ġcl": 6455,
      "Ġprogress": 6456,
      "ĠisRetryable": 6457,
      "CompanyLogo": 6458,
      "TransactionListing": 6459,
      "Space": 6460,
      "PostingHistory": 6461,
      "ĠtmpDocument": 6462,
      "SOPool": 6463,
      "bomCalcTrans": 6464,
      "ĠfiscalCalendarYear": 6465,
      "Ġoverrid": 6466,
      "CTION": 6467,
      "ttsLevel": 6468,
      "Best": 6469,
      "Mat": 6470,
      "ug": 6471,
      "LineTmp": 6472,
      "LeftMargin": 6473,
      "Bottle": 6474,
      "AxSecurityRole": 6475,
      "Ġtop": 6476,
      "PostingAccount": 6477,
      "TempTable": 6478,
      "Roll": 6479,
      "ĠloadLine": 6480,
      "Ġenumeration": 6481,
      "delivery": 6482,
      "Ġinterface": 6483,
      "AccumulatedDep": 6484,
      "Ġdeletes": 6485,
      "CBARPTSugarTaxMonthly": 6486,
      "Fence": 6487,
      "arn": 6488,
      "DataStorage": 6489,
      "getFirst": 6490,
      "GroupType": 6491,
      "Extra": 6492,
      "ĠAssetBookId": 6493,
      "OfYear": 6494,
      "TimeFence": 6495,
      "findFirst": 6496,
      "AccountingEvent": 6497,
      "position": 6498,
      "AgingDataStorage": 6499,
      "HierarchyId": 6500,
      "calcArgs": 6501,
      "WorkflowStatus": 6502,
      "Months": 6503,
      "PriceDiscTable": 6504,
      "CBARPTCustomReportSR": 6505,
      "EAN": 6506,
      "Iter": 6507,
      "Ġou": 6508,
      "ĠXML": 6509,
      "ĠMarkup": 6510,
      "ReportUser": 6511,
      "urrence": 6512,
      "ĠassetDocument": 6513,
      "oryStream": 6514,
      "ĠbankCurrencyRevalTmp": 6515,
      "ĠbudgetPlanGenerateContract": 6516,
      "ĠfirstOnly": 6517,
      "Ġlimit": 6518,
      "SettledAmounts": 6519,
      "ĠBatchRetryable": 6520,
      "CPG": 6521,
      "ShowTotalsTaxBalancesEuro": 6522,
      "Yr": 6523,
      "dlv": 6524,
      "fference": 6525,
      "rated": 6526,
      "ĠParm": 6527,
      "TrialBalance": 6528,
      "Difference": 6529,
      "JournalRoute": 6530,
      "parmToDate": 6531,
      "OnHold": 6532,
      "DepreciationMethod": 6533,
      "ĠfieldName": 6534,
      "Interaction": 6535,
      "formDataSourceStr": 6536,
      "ĠparmIs": 6537,
      "config": 6538,
      "bankDocument": 6539,
      "defaultDimension": 6540,
      "ĠBankReconciliationHeader": 6541,
      "ActivityNumber": 6542,
      "EnableParameter": 6543,
      "ĠSysDaFieldExpression": 6544,
      "ĠmenuFunction": 6545,
      "TaxInvoiceItemType": 6546,
      "Dependency": 6547,
      "ĠreductionEntry": 6548,
      "LegalEntities": 6549,
      "appl": 6550,
      "parameters": 6551,
      "BillOfExchange": 6552,
      "Implementation": 6553,
      "488": 6554,
      "qr": 6555,
      "temp": 6556,
      "isValid": 6557,
      "Ġthan": 6558,
      "LineHeader": 6559,
      "Ġinput": 6560,
      "TopMargin": 6561,
      "VendName": 6562,
      "OfAnalysis": 6563,
      "AxDataEntityViewUnmappedField": 6564,
      "ShowS": 6565,
      "LookupMultiSelect": 6566,
      "AreaId": 6567,
      "SumTaxEuro": 6568,
      "ĠAdds": 6569,
      "Recovered": 6570,
      "SerialId": 6571,
      "æľ": 6572,
      "Ġ20": 6573,
      "ĠĠĠĠĠĠĠĠĠĠĠĠĠĠĠĠĠĠĠĠĠĠĠĠĠĠĠĠĠĠĠĠĠĠĠĠ": 6574,
      "FormGrid": 6575,
      "ReportID": 6576,
      "Ġconfir": 6577,
      "DEVLicense": 6578,
      "ShipCarrier": 6579,
      "Ġitems": 6580,
      "lineNum": 6581,
      "ializer": 6582,
      "ApplicationPlatform": 6583,
      "LedgerVoucherObject": 6584,
      "ĠassetTableMethodPrimary": 6585,
      "effective": 6586,
      "Candidate": 6587,
      "300": 6588,
      "LIN": 6589,
      "OK": 6590,
      "Pla": 6591,
      "Pun": 6592,
      "iation": 6593,
      "year": 6594,
      "ĠType": 6595,
      "ReportUnitType": 6596,
      "TaxExempt": 6597,
      "AxReportDesign": 6598,
      "ShowPayment": 6599,
      "TransferTable": 6600,
      "NotRecovered": 6601,
      "ExpressionDialog": 6602,
      "ExpressionEditor": 6603,
      "StateId": 6604,
      "ProjBudgetLine": 6605,
      "AssetTableInterval": 6606,
      "Ġtemplate": 6607,
      "ShowTotalsEuro": 6608,
      "Relief": 6609,
      "AccDistRule": 6610,
      "NegInst": 6611,
      "EXFactory": 6612,
      "Pages": 6613,
      "gu": 6614,
      "worksheet": 6615,
      "Ġemp": 6616,
      "Params": 6617,
      "Ġfr": 6618,
      "SalesPoolId": 6619,
      "AmountofAgingPeriod": 6620,
      "EntityType": 6621,
      "Ġqty": 6622,
      "QtyofAgingPeriod": 6623,
      "Ġchanged": 6624,
      "ARR": 6625,
      "ĠDimensionValue": 6626,
      "ĠBudgetPlanningConstants": 6627,
      "TransTradeTypeId": 6628,
      "ifiedRateTmp": 6629,
      "DSOOutBal": 6630,
      "ĠSub": 6631,
      "CBACommercialHierarchy": 6632,
      "TaxPrintTaxFreeBalance": 6633,
      "Ġassets": 6634,
      "ShowMarkupTrans": 6635,
      "CustInvoiceJourDueDate": 6636,
      "ĠassetDepPreTaxDedProcess": 6637,
      "Ġexecute": 6638,
      "InvoiceRoundOffEuro": 6639,
      "PurchRFQCaseTable": 6640,
      "Literal": 6641,
      "iolation": 6642,
      "LookupMultiSelectCtrl": 6643,
      ",_": 6644,
      "CON": 6645,
      "IG": 6646,
      "null": 6647,
      "ohol": 6648,
      "Transformation": 6649,
      "BankDeposit": 6650,
      "alcohol": 6651,
      "ĠretValue": 6652,
      "Ġconsumption": 6653,
      "ProjForecast": 6654,
      "ĠdataSource": 6655,
      "Deliver": 6656,
      "currentKey": 6657,
      "DeliveryAddress": 6658,
      "ĠBom": 6659,
      "Ġliteral": 6660,
      "Where": 6661,
      "PriceDiscAdm": 6662,
      "MaterialLoss": 6663,
      "Redu": 6664,
      "startOfPeriod": 6665,
      "ĠagreementHeader": 6666,
      "PrintMgmtReportFormat": 6667,
      "ĠledgerVoucherObject": 6668,
      "Ġcorrect": 6669,
      "FacilityAgreementLine": 6670,
      "ĠClassDescription": 6671,
      "ĠliteralStr": 6672,
      "Low": 6673,
      "dec": 6674,
      "fetchMode": 6675,
      "ingDate": 6676,
      "CBAATPInventList": 6677,
      "secon": 6678,
      "AssetPost": 6679,
      "BankStmtISOAccountStatement": 6680,
      "ĠassetId": 6681,
      "CompanyPhone": 6682,
      "Ġjob": 6683,
      "ĠBudgetPlanAllocate": 6684,
      "UpgradeWizard": 6685,
      "Extensible": 6686,
      "ReportSections": 6687,
      "ShowPrepaidTotalsEuro": 6688,
      "ExchangeRateDateField": 6689,
      "ctuality": 6690,
      "isk": 6691,
      "Des": 6692,
      "Token": 6693,
      "InvoiceAddress": 6694,
      "CBARPTInterCompanyBilling": 6695,
      "Ġlabel": 6696,
      "LogTable": 6697,
      "Without": 6698,
      "MappingTable": 6699,
      "Roles": 6700,
      "dimensionAttribute": 6701,
      "UpdateConflictNotRecovered": 6702,
      "Ġconcurrent": 6703,
      "SSCC": 6704,
      "Punctuality": 6705,
      "PunctualityRate": 6706,
      "126": 6707,
      "aNotification": 6708,
      "Ġag": 6709,
      "ĠBookId": 6710,
      "TableMethod": 6711,
      "Ġdatasource": 6712,
      "Strategy": 6713,
      "epaNotification": 6714,
      "ecause": 6715,
      "Ġscenario": 6716,
      "AllowDuplicates": 6717,
      "ĠassetBalanceReportColumnsTmp": 6718,
      "ĠAssetAccrual": 6719,
      "Composition": 6720,
      "BudgetPlanLayout": 6721,
      "missing": 6722,
      "RelatedTableRole": 6723,
      "DeliveryPostalAddress": 6724,
      "custVendTrans": 6725,
      "ProjectAccountingDistribution": 6726,
      "validateInbound": 6727,
      "DisableIndividual": 6728,
      "Ġunpack": 6729,
      "packedQuery": 6730,
      "SupportsSet": 6731,
      "MenuFunctionButton": 6732,
      "Employee": 6733,
      "BasedSql": 6734,
      "ĠsqlStmt": 6735,
      "DatabaseLogTmp": 6736,
      "VIEW": 6737,
      "ModifyContract": 6738,
      "ĠPerforms": 6739,
      "ĠanalysisQuery": 6740,
      "ShowSepaNotification": 6741,
      "DisableIndividualTransformation": 6742,
      "SupportsSetBasedSql": 6743,
      "SupportsSetBasedSqlOperations": 6744,
      "OST": 6745,
      "Datail": 6746,
      "odes": 6747,
      "FormPart": 6748,
      "Stop": 6749,
      "RelatedParty": 6750,
      "Ġrate": 6751,
      "ĠsourceDocument": 6752,
      "ĠSET": 6753,
      "ĠjournalTable": 6754,
      "ChargeMatchLine": 6755,
      "Initial": 6756,
      "Cleared": 6757,
      "LineAmountInclTax": 6758,
      "FallBack": 6759,
      "Author": 6760,
      "MX": 6761,
      "TableJournals": 6762,
      "layout": 6763,
      "BankChequeTable": 6764,
      "IsCopy": 6765,
      "IsExtensible": 6766,
      "CacheDataMethod": 6767,
      "RoleNames": 6768,
      "LastProcessed": 6769,
      "ĠCustVend": 6770,
      "ConnectionType": 6771,
      "COA": 6772,
      "EXFactoryValue": 6773,
      "IsCopyOf": 6774,
      "LastProcessedDateTime": 6775,
      "NUM": 6776,
      "RECID": 6777,
      "dd": 6778,
      "ĠOR": 6779,
      "anies": 6780,
      "DataUtil": 6781,
      "ueue": 6782,
      "ifest": 6783,
      "ExtProfile": 6784,
      "Ġmultip": 6785,
      "budgetLine": 6786,
      "Thread": 6787,
      "ĠlogTrans": 6788,
      "DueAmount": 6789,
      "NumberSequenceTable": 6790,
      "CBFeatureFunction": 6791,
      "Iterator": 6792,
      "557": 6793,
      "LL": 6794,
      "vDepreciationAmount": 6795,
      "Included": 6796,
      "endPeriod": 6797,
      "Ġdmf": 6798,
      "parmFromDate": 6799,
      "CompanyCommercialRegister": 6800,
      "RowNumber": 6801,
      "ProdCalcTrans": 6802,
      "Manifest": 6803,
      "CacheInsert": 6804,
      "AcquisitionValue": 6805,
      "ĠDimensionParameters": 6806,
      "InboundCostAmount": 6807,
      "AxSecurityFormControlReferenceCollection": 6808,
      "FundingSource": 6809,
      "raordinaryDepAmount": 6810,
      "Hierarchies": 6811,
      "PunctualityRateDatail": 6812,
      "Precision": 6813,
      "ĠBP": 6814,
      "ĠFromDate": 6815,
      "ĠHand": 6816,
      "CoRegNum": 6817,
      "Ġfunc": 6818,
      "Ġday": 6819,
      "QueryFetchMode": 6820,
      "Runbase": 6821,
      "Costs": 6822,
      "ProjCategoryId": 6823,
      "TotalAmount": 6824,
      "=\"\">@": 6825,
      "ĠdepreciationInterval": 6826,
      "OutputType": 6827,
      "ĠMCR": 6828,
      "cellation": 6829,
      "sourceDocumentLineItem": 6830,
      "CBATaxExciseDutyAdvPaymTable": 6831,
      "Multiple": 6832,
      "ĠsalesPurchBookDataMap": 6833,
      "topSourceDocumentLineItem": 6834,
      "registerOverrideMethod": 6835,
      "Burden": 6836,
      "CU": 6837,
      "aight": 6838,
      "rit": 6839,
      "Straight": 6840,
      "SystemId": 6841,
      "axInventDim": 6842,
      "VendGroup": 6843,
      "ĠbankAccount": 6844,
      "image": 6845,
      "Ġprocessed": 6846,
      "redMan": 6847,
      "AcquisitionAdj": 6848,
      "heading": 6849,
      "accountingCurrency": 6850,
      "Script": 6851,
      "AgreementHeaderDefault": 6852,
      "Ġinterval": 6853,
      "AdvancedLedgerEntryLine": 6854,
      "TaxRegistrationNumber": 6855,
      "Complete": 6856,
      "ReleasedProducts": 6857,
      "Ġroyalty": 6858,
      "HSCode": 6859,
      "ModernReconciliationUpgradeWizard": 6860,
      "Json": 6861,
      "ren": 6862,
      "CBAPayroll": 6863,
      "Ġtms": 6864,
      "InventProfileId": 6865,
      "Ġproper": 6866,
      "ForSales": 6867,
      "PurchaseRequisition": 6868,
      "ĠinitFrom": 6869,
      "Expected": 6870,
      "MaterialGroup": 6871,
      "Reduction": 6872,
      "assert": 6873,
      "CBASalesDocuHeader": 6874,
      "ĠWHSLoad": 6875,
      "ĠprimaryLedger": 6876,
      "Ġdat": 6877,
      "BottomMargin": 6878,
      "PeriodBalance": 6879,
      "Resol": 6880,
      "Infolog": 6881,
      "('%": 6882,
      "BudgetControlStatistics": 6883,
      "SCM": 6884,
      "ClaimJourSetup": 6885,
      "AccountsPayable": 6886,
      "Consume": 6887,
      "alledFrom": 6888,
      "menuItemName": 6889,
      "CBARPTSugarTaxMonthlyTmp": 6890,
      "net": 6891,
      "Ġ5": 6892,
      "ĠDMF": 6893,
      "ĠĠĊ": 6894,
      "ĠĠĠĠĠĠĠĠĠĠĠĠĠĠĠĠĠĠĠĠĠĠĠĠĠĠĠĠĠĠĠĠĠĠĠĠĠĠĠĠ": 6895,
      "Ġship": 6896,
      "ReferenceField": 6897,
      "Ġchanges": 6898,
      "ĠnumOf": 6899,
      "defaultColumnName": 6900,
      "CustVendTrans": 6901,
      "placeholder": 6902,
      "DataMaintenanceTracking": 6903,
      "targetControlName": 6904,
      "CertOfAnalysis": 6905,
      "EDUCTION": 6906,
      "placeholderText": 6907,
      "Writer": 6908,
      "ĠEntAsset": 6909,
      "ItemGroupId": 6910,
      "LedgerTrans": 6911,
      "ĠCBAVend": 6912,
      ")&#": 6913,
      "PriceCalcId": 6914,
      "LoadManifest": 6915,
      "ProcessingType": 6916,
      "ForecastSales": 6917,
      "ĠMapEnumerator": 6918,
      "SortExpressions": 6919,
      "SalesConfirmHeaderTmp": 6920,
      "factureJour": 6921,
      "Obligation": 6922,
      "DA": 6923,
      "ak": 6924,
      "ees": 6925,
      "with": 6926,
      "SourceCompanyCode": 6927,
      "TableType": 6928,
      "Sync": 6929,
      "geography": 6930,
      "igned": 6931,
      "FeatureExposure": 6932,
      "currentValue": 6933,
      "Historical": 6934,
      "Collections": 6935,
      "ĠInitialize": 6936,
      "assetTableMethod": 6937,
      "EndingBalance": 6938,
      "whs": 6939,
      "DateTransReport": 6940,
      "MajorType": 6941,
      "multi": 6942,
      "ĠĠĠĠĠĠĠĠĠĠĠĠĠĠĠĠĠĠĠĠĠĠĠĠĠĠĠĠĠĠĠĠĠĠĠĠĠĠ": 6943,
      "AxCalculatedMeasure": 6944,
      "FormLookup": 6945,
      "Ġbusiness": 6946,
      "AxFormMenuFunction": 6947,
      "ĠassetJournal": 6948,
      "Ġrequi": 6949,
      "Ordinal": 6950,
      "eread": 6951,
      "ĠconNull": 6952,
      "Ġexpe": 6953,
      "PaymTermId": 6954,
      "Integrated": 6955,
      "ExchAdj": 6956,
      "PrimaryContact": 6957,
      "mainAccount": 6958,
      "Utility": 6959,
      "ARY": 6960,
      "Ġsecon": 6961,
      "ĠshouldThrowExceptionOnZeroDelete": 6962,
      "avig": 6963,
      "Variable": 6964,
      "Quarterly": 6965,
      "Basic": 6966,
      "Ġarray": 6967,
      "BusRel": 6968,
      "AxFormMenuFunctionButtonControl": 6969,
      "Queue": 6970,
      "tn": 6971,
      "ĠInteger": 6972,
      "FieldLabel": 6973,
      "SourceRelationType": 6974,
      "term": 6975,
      "ItemNum": 6976,
      "ĠassetComponent": 6977,
      "ĠAssetStatus": 6978,
      "ForFree": 6979,
      "StatusId": 6980,
      "prompt": 6981,
      "CostBreakdown": 6982,
      "Ġcontrols": 6983,
      "cbaUpdate": 6984,
      "budgetPlanningProcessRecId": 6985,
      "ĠttsCommit": 6986,
      "WithholdTrans": 6987,
      "TaxBaseAmount": 6988,
      "Ġargument": 6989,
      "CBAEmplExpense": 6990,
      "shouldThrowExceptionOnZeroDelete": 6991,
      "NUMBER": 6992,
      "YTD": 6993,
      "ful": 6994,
      "Acquired": 6995,
      "ĠassetProposal": 6996,
      "TransactionStatus": 6997,
      "ListEnumerator": 6998,
      "inder": 6999,
      "assetBudgetModelId": 7000,
      "Expi": 7001,
      "Retention": 7002,
      "PdsEnabled": 7003,
      "StageRule": 7004,
      "Needed": 7005,
      "UOMConversion": 7006,
      "ĠassetDepreciableAssetsSummaryTmp": 7007,
      "\"));": 7008,
      "ĠWHS": 7009,
      "InQuery": 7010,
      "InCurYear": 7011,
      "Ġclicked": 7012,
      "Ġbecause": 7013,
      "Ġaut": 7014,
      "OrderImport": 7015,
      "ByDimension": 7016,
      "BaseAmount": 7017,
      "ĠIFeature": 7018,
      "ĠnumberOfPeriods": 7019,
      "ĠSysOperationHelpText": 7020,
      "ĠprojForecast": 7021,
      "TemplateId": 7022,
      "PRD": 7023,
      "ĠttsBegin": 7024,
      "tmpTable": 7025,
      "relations": 7026,
      "Simulation": 7027,
      "92": 7028,
      "Und": 7029,
      "Ġletter": 7030,
      "Input": 7031,
      "Ġdesign": 7032,
      "AxFormButtonGroupControl": 7033,
      "ĠbankStatement": 7034,
      "MatchFor": 7035,
      "BatchCode": 7036,
      "Inserted": 7037,
      "WriteCode": 7038,
      "OutboundQuantity": 7039,
      "Ġdepend": 7040,
      "ItemGroupItem": 7041,
      "Synchronous": 7042,
      "ENT": 7043,
      "BankLCExport": 7044,
      "note": 7045,
      "NetAmountEuro": 7046,
      "ĠBookStructSmallVATAmounts": 7047,
      "ĠforecastSales": 7048,
      "Ġcombination": 7049,
      "ĠfuncName": 7050,
      "aved": 7051,
      "dat": 7052,
      "ingAmount": 7053,
      "Ġbeginning": 7054,
      "rieve": 7055,
      "Ordered": 7056,
      "fieldName": 7057,
      "Within": 7058,
      "TransferLine": 7059,
      "Overdue": 7060,
      "inventBatchId": 7061,
      "RequestFor": 7062,
      "578": 7063,
      "CalculatedMeasures": 7064,
      "CBAPOCompliance": 7065,
      "Ġcorres": 7066,
      "methodStr": 7067,
      "Administrator": 7068,
      "InventSumDateTransReport": 7069,
      "sole": 7070,
      "SalesAdministrator": 7071,
      "AttributeType": 7072,
      "POS": 7073,
      "Specified": 7074,
      "ĠpackedQuery": 7075,
      "BasedOn": 7076,
      "ĠlogisticsElectronicAddress": 7077,
      "ffffff": 7078,
      "Msg": 7079,
      "HorizontalLeft": 7080,
      "CBARPTInterCompanyBillingTmp": 7081,
      "ĠSysOperationHelpTextAttribute": 7082,
      "Way": 7083,
      "ĠDataAreaId": 7084,
      "ĠHcm": 7085,
      "ĠHcmWorker": 7086,
      "Invoke": 7087,
      "ĉĉĉĉĉĉĉĉĉĉĉĉĉĉĉĉĉĉĉĉĉ": 7088,
      "ĠbankAccountStatement": 7089,
      "ErrorMessage": 7090,
      "LedgerJournalName": 7091,
      "journalTable": 7092,
      "Maximum": 7093,
      "ĠAssetBookTable": 7094,
      "ĠrestPeriod": 7095,
      "Risk": 7096,
      "jumpRef": 7097,
      "TabControl": 7098,
      "ableLimit": 7099,
      "JournalSetup": 7100,
      "BankCurrencyRevalTmp": 7101,
      "egate": 7102,
      "PurchUnit": 7103,
      "project": 7104,
      "ĠFin": 7105,
      "Ġdeposit": 7106,
      "ĠLedgerDimensionAccount": 7107,
      "budgetPlanLineDataGenerationTmp": 7108,
      "000000": 7109,
      "SalesConfirmDetailsTmp": 7110,
      "ĠGlobalization": 7111,
      "owerAI": 7112,
      "solete": 7113,
      "'&": 7114,
      "Ġflag": 7115,
      "ControlStatistics": 7116,
      "Defect": 7117,
      "Chart": 7118,
      "Overlap": 7119,
      "insertDatabase": 7120,
      "ParmTable": 7121,
      "Ġaccumulated": 7122,
      "ReverseChargeAmount": 7123,
      "Catalog": 7124,
      "ĠdirPartyTable": 7125,
      "ModuleInventCustVend": 7126,
      "Ġfunds": 7127,
      "ĠHandles": 7128,
      "Driv": 7129,
      "MD": 7130,
      "adjust": 7131,
      "atest": 7132,
      "getAsset": 7133,
      "CBAINTChangeTracking": 7134,
      "Acct": 7135,
      "rix": 7136,
      "AccountID": 7137,
      "PrintCode": 7138,
      "amountCur": 7139,
      "ĠinventBatch": 7140,
      "JoinSource": 7141,
      "LogTransOper": 7142,
      "PRC": 7143,
      "SortField": 7144,
      "ĠSysDaQueryObject": 7145,
      "costPrice": 7146,
      "ĠFinds": 7147,
      "ÂłÂł": 7148,
      "Gross": 7149,
      "SU": 7150,
      "test": 7151,
      "ĠssrsReportStr": 7152,
      "level": 7153,
      "getQuery": 7154,
      "Ġcross": 7155,
      "ColumnSet": 7156,
      "BalanceParameters": 7157,
      "DepreciationValue": 7158,
      "RefInvoice": 7159,
      "ĠjumpRef": 7160,
      "ĠtableStr": 7161,
      "ateral": 7162,
      "ĠinventTransOrigin": 7163,
      "AlcoholDeclaration": 7164,
      "ĠAssetTransLight": 7165,
      "Employees": 7166,
      "Multiplier": 7167,
      "Expanded": 7168,
      "executionMode": 7169,
      ".(": 7170,
      "62": 7171,
      "Fw": 7172,
      "Sell": 7173,
      "ĠPat": 7174,
      "Ġdestination": 7175,
      "rick": 7176,
      "exch": 7177,
      "OnHand": 7178,
      "assetDepreciationProfile": 7179,
      "Ġfieldstr": 7180,
      "SubType": 7181,
      "DynamicAccount": 7182,
      "PurchRFQReplyLine": 7183,
      "ĠlegalEntity": 7184,
      "Ġpacking": 7185,
      "Summarized": 7186,
      "ĠConstructs": 7187,
      "ĠPatrick": 7188,
      "110": 7189,
      "354": 7190,
      "Azure": 7191,
      "FI": 7192,
      "sFor": 7193,
      "ĠAddress": 7194,
      "TableInstance": 7195,
      "ToBe": 7196,
      "CBATax": 7197,
      "DATAAR": 7198,
      "Ġskip": 7199,
      "PurchFreight": 7200,
      "ĠassetDocumentEntry": 7201,
      "formStr": 7202,
      "Through": 7203,
      "ĠBU": 7204,
      "CashDiscAmount": 7205,
      "ĠAssetDepreciationProfile": 7206,
      "BPUpgradeMetadataForm": 7207,
      "Ġinfolog": 7208,
      "RevisionLine": 7209,
      "DMFDefinitionGroupName": 7210,
      "Matrix": 7211,
      "MatchForPurchFreight": 7212,
      "WayMatchForPurchFreight": 7213,
      "WayMatchForPurchFreightInvoice": 7214,
      "SW": 7215,
      "bind": 7216,
      "ince": 7217,
      "getNext": 7218,
      "addFieldValue": 7219,
      "ATION": 7220,
      "Ġside": 7221,
      "BankTrans": 7222,
      "parmItemId": 7223,
      "StatusTmp": 7224,
      "ShowQII": 7225,
      "estim": 7226,
      "ĠSysOperationService": 7227,
      "PendingMatch": 7228,
      "TradeAgreement": 7229,
      "ponse": 7230,
      "ĠmessageTable": 7231,
      "ĠBOMCalcProd": 7232,
      "InclVAT": 7233,
      "DATAAREA": 7234,
      "93": 7235,
      "category": 7236,
      "calendar": 7237,
      "iable": 7238,
      "yc": 7239,
      "ched": 7240,
      "Ġph": 7241,
      "CBAStockBalanceAccrual": 7242,
      "Ack": 7243,
      "Disabled": 7244,
      "TaxWriteCode": 7245,
      "ĠbudgetCycle": 7246,
      "ĠBankClient": 7247,
      "Ġstrfmt": 7248,
      "CustomerGroup": 7249,
      "ConfigIdFlag": 7250,
      "roundOff": 7251,
      "ĠvalidateWrite": 7252,
      "assem": 7253,
      "Warnings": 7254,
      "sorship": 7255,
      "Ġindicator": 7256,
      "AssignmentNumber": 7257,
      "AbilityToPrintLoadManifest": 7258,
      "ReceivingQual": 7259,
      "Ġarguments": 7260,
      "Qbds": 7261,
      "Xml": 7262,
      "month": 7263,
      "ĠCredit": 7264,
      "Ġctrl": 7265,
      "alays": 7266,
      "Requi": 7267,
      "ench": 7268,
      "CBAEInvoice": 7269,
      "LedgerBalance": 7270,
      "UnitConverter": 7271,
      "DiscDate": 7272,
      "ShowPacking": 7273,
      "ShowCustPackingSlipTrans": 7274,
      "PaymReference": 7275,
      "CategoryHierarchy": 7276,
      "atureOf": 7277,
      "Commission": 7278,
      "queryBuildDataSource": 7279,
      "ĠreportEntry": 7280,
      "158": 7281,
      "BalancesActuals": 7282,
      "ĠCustTrans": 7283,
      "controlId": 7284,
      "IFT": 7285,
      "DMFExecutionId": 7286,
      "ComponentModel": 7287,
      "SubbrandCode": 7288,
      "EnterpriseCode": 7289,
      "TaxBaseAmountMST": 7290,
      "InventSizeIdFlag": 7291,
      "InventColorIdFlag": 7292,
      "alaysia": 7293,
      "ShowPackingMaterial": 7294,
      "Violation": 7295,
      "[]": 7296,
      "ĠPO": 7297,
      "Datasource": 7298,
      "TransTableId": 7299,
      "CBAOutletIncentiveJourEntries": 7300,
      "ItemNumber": 7301,
      "parmShow": 7302,
      "PurchPostingHistory": 7303,
      "Spon": 7304,
      "Ġcancelling": 7305,
      "AcquisitionPrice": 7306,
      "ĠCustAccount": 7307,
      "startOperation": 7308,
      "ĠcurrencyCode": 7309,
      "RetailTrans": 7310,
      "periods": 7311,
      "ĠdictTable": 7312,
      "WithholdingTaxType": 7313,
      "ĠexchangeRateHelper": 7314,
      "DATAAREAID": 7315,
      "IS": 7316,
      "Sk": 7317,
      "Tabular": 7318,
      "getDialogField": 7319,
      "))&": 7320,
      "AtEnd": 7321,
      "ucture": 7322,
      "DepreciationConvention": 7323,
      "QtyHL": 7324,
      "ĠSysOperationGroup": 7325,
      "WriteUp": 7326,
      "Ġlen": 7327,
      "RetailPrice": 7328,
      "CBACustomerInvoices": 7329,
      "prevDepAmount": 7330,
      "bindInfo": 7331,
      "Sponsorship": 7332,
      ";'": 7333,
      "Dut": 7334,
      "Vouchers": 7335,
      "min": 7336,
      "no": 7337,
      "Ġemail": 7338,
      "itlement": 7339,
      "illed": 7340,
      "axSalesTable": 7341,
      "SecCur": 7342,
      "209": 7343,
      "CBARPTAmount": 7344,
      "ĠBudgetPlanScenario": 7345,
      "ĠBudgetPlanningProcess": 7346,
      "642": 7347,
      "AdvancedRule": 7348,
      "SortedList": 7349,
      "matched": 7350,
      "Ġassess": 7351,
      "ĠformControlStr": 7352,
      "Categ": 7353,
      "orial": 7354,
      "TransTxt": 7355,
      "AssetDocumentEntry": 7356,
      "BudgetingOrganization": 7357,
      "CustomBatchCode": 7358,
      "ItemBarcode": 7359,
      "ĠBankCheque": 7360,
      "ĠBankAutomation": 7361,
      "Allocated": 7362,
      "newParameters": 7363,
      "ĠMulti": 7364,
      "Approver": 7365,
      "AnalysisSource": 7366,
      "Ġadditional": 7367,
      "ĠBudgetControlSourceIntegrator": 7368,
      "Ġrelease": 7369,
      "OffsetAccountType": 7370,
      "BudgetTransactionType": 7371,
      "ĠAxBC": 7372,
      "Applicability": 7373,
      "ached": 7374,
      "Ġadvance": 7375,
      "RoyaltyProcessingSG": 7376,
      "TaxExemptDescription": 7377,
      ";-": 7378,
      "Gain": 7379,
      "ĠDefaultDimension": 7380,
      "DataCalc": 7381,
      "ison": 7382,
      "Trv": 7383,
      "Ġsim": 7384,
      "Ġsite": 7385,
      "Ġinst": 7386,
      "CurrencyBankAccount": 7387,
      "ĠbankPaymAdvice": 7388,
      "convert": 7389,
      "Ġtransient": 7390,
      "newAsset": 7391,
      "FeatureStateProvider": 7392,
      "DirPartyLocation": 7393,
      "Ġexceptions": 7394,
      "ĠadvPaym": 7395,
      "TransSettlementAccount": 7396,
      "Half": 7397,
      "aily": 7398,
      "Runtime": 7399,
      "getFormDataSource": 7400,
      "CBAColl": 7401,
      "DataSourceID": 7402,
      "AccountSum": 7403,
      "LabelId": 7404,
      "Consign": 7405,
      "Users": 7406,
      "ProdVolume": 7407,
      "PageNumber": 7408,
      "CacheScope": 7409,
      "utorIncentiveAccruals": 7410,
      "Ġinserted": 7411,
      "ConnectionProperties": 7412,
      "UsedInQuery": 7413,
      "product": 7414,
      "Alert": 7415,
      "ĠSRSReport": 7416,
      "CleanUp": 7417,
      "IntegratedSecurity": 7418,
      "avigation": 7419,
      "Fwd": 7420,
      "IFTNo": 7421,
      "((": 7422,
      "sent": 7423,
      "ĠAccountNum": 7424,
      "reason": 7425,
      "Reject": 7426,
      "CBACreate": 7427,
      "ReferenceControl": 7428,
      "AxDataEntityViewExtension": 7429,
      "Sever": 7430,
      "ĠSSRS": 7431,
      "WriteDown": 7432,
      "runOperation": 7433,
      "ConditionPrice": 7434,
      "Submitted": 7435,
      "ĠsourceDocumentLineItem": 7436,
      "CBARebateSettlementLine": 7437,
      "iqueId": 7438,
      "ĠSum": 7439,
      "remain": 7440,
      "HeaderNotes": 7441,
      "BookTrans": 7442,
      "DisplayStr": 7443,
      "Ġmove": 7444,
      "ByType": 7445,
      "Transferred": 7446,
      "AcquisitionCost": 7447,
      "ĠmapEnumerator": 7448,
      "ĠmatchingItem": 7449,
      "JournalNameId": 7450,
      "performFormLookup": 7451,
      "Cross": 7452,
      "Follow": 7453,
      "GCN": 7454,
      "plan": 7455,
      "ĠFormat": 7456,
      "req": 7457,
      "TableNum": 7458,
      "CoProduct": 7459,
      "party": 7460,
      "SalesReturn": 7461,
      "export": 7462,
      "NoOf": 7463,
      "ShowPayer": 7464,
      "104": 7465,
      "ĠBudgetPlanGenerate": 7466,
      "purchRFQ": 7467,
      "PolicyRule": 7468,
      "AfterItem": 7469,
      "SumTaxMST": 7470,
      "Deletes": 7471,
      "Expensed": 7472,
      "RetirementObligation": 7473,
      "Deferrals": 7474,
      "configId": 7475,
      "63": 7476,
      "SAL": 7477,
      "Void": 7478,
      "]))": 7479,
      "location": 7480,
      "ose": 7481,
      "ĠReturn": 7482,
      "ĠCurrentOperationsTax": 7483,
      "ĠĠĠĠĠĠĠĊ": 7484,
      "utOff": 7485,
      "ExtCodeId": 7486,
      "ReportContract": 7487,
      "ReportDefinition": 7488,
      "))));": 7489,
      "StatementTmp": 7490,
      "EnabledType": 7491,
      "ĠcustVendTrans": 7492,
      "inventlist": 7493,
      "Ġresponsible": 7494,
      "ModuleType": 7495,
      "CHAR": 7496,
      "ĠLedgerDimensionFacade": 7497,
      "ĠREDUCTION": 7498,
      "ĠreportingDimensionReference": 7499,
      "atpinventlist": 7500,
      "ViewDimensionEnabledType": 7501,
      "CONTR": 7502,
      "CF": 7503,
      "EUR": 7504,
      "NC": 7505,
      "UT": 7506,
      "ĠPost": 7507,
      "state": 7508,
      "ĠstrLen": 7509,
      "ĠFixed": 7510,
      "ĠFISCALCALEND": 7511,
      "Ġtypes": 7512,
      "DMFTransferStatus": 7513,
      "assess": 7514,
      "FactureDate": 7515,
      "ĠinventTransLoop": 7516,
      "CalculatedTmp": 7517,
      "DEVIntegMessageTypeTableOutbound": 7518,
      "ĠERROR": 7519,
      "ĠatpInventListSumTmpDate": 7520,
      "CPGName": 7521,
      "datetime": 7522,
      "51": 7523,
      "Circular": 7524,
      "doc": 7525,
      "go": 7526,
      "gle": 7527,
      "iy": 7528,
      "rill": 7529,
      "Step": 7530,
      "AmountTax": 7531,
      "VendPayment": 7532,
      "CBARPTDSOOutBal": 7533,
      "AxDataEntityViewRelationConstraint": 7534,
      "ĠBAA": 7535,
      "budgetPlanning": 7536,
      "dataSourceCtx": 7537,
      "RegistrationNum": 7538,
      "PickUp": 7539,
      "AsOfDate": 7540,
      "TaxFreeBalanceEuro": 7541,
      "ĠlogisticsAddress": 7542,
      "ĠcustomerInvoices": 7543,
      "ReverseChargeBalance": 7544,
      "MandateBankIBAN": 7545,
      "MandateSW": 7546,
      "vendInvoiceInfoTable": 7547,
      "TaxableBalanceEuro": 7548,
      "Waiting": 7549,
      "seconds": 7550,
      "MandateSWIFTNo": 7551,
      "BDS": 7552,
      "MP": 7553,
      "Navigation": 7554,
      "back": 7555,
      "ĠGenerate": 7556,
      "arison": 7557,
      "rebate": 7558,
      "Ġinv": 7559,
      "200": 7560,
      "Ġremove": 7561,
      "RefType": 7562,
      "SysCountryRegionCode": 7563,
      "Ġconpeek": 7564,
      "WorkId": 7565,
      "MatchActionType": 7566,
      "Accessorial": 7567,
      "Ġextended": 7568,
      "ModuleAccess": 7569,
      "ĠassetTransTmp": 7570,
      "DirectOff": 7571,
      "ĠbatchHeader": 7572,
      "enumerator": 7573,
      "CycleCount": 7574,
      "ĠprojBudgetAllocationLine": 7575,
      ";#,": 7576,
      "Expenses": 7577,
      "Bonded": 7578,
      "ĠBUDGET": 7579,
      "Done": 7580,
      "determine": 7581,
      "vat": 7582,
      "ĠFieldName": 7583,
      "oran": 7584,
      "research": 7585,
      "Incre": 7586,
      "InvoiceTxt": 7587,
      "DimensionValues": 7588,
      "LedgerReconciliation": 7589,
      "SumOf": 7590,
      "ReconciliationHeader": 7591,
      "UseDefault": 7592,
      "aporan": 7593,
      "Ġprocessor": 7594,
      "AllocationRule": 7595,
      "Ġapply": 7596,
      "CBACustCollectionLetter": 7597,
      "Hy": 7598,
      "Port": 7599,
      "must": 7600,
      "rfq": 7601,
      "sys": 7602,
      "Department": 7603,
      "TransDateTime": 7604,
      "ExtensionGroup": 7605,
      "PeriodModuleAccess": 7606,
      "TotalPages": 7607,
      "ĠcustSettlement": 7608,
      "PaymentReference": 7609,
      "VendorAccount": 7610,
      "TempDB": 7611,
      "ReportingCurrencyDepreciation": 7612,
      "OriginalBudget": 7613,
      "DEVIntegMessageTypeInbound": 7614,
      "numberSeq": 7615,
      "EntAssetWorkOrderJournal": 7616,
      "ĠBankReconciliationMatchingEntry": 7617,
      "VIS": 7618,
      "Ġpercentage": 7619,
      "FOR": 7620,
      "NatureOf": 7621,
      "ĠGeneralJournalAccountEntry": 7622,
      "FormNum": 7623,
      "illi": 7624,
      "Extract": 7625,
      "Extends": 7626,
      "orders": 7627,
      "BudgetGroup": 7628,
      "Defaulting": 7629,
      "InventVersion": 7630,
      "BookType": 7631,
      "CalcFreight": 7632,
      "assetDocumentEntry": 7633,
      "Ġconnection": 7634,
      "WorkFlow": 7635,
      "DEFIN": 7636,
      "AccrualEntries": 7637,
      "ReturnOrders": 7638,
      "CBASalesOrder": 7639,
      "ĠcustTransOpen": 7640,
      "AbilityToPickUp": 7641,
      "InventStyleIdFlag": 7642,
      "ShowBackOrderConfirmedDeliveryDate": 7643,
      "ShowBackorders": 7644,
      "BOMRouteTree": 7645,
      "extendedTypeStr": 7646,
      "Severity": 7647,
      "InventVersionIdFlag": 7648,
      "AbilityToPickUpReturnOrders": 7649,
      "020": 7650,
      "82": 7651,
      "CC": 7652,
      "MA": 7653,
      "Malaysia": 7654,
      "Switch": 7655,
      "TableField": 7656,
      "Formletter": 7657,
      "ToDataEntity": 7658,
      "Ġbetween": 7659,
      "AmountFor": 7660,
      "Excluded": 7661,
      "Disposition": 7662,
      "TaxExtension": 7663,
      "ExtensionList": 7664,
      "ĠassetDepreciationProfile": 7665,
      "Ġprovided": 7666,
      "CompanyTeleFax": 7667,
      "BOMCalcTrans": 7668,
      "ElementEventArgs": 7669,
      "StagingExtensionGroup": 7670,
      "StagingToDataEntity": 7671,
      "ĠcanRunInNewSession": 7672,
      "VendInvoiceInfo": 7673,
      "Debug": 7674,
      "DMFIsSelected": 7675,
      "ĠAssetDepCalculation": 7676,
      "CreditLimitAdj": 7677,
      "Variant": 7678,
      "original": 7679,
      "UtcDateTime": 7680,
      "FundingLimitTracking": 7681,
      "ĠdeclarationTrans": 7682,
      "TaxExtensionIN": 7683,
      "StagingToDataEntityRelationshipRole": 7684,
      "Laporan": 7685,
      "Optim": 7686,
      "Word": 7687,
      "dAmount": 7688,
      "address": 7689,
      "SalesPool": 7690,
      "014": 7691,
      "ForInvoice": 7692,
      "TransactionCurrencyCode": 7693,
      "Running": 7694,
      "SysInstrumentationActivityContext": 7695,
      "proposal": 7696,
      "StagingDeveloperDocumentation": 7697,
      "className": 7698,
      "accountId": 7699,
      "forupdate": 7700,
      "taxTrans": 7701,
      "Ġreversed": 7702,
      "primaryLedgerRecId": 7703,
      "ĠDefault": 7704,
      "CustCollections": 7705,
      "ReportParmSetup": 7706,
      "BudgetGroupMember": 7707,
      "Pop": 7708,
      "BankCheque": 7709,
      "ĠbudgetGroup": 7710,
      "verage": 7711,
      "ĠBankDocumentTable": 7712,
      "CostCategory": 7713,
      "olution": 7714,
      "ĠvendSettlement": 7715,
      "cbaIs": 7716,
      "ĠIF": 7717,
      "ChequePrintout": 7718,
      "point": 7719,
      "Ġplanning": 7720,
      "apanese": 7721,
      "validateInboundString": 7722,
      "PunctualityRateDatailTmp": 7723,
      "StraightLine": 7724,
      "POSITION": 7725,
      "illiseconds": 7726,
      "ControlModifications": 7727,
      "DateOf": 7728,
      "GroupHeader": 7729,
      "AssetBudget": 7730,
      "Exceed": 7731,
      "Conn": 7732,
      "EntryControl": 7733,
      "IsInvoice": 7734,
      "BookTable": 7735,
      "Ġrece": 7736,
      "ĠBankCoda": 7737,
      "Levels": 7738,
      "Subtotal": 7739,
      "CustomerInvoice": 7740,
      "append": 7741,
      "14578": 7742,
      "ĠprodTable": 7743,
      "MCRSalesLine": 7744,
      "MaterialType": 7745,
      "CashDiscTxt": 7746,
      "ĠEX": 7747,
      "journalTrans": 7748,
      "ĠzipCode": 7749,
      "WHSWorkTable": 7750,
      "AxEdtString": 7751,
      "PrintMgmtDocumentType": 7752,
      "ĠdirPartyLocation": 7753,
      "ĠwhsLoadTable": 7754,
      "InteractiveWidth": 7755,
      "InteractiveHeight": 7756,
      "StaticText": 7757,
      "EntAssetBudgetLines": 7758,
      "PrePaymentAmountTax": 7759,
      "Digits": 7760,
      "FM": 7761,
      "stre": 7762,
      "nsure": 7763,
      "Ġcgu": 7764,
      "InvoiceTax": 7765,
      "Ġblock": 7766,
      "CBARPTInvoice": 7767,
      "CBARPTReceivingQual": 7768,
      "Ġreset": 7769,
      "Ġstored": 7770,
      "Ġqb": 7771,
      "assetAmount": 7772,
      "budgetPlanGenerateContract": 7773,
      "Ġsummar": 7774,
      "MaintenanceBudget": 7775,
      "Ġsession": 7776,
      "InquiryHelper": 7777,
      "canRunInNewSession": 7778,
      "osingDate": 7779,
      "ĠInventDimId": 7780,
      "Equals": 7781,
      "NumberOfRows": 7782,
      "ĠBudgetTransactionType": 7783,
      "TaxExciseDutyAdvPaymId": 7784,
      "ĠSpecifies": 7785,
      "PersonnelNumber": 7786,
      "DEFINE": 7787,
      "Mth": 7788,
      "site": 7789,
      "lex": 7790,
      "AxId": 7791,
      "AlignChild": 7792,
      "Secu": 7793,
      "Objects": 7794,
      "SysClient": 7795,
      "allocate": 7796,
      "Ġstructure": 7797,
      "ĠqueryValue": 7798,
      "SubTask": 7799,
      "GetData": 7800,
      "ĠdateMax": 7801,
      "CurrentYear": 7802,
      "FileUpload": 7803,
      "DocType": 7804,
      "ĠAxInternalBase": 7805,
      "Obsolete": 7806,
      "GiroType": 7807,
      "MassUpdate": 7808,
      "VendAgingCurrencySelection": 7809,
      "QRCode": 7810,
      "LINE": 7811,
      "MaterialLosses": 7812,
      "UseDefaultRoleNames": 7813,
      "SysClientCacheDataMethod": 7814,
      "Milliseconds": 7815,
      "ral": 7816,
      "ĠPurchTable": 7817,
      "reser": 7818,
      "ĠĠĠĠĠĠĠĠĠĠĠĠĠĠĠĠĠĠĠĠĠĠĠĠĠĠĠĠĠĠĠĠĠĠĠĠĠĠĠĠĠĠĠĠĠĠĠĠĠĠ": 7819,
      "SourceTableId": 7820,
      "CBAVendorInvoices": 7821,
      "Ġcycle": 7822,
      "RuleViolation": 7823,
      "ByDate": 7824,
      "Ġexch": 7825,
      "BPWarning": 7826,
      "ProductType": 7827,
      "Partial": 7828,
      "ImportDateTime": 7829,
      "ĠnumberSequence": 7830,
      "UsedFromDate": 7831,
      "ACT": 7832,
      "Ġneeds": 7833,
      "ĠassetGroupInformation": 7834,
      "CBAOrderPurpose": 7835,
      "RouteVersionSelect": 7836,
      "Resolver": 7837,
      "Ġsecond": 7838,
      "BPUpgradeMetadataFormPattern": 7839,
      "AlertConfiguration": 7840,
      "OIN": 7841,
      "Ġorg": 7842,
      "ĠSourceDocumentHeader": 7843,
      "ude": 7844,
      "InventBatch": 7845,
      "PurchPoolId": 7846,
      "Preliminary": 7847,
      "ForDepreciation": 7848,
      "SysDatabaseLogTmp": 7849,
      "RateMaster": 7850,
      "Than": 7851,
      "Ġupdates": 7852,
      "ommitted": 7853,
      "InvoiceLineSourceDocLineItem": 7854,
      "PhysicalTableInstance": 7855,
      "ĠvendInvoiceInfoTable": 7856,
      "SettledAmountCur": 7857,
      "linkPhysicalTableInstance": 7858,
      "parmReportContract": 7859,
      "offset": 7860,
      "CBAPurchReqEntries": 7861,
      "BestBefore": 7862,
      "ExpensedProducts": 7863,
      "PeriodModuleAccessControl": 7864,
      "800": 7865,
      "Cnt": 7866,
      "ead": 7867,
      "InvoiceAmountMST": 7868,
      "Extraordinary": 7869,
      "SalesAnd": 7870,
      "Ġsmm": 7871,
      "TaxValue": 7872,
      "Unposted": 7873,
      "Manu": 7874,
      "ShowCompanyVATNum": 7875,
      "ĠBudgetProposal": 7876,
      "VendorMasterData": 7877,
      "ProductCandidate": 7878,
      "bankAccountTable": 7879,
      "BudgetControlRule": 7880,
      "BudgetControlLedgerDimension": 7881,
      "JobType": 7882,
      "PartitionId": 7883,
      "ĠcurrencyExchangeHelper": 7884,
      "AssetTableMethod": 7885,
      "URRE": 7886,
      "ĠinterCompany": 7887,
      "Ġadvanced": 7888,
      "CBAPOInvoice": 7889,
      "bankAccountMap": 7890,
      "Ġdiffer": 7891,
      "LinePropertyId": 7892,
      "Ġutcdatetime": 7893,
      "VendorMasterDataChanges": 7894,
      "Put": 7895,
      "Sing": 7896,
      "VMD": 7897,
      "feature": 7898,
      "reread": 7899,
      "ĠVendTrans": 7900,
      "ĠĠĠĠĠĠĠĠĠĠĠĠĠĠĠĠĠĠĠĠĠĠĠĠĠĠĠĠĠĠĠĠĠĠĠĠĠĠĠĠĠĠ": 7901,
      "entry": 7902,
      "CustomAnd": 7903,
      "LeftInYear": 7904,
      "InventJournalTable": 7905,
      "ĠCBACheck": 7906,
      "EDGER": 7907,
      "ĠextraordinaryDepAmount": 7908,
      "CellDefinitions": 7909,
      "GridLayout": 7910,
      "Ġenter": 7911,
      "ARCHAR": 7912,
      "LegalEntityId": 7913,
      "selection": 7914,
      "periodstart": 7915,
      "PackSizeCode": 7916,
      "ĠmodifiedField": 7917,
      "NumberOfColumns": 7918,
      "ĠvendorInvoices": 7919,
      "Ġneeded": 7920,
      "definition": 7921,
      "QuickFilters": 7922,
      "Ġrefresh": 7923,
      "ReportParametersLayout": 7924,
      "Ġvariables": 7925,
      "CustomAndQuickFilters": 7926,
      "GridLayoutDefinition": 7927,
      "Equ": 7928,
      "Must": 7929,
      "dirParty": 7930,
      "Ġx": 7931,
      "ĠGeneralJournalEntry": 7932,
      "ĠPROJ": 7933,
      "omic": 7934,
      "Ġtutorial": 7935,
      "FieldsTableAdapter": 7936,
      "ĠassetTransType": 7937,
      "CBARPTUnitPrice": 7938,
      "Ġremo": 7939,
      "PostTable": 7940,
      "LevelValue": 7941,
      "Apportionment": 7942,
      "POInvoice": 7943,
      "EventType": 7944,
      "ĠdefaultDimMap": 7945,
      "ĠJOIN": 7946,
      "anguageId": 7947,
      "cancel": 7948,
      "Ġderogatory": 7949,
      "SourcingPolicyRule": 7950,
      "CustCollectionsBI": 7951,
      "NB": 7952,
      "detail": 7953,
      "Ġ9": 7954,
      "ĠIt": 7955,
      "ĠDebug": 7956,
      "ĠĠĠĠĠĠĠĠĠĠĠĠĠĠĠĠĠĠĠĠĊ": 7957,
      "pex": 7958,
      "Income": 7959,
      "adual": 7960,
      "AmountMst": 7961,
      "Ġtasks": 7962,
      "Exg": 7963,
      "QueryRange": 7964,
      "parmCurrencyCode": 7965,
      "ĠassetImpairment": 7966,
      "CBARPTGST": 7967,
      "CalcType": 7968,
      "BalanceReportingDimension": 7969,
      "OrderId": 7970,
      "ProdBOM": 7971,
      "ĠApp": 7972,
      "BatchRun": 7973,
      "valueStr": 7974,
      "LinesStaging": 7975,
      "ĠdimensionFocusName": 7976,
      "apore": 7977,
      "PageWidth": 7978,
      "ImportId": 7979,
      "forecast": 7980,
      "OutboundCostAmount": 7981,
      "IfNoRows": 7982,
      "7399": 7983,
      "DimensionAttributeValueCombination": 7984,
      "HideIfNoRows": 7985,
      "PrepaidAmountEuro": 7986,
      "RemainAmountToBePaidEuro": 7987,
      "YearDepreciationPlan": 7988,
      "ĠBUDGETALLOC": 7989,
      "860": 7990,
      "ĠPro": 7991,
      "ĠMenuItemType": 7992,
      "MethodStr": 7993,
      "getE": 7994,
      "CBAContract": 7995,
      "Ġthrough": 7996,
      "LineRefRecId": 7997,
      "parmParent": 7998,
      "CBARPTIs": 7999,
      "CBARPTProdVolume": 8000,
      "Refund": 8001,
      "ĠBankLC": 8002,
      "Ġjour": 8003,
      "unitOfMeasure": 8004,
      "RouteAccessorial": 8005,
      "cbaParm": 8006,
      "ParmReportFinish": 8007,
      "Reduced": 8008,
      "LedgerJournalId": 8009,
      "555": 8010,
      "Consist": 8011,
      "Pickinglist": 8012,
      "SalesBalanceMST": 8013,
      "filterStr": 8014,
      "Ġflighting": 8015,
      "Ġfinancial": 8016,
      "CorrectiveReasonLines": 8017,
      "CalAmount": 8018,
      "customer": 8019,
      "CBAPOComplianceReportTmp": 8020,
      "roundOffDepreciation": 8021,
      "Voided": 8022,
      "120": 8023,
      "CA": 8024,
      "CGU": 8025,
      "Drill": 8026,
      "Econ": 8027,
      "clicked": 8028,
      "CBARoyalty": 8029,
      "CustTmp": 8030,
      "AssetParameters": 8031,
      "FieldsFieldGroups": 8032,
      "ĠreturnValue": 8033,
      "ĠCBATaxExciseDutyAdvPaym": 8034,
      "Capex": 8035,
      "ĠnewFrom": 8036,
      "RunDate": 8037,
      "ificate": 8038,
      "DetailsView": 8039,
      "ĠprocessReport": 8040,
      "InsertAtEnd": 8041,
      "ramework": 8042,
      "ActivityResource": 8043,
      "depreciationAltProfile": 8044,
      "ĠcostPrice": 8045,
      "ĠSalesPurchBook": 8046,
      "DirPartyTable": 8047,
      "PurchPurchaseOrderDS": 8048,
      "TaxRegistrationType": 8049,
      "Merge": 8050,
      "Authority": 8051,
      "omicActivity": 8052,
      "EconomicActivity": 8053,
      "226": 8054,
      "Catch": 8055,
      "dBy": 8056,
      "lExternalTable": 8057,
      "pond": 8058,
      "ĠOther": 8059,
      "CBACharge": 8060,
      "CBASourceSystemId": 8061,
      "CustParameters": 8062,
      "AssetSplit": 8063,
      "asis": 8064,
      "ReferenceGroupControl": 8065,
      "Ġwms": 8066,
      "IsEnabled": 8067,
      "008": 8068,
      "olidated": 8069,
      "CheckPost": 8070,
      "ExportDocumentLog": 8071,
      "EmailTable": 8072,
      "Ġsegment": 8073,
      "tmpProjBudgetBalances": 8074,
      "ĠbudgetSourceTrackingRelievingDetail": 8075,
      "Alternate": 8076,
      "CBARebateSettlementHeader": 8077,
      "Cleanup": 8078,
      "dataContractObject": 8079,
      "InventOwnerId": 8080,
      "SSCCLabel": 8081,
      "FT": 8082,
      "ecess": 8083,
      "Ġalcohol": 8084,
      "InDateRange": 8085,
      "umns": 8086,
      "ilai": 8087,
      "ĠCBADistributorIncentiveAccruals": 8088,
      "ĠbankCurrencyReval": 8089,
      "CostControl": 8090,
      "PageHeader": 8091,
      "ĠdepreciationProfile": 8092,
      "ĠSetEnumerator": 8093,
      "Ġ@_": 8094,
      "Ġvalidated": 8095,
      "6928": 8096,
      "prodTable": 8097,
      "parmReportName": 8098,
      "Reducing": 8099,
      "Ds": 8100,
      "LF": 8101,
      "Nilai": 8102,
      "ĠPds": 8103,
      "ĠAccountingSourceExplorer": 8104,
      "Prov": 8105,
      "Ġslip": 8106,
      "Budgeting": 8107,
      "HeaderDS": 8108,
      "259": 8109,
      "CBARPTQty": 8110,
      "ynchron": 8111,
      "ĠcustInvoiceTable": 8112,
      "FilterBy": 8113,
      "createTrans": 8114,
      "150": 8115,
      "processReport": 8116,
      "PSA": 8117,
      "Ġimpacted": 8118,
      "essel": 8119,
      "ĠbookId": 8120,
      "BOMCalcItem": 8121,
      "WorksheetHeader": 8122,
      "ĠprocessingTable": 8123,
      "ĠprocessingTmp": 8124,
      "UsageLog": 8125,
      "Ġcomplet": 8126,
      "CBAEmplExternalTable": 8127,
      "ĠadvancedLedgerEntryHeader": 8128,
      "priorYears": 8129,
      "Ġphantom": 8130,
      "316": 8131,
      "PName": 8132,
      "caption": 8133,
      "ĠTh": 8134,
      "ĠHeading": 8135,
      "laint": 8136,
      "SalesType": 8137,
      "Ġsign": 8138,
      "istration": 8139,
      "Conv": 8140,
      "InventStatusId": 8141,
      "UpDepreciation": 8142,
      "index": 8143,
      "ĠCle": 8144,
      "amountToDepreciate": 8145,
      "BPO": 8146,
      "StartDateTime": 8147,
      "TitleDataSource": 8148,
      "DeliveryNote": 8149,
      "046": 8150,
      "Ġresults": 8151,
      "TransportationPackage": 8152,
      "ReversalTrans": 8153,
      "MoreUrl": 8154,
      "ĠArray": 8155,
      "ataset": 8156,
      "CallStack": 8157,
      "ĠProcesses": 8158,
      "****************": 8159,
      "arnMoreUrl": 8160,
      "(@": 8161,
      "Have": 8162,
      "RT": 8163,
      "SUM": 8164,
      "OfYr": 8165,
      "Look": 8166,
      "PrintManagement": 8167,
      "ĠtransType": 8168,
      "Ġcontrolled": 8169,
      "Ġdocuments": 8170,
      "loadId": 8171,
      "ExternalCode": 8172,
      "583": 8173,
      "ReasonComment": 8174,
      "TransportationDocument": 8175,
      "HcmBI": 8176,
      "OCC": 8177,
      "emptyString": 8178,
      "UnitOfMeasureSymbol": 8179,
      "isFieldModified": 8180,
      "Ġallowed": 8181,
      "AdditionalDepreciation": 8182,
      "ContactPersonName": 8183,
      "lapsed": 8184,
      "Certificate": 8185,
      "LoadsPickinglist": 8186,
      "ecessary": 8187,
      "864": 8188,
[...]
